#version: 0.2
Ġ t
Ġt h
Ġ a
Ġth e
i n
o n
Ġ [
r e
Ġ s
A T
M AT
MAT H
t i
Ġ ,
e r
Ġ o
Ġ c
Ġ .
Ġ f
e n
Ġ w
i s
a l
Ġ p
Ġ in
Ġo f
o r
Ġ b
ti on
a t
Ġ d
e s
e d
i t
n d
Ġ m
a r
Ġ e
a n
Ġa nd
r o
in g
l e
i c
Ġt o
Ġ is
Ġ n
a s
Ġ h
Ġ re
Ġ )
Ġ l
Ġ (
a tion
Ġ -
e c
e l
Ġf or
Ġ g
en t
e t
u s
i m
a c
o m
u l
i g
Ġw e
Ġ ]
l y
Ġc on
o w
Ġs t
o l
u r
v e
s t
it h
Ġth at
Ġ v
o t
s i
Ġw h
Ġ on
r a
Ġw ith
c e
Ġa s
Ġb e
q u
u m
Ġ 1
Ġe x
Ġa l
i l
ti c
Ġp ro
e re
Ġa n
u n
u c
a m
Ġb y
i f
o d
Ġa re
u t
r i
t er
u re
ec t
it y
Ġ 2
Ġth is
o s
i d
C I
T E
CI TE
v er
e m
Ġa t
Ġs p
p er
Ġ :
re s
Ġc om
at e
Ġ r
ro m
a b
g e
i r
t h
Ġs h
Ġm a
Ġd e
p l
Ġd is
Ġf rom
Ġ it
Ġo r
Ġre s
u nd
Ġp ar
Ġ k
ation s
t s
o re
ig h
ic h
d i
a in
Ġ le
Ġp h
Ġo b
Ġ us
Ġcom p
0 0
Ġh a
Ġc an
s e
p p
Ġc h
Ġs u
Ġm od
Ġc o
en er
Ġs e
Ġwh ich
c tion
Ġn ot
an t
Ġf ig
at ed
o c
Ġn e
i z
i v
si on
u tion
Ġ 0
Ġp o
ic al
y s
Ġ ra
Ġs c
Ġin t
d s
a ti
f f
Ġ j
as e
Ġ qu
in e
d er
er m
Ġha ve
i on
c t
Ġs y
es s
al l
en ce
Ġ un
d e
i es
l ow
Ġcon t
Ġwh ere
Ġmod el
as s
Ġt r
Ġc l
ri b
Ġf i
Ġc or
Ġ 3
ac t
Ġe qu
Ġ im
Ġon e
al ly
Ġa b
or m
if f
u e
Ġs ec
Ġsh ow
Ġt w
il l
el y
ent s
ere n
Ġa pp
Ġs im
Ġd iff
Ġin ter
Ġa c
Ġm e
un ction
el l
en s
a k
Ġ1 9
a g
r on
d uc
en d
Ġtw o
Ġe q
b le
Ġ i
Ġv al
Ġs o
g y
er s
ac h
ar y
igh t
ab le
Ġe v
s er
Ġ ;
Ġf unction
Ġres ul
ar i
o p
Ġthe re
c h
u p
at es
a nd
Ġ ener
uc h
Ġt im
Ġfor m
a d
t ain
p le
t ed
Ġdis t
Ġex p
Ġd et
s o
Ġ if
a y
l u
Ġtr an
o us
ac e
Ġthe se
Ġd i
ig n
p h
tion s
et w
st em
Ġh as
Ġob ser
Ġfi el
Ġp er
on d
Ġre l
Ġ2 00
ti al
Ġsy stem
Ġ 4
Ġp l
Ġal so
Ġal l
Ġn um
Ġin c
at ure
Ġo ur
Ġf in
o und
Ġener gy
Ġm o
Ġdiff eren
] -
ti es
Ġg iv
Ġm at
v i
ul ar
Ġde f
Ġa r
Ġas s
Ġe ff
an ce
et r
Ġs ol
re d
Ġs am
Ġp res
Ġs m
u g
Ġthe n
tic al
Ġobser v
Ġre g
b er
Ġe le
Ġm ass
Ġtim e
ti ve
Ġl ar
it e
a p
ul d
ot h
o g
Ġst ar
e en
th er
Ġf ol
Ġs uch
Ġa d
etw een
rib ution
Ġb etween
m ent
os e
t ing
r uc
Ġc ase
Ġth an
re e
Ġcon st
am et
Ġ 5
Ġv er
Ġn o
Ġc ol
Ġph ys
Ġsp ect
Ġfol low
Ġn on
g n
Ġh igh
Ġg ener
or s
Ġon ly
Ġfiel d
Ġpar tic
Ġsu b
Ġl ine
Ġor der
Ġ y
es t
Ġpo in
m m
Ġ z
ug h
Ġpar amet
Ġac c
p end
Ġob tain
Ġ ro
Ġw ill
Ġm ore
a x
ti m
Ġse e
or t
Ġapp ro
an g
ar d
Ġd at
Ġgiv en
f orm
is t
Ġe m
Ġ19 9
ac k
0 1
Ġl ow
in ed
om e
ens ity
on g
Ġdis c
Ġs et
Ġsc al
Ġg al
Ġc al
Ġp a
Ġma gn
Ġcon si
Ġd ec
Ġus ing
Ġab o
c es
ati ve
Ġme as
Ġe t
Ġst ate
Ġd o
Ġdat a
Ġtran s
Ġw as
v es
Ġh ow
Ġf ir
Ġre p
Ġra di
u d
es c
Ġresul ts
t ure
Ġo ut
Ġan al
Ġv ari
c ul
Ġfir st
Ġ ?
Ġc ur
Ġt erm
Ġg ra
a us
x im
l es
Ġsm all
ti v
Ġmeas ure
Ġe ach
il ity
v el
Ġo ther
Ġle t
Ġres p
us t
Ġb ut
u es
Ġm et
o uld
Ġcor re
Ġex t
an ge
or k
Ġ en
Ġb ec
Ġwh en
r al
Ġd ensity
Ġim p
Ġf act
Ġp re
Ġo p
Ġ '
si tion
y p
Ġnum ber
Ġit s
Ġo ver
Ġl i
res p
Ġs in
Ġ 6
Ġele ct
Ġcal cul
Ġdifferen t
Ġbe en
Ġcor resp
Ġre f
Ġass um
a ge
Ġt em
re n
Ġg ro
Ġre c
ac tion
Ġgal ax
Ġsin ce
or y
Ġh e
Ġs ign
Ġs ur
i le
Ġ x
ar k
id e
Ġs ome
at ing
Ġb as
Ġdist ribution
Ġ up
Ġw a
Ġsec tion
en sion
d ing
y n
b it
Ġb ound
e ver
Ġsam e
ic i
p t
Ġlar ge
Ġfig ure
di tion
ect ed
as t
Ġl im
Ġ und
iz ed
Ġch ar
Ġreg ion
Ġf e
k e
en tial
e g
iz ation
o ur
Ġl oc
Ġb oth
e tic
Ġa m
Ġlim it
Ġpro c
f ore
Ġhow ever
i ed
Ġval ue
Ġconsi der
Ġval ues
Ġpro p
Ġtem per
Ġd esc
Ġeff ect
Ġt yp
Ġtemper ature
Ġpres ent
Ġus ed
Ġma y
Ġph ase
ra m
Ġint o
t e
Ġan y
Ġ es
i an
en c
ic s
g th
as es
i al
Ġin de
Ġthe ir
Ġund er
ro s
Ġst ruc
Ġpoin t
Ġth us
Ġequ ation
Ġde pend
Ġshow n
ab ility
Ġa p
Ġb l
e ar
Ġf l
Ġp os
Ġw ell
Ġsp ace
Ġsp in
h er
Ġus e
Ġt ak
yn am
Ġs ing
Ġh ere
Ġ 7
im ension
Ġsol ution
is e
Ġa g
ol ution
Ġ' '
i p
r ic
pl ic
if ic
Ġd en
mm etr
Ġcomp le
Ġcorresp ond
on s
m ents
Ġstruc ture
Ġl in
Ġint eg
Ġthe ore
at ter
j ect
a il
Ġdi re
Ġin f
at or
Ġex per
Ġpro per
e v
Ġobtain ed
Ġso ur
Ġdet erm
c c
Ġst ates
Ġfollow ing
Ġinc re
an n
Ġph ot
o v
Ġwe re
Ġsim ul
Ġabo ve
Ġ1 0
Ġp ot
u al
e p
iz e
Ġsim il
is sion
Ġc ent
u pl
Ġme an
ere d
Ġre m
Ġexper im
ati s
Ġcon s
t on
Ġsimil ar
Ġmet h
Ġpos si
Ġ 8
Ġgener al
duc ed
Ġes tim
ro und
Ġpro v
Ġd ue
Ġmodel s
Ġmeth od
Ġf re
g er
Ġqu ant
Ġelect ron
it u
Ġd imension
Ġdesc rib
Ġobserv ed
Ġver y
n ow
Ġthe y
Ġsu per
Ġm in
Ġf lu
1 0
1 2
Ġ q
us ter
l l
Ġpro b
Ġdisc us
Ġex am
Ġd er
Ġproc ess
Ġthere fore
Ġv i
Ġquant um
ec h
Ġpot ential
Ġo per
Ġcon f
Ġsu pp
u b
r in
Ġparamet ers
Ġm om
Ġwh ile
Ġcomp on
Ġappro xim
Ġn uc
o un
m s
an e
Ġmagn etic
ation al
Ġco upl
tiv ely
a re
Ġcl uster
Ġrep res
p tion
Ġmo st
p ar
Ġb r
er o
f t
is h
Ġresul t
Ġv el
en ti
Ġf ound
a tic
aus e
Ġf it
Ġcon c
Ġcomp ut
o ugh
Ġparamet er
Ġvel oc
enc y
r um
Ġst ron
a v
Ġw ould
Ġex c
] .
Ġnot e
Ġ er
en gth
ec tion
ical ly
Ġcorre l
Ġsec ond
Ġ 9
g es
f ace
Ġw ork
Ġd ynam
Ġterm s
ect or
Ġgalax ies
Ġth ree
Ġm an
Ġpro ble
Ġthe ory
ri x
s ed
Ġin st
Ġcorrespond ing
Ġm ul
ent ly
o le
Ġ ed
Ġb el
ec tively
Ġcol l
Ġdef ined
ec tive
s c
ff ici
Ġsp ec
Ġanal ys
Ġstar s
Ġin i
Ġsing le
Ġr ange
Ġbec ause
Ġan g
Ġcl ass
Ġin d
Ġl at
Ġ2 01
Ġsc h
Ġne w
Ġmom ent
le ar
t al
orm al
ren t
Ġn ow
Ġem ission
i b
or d
ro p
Ġun i
Ġconst ant
Ġloc al
Ġpa per
ro ugh
Ġre al
Ġstron g
id th
Ġin v
Ġl o
Ġline ar
t y
is tic
Ġshow s
Ġfre qu
Ġwa ve
Ġmul ti
Ġ id
Ġsy mmetr
Ġmat rix
Ġinc lu
] [
h a
Ġab s
ti ce
Ġp ow
Ġg o
Ġth rough
Ġresp ectively
e w
Ġz ero
Ġne ut
Ġk now
Ġscal e
Ġbas ed
Ġst ud
a u
Ġd om
Ġle vel
Ġanalys is
i x
ros s
Ġveloc ity
i ve
Ġ1 2
Ġspect rum
itu de
Ġl ong
Ġfin d
Ġs um
Ġstud y
Ġrepres ent
ur b
Ġf r
Ġexperim ent
t en
Ġsystem s
Ġfunction s
Ġflu x
Ġder iv
Ġp ol
Ġfact or
Ġr ate
Ġpartic ular
in u
Ġwith in
om etr
Ġind ic
Ġpossi ble
Ġev en
Ġb and
Ġappro ach
Ġf ur
Ġfollow s
f ter
ati v
Ġa ver
Ġsur face
qu i
Ġcoupl ing
os ed
v ing
Ġs l
Ġexp res
le ct
1 1
Ġden ot
Ġra ti
Ġto tal
vi ous
0 2
Ġnum er
Ġpro duc
Ġev olution
Ġsh ould
Ġgro up
Ġcont ribution
Ġex pl
Ġproper ties
Ġdi ag
an ti
Ġabo ut
v al
Ġde g
Ġproble m
Ġ u
Ġlin es
Ġini tial
Ġg as
Ġbe ha
Ġp red
Ġpartic le
ign ed
Ġpow er
e x
Ġtheore m
Ġtyp e
Ġma in
Ġne ar
Ġ ent
Ġpar t
Ġh y
Ġequ ations
oc k
Ġdo es
Ġpa ir
ac ter
Ġad dition
r m
Ġfin ite
Ġlow er
if t
Ġre qui
Ġl ight
ol d
Ġdis k
Ġexam ple
ra in
i od
Ġchar acter
oc i
Ġcont inu
ain s
Ġor bit
u ce
a ys
Ġma xim
Ġimp ort
ver se
Ġfi x
form ation
Ġp e
Ġne g
a w
Ġc ar
Ġli ke
Ġpred ic
Ġtran sition
Ġmin im
Ġb ack
Ġt ri
Ġst and
Ġinter action
ver s
Ġa fter
Ġal low
Ġra y
Ġo cc
er tain
Ġhigh er
o st
Ġs ize
Ġsign ific
u di
Ġer r
Ġbeha vi
si tive
Ġgra ph
Ġde p
Ġlar ger
ol og
Ġst udi
i ties
f ul
Ġqu anti
Ġsub s
Ġdef in
Ġper form
h i
p s
Ġpoin ts
Ġcon dition
ion s
Ġat om
Ġper iod
Ġg e
v ed
Ġf our
Ġb in
Ġcomp ar
Ġc ross
o ut
um in
is m
Ġth ose
Ġint ro
em ent
et s
ell ar
Ġsour ce
0 3
atis f
Ġl ength
Ġobserv ations
Ġam pl
Ġp r
l o
Ġeffect s
Ġanal y
Ġh ence
Ġs atisf
Ġh al
Ġi i
i er
Ġm on
Ġsam ple
ed i
Ġt ra
Ġn ormal
Ġto p
at h
Ġcur rent
Ġcom m
Ġsc atter
Ġ19 8
Ġcons ist
Ġthe rm
Ġpol ar
Ġha nd
Ġch o
Ġf ree
Ġdet ail
al s
Ġal ong
ic e
Ġmoment um
Ġsignific ant
Ġc r
Ġro t
Ġass oci
Ġint ere
Ġinde pend
Ġbel ow
Ġintere st
Ġdire ct
Ġfrequ ency
at ors
Ġf ul
r ation
Ġgalax y
i el
Ġeff ective
Ġid enti
Ġco uld
Ġg r
d uce
di tions
a red
Ġimport ant
d ered
Ġprob ability
Ġbound ary
1 3
Ġne ed
0 5
) (
Ġcon ditions
is ts
1 5
Ġpartic les
t u
] (
Ġ ir
Ġapp ear
el f
Ġpe ak
Ġpre vious
Ġra nd
Ġse par
Ġrati o
Ġcom b
Ġcompon ent
al ity
Ġl umin
Ġr ight
n i
si ve
Ġdire ction
0 4
Ġob ject
Ġm uch
Ġstand ard
oun t
Ġc lear
Ġg re
Ġdist ance
t urb
Ġknow n
Ġassum e
Ġw ay
Ġrand om
n ess
Ġun it
Ġsu g
d ed
Ġfiel ds
g or
Ġf erm
Ġc ir
ig in
Ġv ector
on e
Ġdescrib ed
at ely
Ġe ig
Ġnuc le
Ġor igin
Ġman y
Ġprov id
f er
ul ation
Ġw r
Ġop tical
Ġa x
Ġt able
qu ence
Ġspect ra
Ġun c
am il
o sition
Ġcomple x
Ġlat tice
1 4
Ġas y
an c
or ph
ur n
Ġcon n
ac tions
tiv ity
č Ċ
Ġpro f
ur ing
Ġconst ruc
Ġwe ak
e ffici
Ġmat ter
ith m
ver y
as ing
Ġeig en
Ġfe ature
v en
w ar
Ġfix ed
o f
in ation
ri tical
Ġnumer ical
Ġv ol
Ġle ad
Ġspect ral
Ġexc it
in d
Ġform ation
Ġsim ple
Ġaver age
iv al
Ġscatter ing
qu e
Ġexp ected
eren ce
od e
Ġco effici
Ġrel ation
er n
Ġs en
Ġgra v
Ġc all
Ġcir c
Ġconst rain
op e
Ġradi us
Ġim ag
Ġst ep
Ġle mm
Ġm ust
Ġpo ly
Ġh ol
Ġst ellar
Ġc os
Ġper turb
le c
Ġre st
ech an
olog ical
Ġsymmetr y
Ġsour ces
Ġsimul ations
et her
Ġfur ther
Ġdepend ence
Ġcorrel ation
ann el
Ġdimension al
Ġindepend ent
Ġ1 3
Ġf low
an ces
Ġ1 5
ds h
Ġex act
o gy
Ġal gor
Ġassoci ated
ab les
Ġdec re
Ġapproxim ation
Ġc ases
Ġb ro
w ard
os ity
2 2
us ion
Ġexpres sion
Ġc ritical
ti g
ton ian
on ds
Ġocc ur
ic k
Ġre dsh
on al
Ġconsi dered
ut e
en e
Ġm echan
Ġdec ay
a ds
Ġmeasure d
Ġst r
Ġdynam ics
Ġpo p
m a
Ġres on
g round
Ġa round
Ġle ft
ter n
Ġqu ark
t r
Ġrel ativ
Ġbehavi or
as i
Ġt re
en ds
Ġse en
Ġabs or
Ġlemm a
o k
0 7
Ġdom in
Ġch annel
ti t
etw ork
Ġbl ack
Ġpl ot
Ġpo sitive
u ally
Ġco un
Ġf ram
Ġdeterm ined
0 6
Ġconsist ent
Ġpl ane
Ġh amil
m an
Ġin formation
Ġsmall er
s on
1 6
Ġn etwork
Ġdifferen ce
Ġresp ect
Ġp ul
Ġa st
at ur
om es
Ġin s
Ġo sc
Ġs ti
Ġin ves
Ġ1 4
Ġc y
Ġy iel
c on
Ġinves tig
Ġregion s
Ġex ist
Ġequ ival
Ġcon ver
Ġs er
Ġosc ill
n er
Ġcos m
Ġgiv es
Ġsolution s
or ted
Ġe ar
Ġm as
Ġdef ine
Ġcalcul ated
ol ogy
Ġexperiment al
Ġfl uc
Ġidenti f
Ġa v
pl es
Ġexp on
Ġse ver
pl ies
Ġfluc tu
Ġt ech
r ated
Ġl ess
Ġhamil tonian
ith er
Ġbe ing
2 5
Ġsever al
Ġpl an
ing s
Ġst atis
Ġmeasure ments
Ġre d
tic ally
Ġd es
Ġv an
Ġcompon ents
Ġfr action
Ġcur ve
Ġe very
Ġk e
Ġcorre ction
Ġoper ator
Ġwith out
Ġform ul
Ġw idth
Ġdiag ram
p ut
. [
Ġtim es
al igned
Ġof f
o ver
Ġback ground
Ġpres s
Ġmod e
Ġb o
Ġb i
g s
th ough
Ġcalcul ations
Ġ ion
0 8
Ġdefin i
Ġch ange
Ġal though
Ġb ar
Ġbec omes
Ġe l
on ic
Ġpre c
0 9
Ġl aw
on st
Ġpro of
Ġphys ical
Ġcl ose
l ine
1 9
Ġag ain
Ġdiscus sed
Ġ1 6
ig ur
Ġinteg ral
Ġcent ral
Ġcomp ared
Ġmaxim um
as h
x t
Ġc m
g ies
Ġext end
in t
Ġs n
ac es
Ġf il
Ġch ang
1 7
Ġd uring
Ġp an
w idth
pl ied
Ġconf igur
Ġestim ate
Ġlumin osity
Ġpresent ed
Ġinv ari
Ġrel ated
k y
Ġno ise
Ġop tim
ord in
l ed
1 8
Ġup per
Ġunc ertain
b ers
tic es
f ig
if ied
im e
Ġcont r
Ġpo sition
Ġm ix
Ġerr or
an sion
Ġrel ative
Ġb re
x iv
od es
Ġequ al
e ad
oc h
Ġphot on
om p
Ġma p
Ġs qu
Ġh el
Ġderiv ed
si tions
Ġcont ain
y ing
i ble
Ġtherm al
Ġampl itude
Ġsh ap
or ding
Ġfin ally
ro w
Ġed ge
o id
4 5
2 3
Ġsug ges
v ant
Ġs elf
Ġsp ati
Ġexp ansion
il ib
Ġar g
Ġsch em
Ġcluster s
Ġ end
Ġge ometr
ag n
Ġalgor ithm
Ġthe m
Ġa ut
Ġco ordin
si an
Ġs em
Ġsti ll
Ġg aus
Ġpan el
Ġele ments
Ġsign al
Ġa ct
Ġlo op
Ġp ath
Ġacc ording
Ġre as
Ġ1 8
Ġim plies
Ġmo tion
Ġha d
Ġchar ge
Ġe ither
duc tion
ar ch
Ġinter actions
res s
Ġang le
le ction
Ġne xt
it ud
Ġcorresp onds
Ġmod es
Ġclass ical
vel op
re ad
si ties
c op
Ġ "
Ġcall ed
Ġv is
c i
Ġgro und
Ġle ast
Ġtak e
Ġmagn itude
Ġtak en
ar g
si de
Ġg ive
is on
at her
Ġpro g
Ġdenot e
Ġbe am
ge b
Ġful l
o od
Ġsum m
Ġgo od
Ġener gies
Ġphys ics
Ġacc ur
Ġres olution
Ġradi o
an ts
Ġneut rin
ab ly
Ġcont ro
ri d
Ġh ole
Ġse quence
Ġacc ount
ow n
ilib ri
Ġh om
Ġcur ves
plic it
Ġag re
Ġobject s
rop y
Ġinf in
Ġang ular
Ġw or
is ion
Ġsh ort
Ġgro w
p c
Ġg au
ly ing
Ġexp ect
u le
c l
( [
Ġc ap
Ġunder st
Ġredsh ift
Ġde velop
Ġd em
Ġ1 7
Ġar xiv
Ġsol id
Ġmean s
l ess
oth er
Ġinter p
Ġgau ge
etr ic
c s
as tic
o tic
Ġap plic
Ġele ment
Ġt urn
Ġmass es
Ġg et
ilibri um
3 5
Ġpres ence
ren gth
Ġlin k
Ġcent er
Ġdefini tion
Ġst rength
lect ed
Ġl ay
ros cop
c d
ec k
Ġstudi ed
ce pt
Ġr ather
b ility
Ġgaus sian
Ġfin al
Ġeff ici
Ġax is
Ġneg ative
it er
Ġscal ar
ra y
i i
Ġinde ed
Ġex ists
m pt
Ġan other
Ġincre asing
w h
Ġa ff
om orph
Ġtheore tical
Ġap plied
Ġa ction
Ġcon se
id ence
al u
Ġl os
Ġuni vers
Ġfe w
pp ing
Ġle ads
Ġacc re
Ġcalcul ation
Ġs ide
ul t
Ġsu ffici
Ġbas is
g c
Ġreg ime
Ġprop ag
3 3
ect ors
Ġvi a
Ġdisc re
Ġbr ight
Ġhe p
Ġc ut
r ate
Ġbe fore
2 4
Ġh ar
] ,
ec ess
Ġaddition al
Ġg ap
Ġcompar ison
Ġc ore
Ġd ark
Ġd own
Ġl og
Ġprov ide
Ġb ul
Ġc ell
Ġf ar
Ġd ust
ac tic
Ġre le
Ġpro j
Ġ ide
) [
Ġincre ase
te x
Ġrel ations
Ġprocess es
Ġvari ous
Ġm ic
igh b
Ġequ ilibrium
Ġtrans form
Ġincre ases
Ġev alu
Ġinde x
Ġabsor ption
Ġn ecess
Ġpress ure
Ġn atur
Ġdepend ent
h e
or tion
Ġdiscus sion
Ġreas on
Ġinterest ing
Ġli k
ur st
od y
Ġin di
Ġop en
l i
Ġfluctu ations
Ġmeasure ment
Ġvari ables
7 5
Ġsc i
Ġne ighb
if orm
Ġgrav it
Ġdistribution s
Ġwh at
Ġmore over
Ġb et
Ġdep ends
lo b
Ġinv ol
Ġmethod s
Ġp rin
2 0
Ġfeature s
Ġbre ak
Ġstudi es
Ġb os
Ġdis per
Ġd el
Ġ ill
om ial
at er
Ġr un
Ġequival ent
Ġexperim ents
ot t
Ġex plicit
Ġinter val
um e
Ġdeg ree
m edi
Ġformul a
Ġresul ting
Ġim age
l it
Ġasy mpt
Ġpr im
Ġsimul ation
Ġspati al
Ġmo lec
it ten
Ġsim pl
Ġre ach
Ġan ti
Ġal geb
ic ation
Ġexpl ain
Ġg lob
Ġre v
Ġradi ation
Ġver tex
Ġoper ators
Ġmat er
Ġ2 5
Ġl ab
Ġn gc
Ġcl o
ph ys
2 6
Ġcontinu ous
Ġprof ile
Ġs w
pl ac
Ġsymmetr ic
Ġcharacter istic
o oth
Ġcorre ct
Ġagre ement
Ġscal ing
Ġinclu ding
Ġun iform
Ġb est
Ġ200 0
Ġco h
e qu
Ġcol or
Ġ199 8
Ġhy per
Ġma de
d ro
n ing
Ġscal es
Ġrec ent
re t
Ġlos s
Ġmater ial
Ġl ast
Ġ2 0
os ph
o int
Ġvan ish
Ġproc ed
ab il
Ġrem ain
Ġsur ve
Ġpop ulation
agn etic
Ġd ot
Ġtech ni
Ġproced ure
Ġwh ose
Ġh or
Ġma k
Ġev ent
Ġma ke
Ġg ev
ang le
Ġperform ed
Ġ1 00
Ġclear ly
g est
, ,
Ġassum ed
Ġdiscus s
Ġcoeffici ents
m ost
Ġlead ing
Ġev ents
Ġimp ro
um n
Ġprop osed
Ġdeterm in
Ġdeterm ine
Ġvi ew
Ġm edi
Ġsm ooth
Ġrot ation
Ġap j
vel ength
rib ut
) -
Ġelectron s
itud es
l ish
Ġj ust
Ġre duced
m it
Ġt ens
2 8
Ġ1 1
ac y
Ġph en
Ġd ri
Ġm es
ar s
g en
Ġsp lit
Ġinvari ant
Ġminim um
u ble
ri ption
Ġin duced
Ġh ard
in s
Ġdynam ical
Ġvol ume
si ble
Ġm er
ic ity
Ġd ash
Ġ199 9
Ġsh ock
Ġab und
Ġwa velength
Ġhy dro
Ġ200 3
Ġcontribution s
Ġar bit
Ġcol umn
Ġset s
Ġspec ific
b r
ar ies
Ġn am
Ġeq s
Ġ200 1
Ġshap e
og ene
Ġcont ains
Ġpolar ization
Ġrest ric
an ch
v id
k i
Ġvari able
Ġtyp ical
ir al
ce ed
Ġarbit r
Ġch em
Ġm ark
3 4
Ġat t
Ġradi al
Ġproduc tion
Ġser ies
Ġdescrib e
Ġneut ron
Ġwe ight
Ġo ri
Ġpro t
it es
Ġn ature
Ġdo uble
2 7
2 1
Ġeigen val
l in
res h
Ġdisper sion
2 9
Ġaccre tion
om en
ex t
Ġcon ven
Ġav ail
Ġfor ce
Ġsc en
Ġgener ated
Ġc re
Ġt est
y st
Ġnuc lear
Ġ200 4
Ġschem e
Ġresp on
Ġcontinu um
Ġscen ari
Ġco ol
Ġac hi
Ġimag es
Ġphen omen
um p
ra ph
Ġrequi red
Ġ200 2
Ġmet all
Ġtrans p
b ed
j or
Ġchang es
Ġdem onst
Ġatom s
el er
Ġindi vid
Ġdet ected
Ġsy n
am ent
Ġst able
os en
Ġqu as
z ation
Ġj et
Ġ2 4
w ays
Ġstrong ly
Ġen ough
Ġassum ing
Ġassum ption
Ġcomple te
Ġ ens
Ġ200 6
Ġgal actic
t z
f s
i a
Ġpoly n
Ġt or
Ġextend ed
tic s
enti ally
duc t
Ġf und
Ġal most
Ġalgeb ra
om b
g ence
th erm
Ġstructure s
Ġcon d
id es
Ġs itu
Ġneutrin o
Ġ200 5
read y
Ġcalcul ate
Ġal ready
Ġe ll
Ġferm i
Ġ19 7
Ġavail able
Ġtak ing
Ġver tices
Ġast ro
Ġf oc
Ġp ure
Ġyiel ds
re m
Ġsp e
Ġcomp act
Ġsol ar
Ġallow s
Ġm em
3 6
Ġproduc t
Ġch osen
Ġpolyn omial
k s
Ġl atter
Ġtemperature s
Ġc ertain
Ġbro ad
Ġpar ti
Ġdash ed
Ġm ight
Ġcho ice
Ġl a
or ies
9 9
Ġw ind
Ġc aus
Ġt un
Ġrec ently
n e
Ġinst ead
Ġr ates
Ġm etric
e ti
Ġill ust
e in
ane ous
en ces
Ġ199 7
enc ies
Ġth resh
Ġarg um
Ġfl at
Ġpul s
Ġmat ch
as ed
5 0
Ġmas sive
s s
Ġal ways
Ġreg ular
Ġsignificant ly
Ġwr itten
Ġrequi re
Ġconc lu
Ġunderst and
Ġdirect ly
w ise
Ġhal f
Ġhor iz
Ġobserv ation
Ġma jor
Ġconfigur ation
Ġp atter
Ġnum bers
line ar
Ġv ac
s p
Ġ ess
Ġconn ected
Ġqu ad
Ġindivid ual
ri es
Ġrepresent ation
Ġb ody
z ed
a ve
Ġhal o
Ġso ft
Ġbl ue
Ġerr ors
3 8
is ing
Ġare a
Ġdet ection
Ġorbit al
Ġdom ain
ra g
Ġ199 6
Ġval id
g ed
iz ing
duc es
Ġsuper con
et er
Ġwh ether
Ġpatter n
p id
Ġconstrain ts
Ġde vi
3 7
Ġori ent
en tion
p ly
Ġs low
therm ore
Ġconc l
Ġfur thermore
b ol
Ġin put
hi bit
Ġdesc ription
Ġlet t
Ġk in
Ġestim ated
5 5
Ġhol ds
Ġth ough
Ġt arg
Ġen h
Ġsy m
Ġsh ell
Ġex ch
iz es
Ġbin ary
Ġbec ome
4 4
Ġcontro l
Ġbr anch
Ġ200 7
al le
Ġin ner
Ġrele vant
c o
t t
Ġprovid es
Ġad op
Ġse arch
Ġdifferen tial
Ġgravit ational
Ġpro ve
b s
d d
Ġinter n
Ġuse ful
Ġreson ance
r act
Ġpl as
Ġappear s
Ġtens or
Ġfoc us
Ġtr ue
Ġcl os
Ġst ra
Ġdetail s
Ġden sities
Ġphot ometr
Ġme v
in c
Ġmolec ular
Ġex tern
rom agnetic
Ġcomm on
Ġintro duced
Ġto g
Ġfram e
Ġcorrection s
Ġprovid ed
Ġasympt otic
ti l
Ġexist ence
Ġsl ight
Ġdiff ic
Ġaver ag
Ġqu es
Ġhoriz on
Ġre n
in al
- [
Ġtrans fer
r y
Ġtog ether
Ġse em
Ġam ong
Ġent ropy
Ġuni verse
Ġdiag onal
Ġcorrel ations
h z
ear ch
Ġconc ent
Ġg u
en ing
roscop ic
Ġcr yst
vi al
Ġext rem
Ġnatur al
Ġmat h
d es
Ġstatis tical
Ġres earch
Ġprop ortion
Ġsupp ort
Ġlik ely
en di
Ġro le
ect s
w n
in ary
Ġbet ter
Ġman if
Ġcoeffici ent
Ġinclu de
Ġch eck
Ġmulti ple
r as
Ġa gn
Ġ200 8
t o
Ġextern al
Ġprop osition
Ġed ges
war ds
Ġl ag
Ġell ip
Ġhad ron
o h
Ġcomp are
3 0
Ġsqu are
ativ ely
ric es
Ġpair s
Ġsupp ose
Ġk m
Ġ est
. ,
3 9
Ġsub st
Ġrelativ ely
Ġphot ons
il es
Ġad j
Ġmechan ism
Ġcl osed
ig gs
Ġarbitr ary
it s
Ġth ick
Ġsp her
ti f
alle l
Ġdetail ed
3 1
Ġpro duced
Ġe p
z e
Ġthresh old
Ġproper ty
Ġnon linear
i e
Ġcon ser
Ġex hibit
Ġglob al
Ġar ray
Ġacc eler
3 2
Ġsh all
Ġqu ite
6 5
Ġrem ark
Ġsing ular
Ġg am
o y
ogene ous
Ġfact ors
endi x
Ġhe av
s h
Ġin equ
asi ly
Ġobser ve
Ġe asily
Ġen v
Ġcomput ed
medi ate
r ang
Ġmod ul
ot rop
Ġsystem atic
00 0
Ġco ver
Ġh iggs
Ġint ensity
Ġapp endix
. .
Ġ200 9
Ġbul k
em atic
Ġnecess ary
Ġwr ite
4 8
Ġrel ax
Ġgeometr y
Ġd iv
Ġn ode
Ġcy c
if ts
Ġconf ir
Ġs ite
Ġm ention
Ġgre en
Ġth ir
Ġperiod ic
Ġra pid
Ġan is
Ġb ott
Ġexact ly
pp ed
l er
ore d
Ġal tern
. ([
an k
el s
Ġflu id
Ġs us
Ġrem ains
Ġch ain
Ġim ple
Ġmedi um
Ġd war
Ġdeg ener
Ġcond ens
Ġrep ro
Ġy ear
Ġcoupl ed
act ing
Ġv ary
Ġt ab
Ġprin ci
Ġlay er
Ġspec ial
Ġsec tions
as si
Ġth in
Ġpar allel
b y
k now
Ġcontr ast
4 9
ir on
Ġdi p
Ġc at
Ġfund ament
Ġsam ples
Ġtrans verse
Ġev idence
Ġrep orted
Ġad d
Ġoccur s
Ġref er
Ġcomb in
eren t
ari ly
Ġp ur
Ġoptim al
Ġdenot es
Ġquanti ties
e q
Ġsurve y
Ġext ra
Ġk ev
Ġlat er
Ġm n
if y
Ġtrans formation
l ation
p or
Ġheav y
Ġ199 5
Ġ2 6
f or
Ġvac u
Ġg lu
Ġrelativ istic
Ġha ving
Ġma ps
Ġsupp orted
Ġspe ed
Ġexch ange
is ting
Ġperturb ation
l d
Ġo pp
o b
ar t
Ġdiff usion
Ġimple ment
Ġl as
Ġmat rices
Ġcoordin ates
vi ew
Ġintro duce
Ġsp h
Ġdec omp
Ġaut h
Ġenv iron
Ġsh ift
Ġsim ply
ol ved
Ġwhere as
Ġinfin ite
o ff
t aneous
Ġrepres ents
Ġd one
Ġph ases
Ġear ly
Ġatom ic
Ġnam ely
is ions
Ġestim ates
Ġorigin al
Ġplan et
Ġp ic
Ġcar ri
am p
Ġs ky
Ġs uc
Ġcomput e
Ġin side
h ood
st ein
Ġbound ed
tim e
Ġsimilar ly
Ġinc l
Ġchem ical
Ġ2 8
Ġe as
Ġ3 0
Ġlimit s
Ġthir d
4 7
Ġtran sitions
Ġg l
Ġuncertain ty
Ġbl ock
Ġp ri
mmetr ic
r ing
Ġelect ric
ut ure
Ġgrow th
Ġvari ation
Ġapp ly
Ġgroup s
Ġ201 0
Ġneighb or
Ġtransp ort
e e
al ed
Ġc ode
Ġth m
or ation
Ġprof iles
Ġcomple t
6 6
os ite
Ġfundament al
Ġdifferen ces
Ġcho ose
4 0
Ġ2 7
th e
Ġslight ly
Ġpredic ted
Ġmix ing
ic es
Ġvacu um
ber g
Ġto o
Ġen ti
Ġsatisf ies
res sed
Ġqu bit
ribut ed
9 8
Ġproble ms
Ġuni que
Ġlevel s
Ġqu asi
Ġproportion al
Ġfit ting
Ġf uture
Ġen c
Ġbott om
Ġc and
p ri
Ġfrequ encies
Ġscenari o
Ġb u
Ġinteg ration
Ġinter s
Ġder ive
Ġstr ing
Ġrec all
ol ation
t a
w e
g o
Ġt el
Ġb ary
Ġtarg et
m ann
9 5
Ġwa ves
Ġii i
Ġon es
Ġconclu de
Ġtak es
Ġren ormal
ag es
ab lish
Ġc a
Ġapproxim ately
an s
am i
c ess
Ġappro pri
ot s
Ġest ablish
Ġconsider ing
se ud
id ent
Ġgrav ity
Ġro ugh
otrop ic
Ġm id
y r
es is
Ġtyp es
assi f
Ġk ine
ific ation
Ġanal og
Ġd ual
Ġf ill
Ġbe g
4 6
Ġsci ence
Ġdiscre te
Ġl ens
Ġp ass
Ġst ability
Ġp s
9 7
Ġp seud
Ġgra di
anc ed
Ġinf lu
Ġm m
Ġdet ector
Ġcoll isions
Ġcosm ological
o ve
Ġrequi res
Ġconfir m
Ġb al
Ġsitu ation
Ġco inc
Ġpro duce
Ġform al
Ġinf ra
Ġdimension s
Ġbe y
Ġtel esc
Ġdi ver
Ġexcit ation
Ġn ar
Ġtra ject
Ġver sion
ce p
Ġgener ally
i um
Ġdecre ases
Ġband s
Ġab le
Ġsuffici ently
Ġbey ond
Ġcand id
b and
Ġinclu ded
i or
Ġout er
Ġd r
Ġdomin ated
si d
Ġn odes
Ġnuc l
Ġs f
Ġinter mediate
qu es
rin s
al e
Ġconstrain t
at ory
Ġal igned
Ġma g
is ed
Ġcl assif
Ġref erence
ew ork
, -
Ġidentif ied
Ġconse qu
Ġ201 1
Ġre t
Ġfram ework
Ġinst ance
Ġt es
Ġinfra red
Ġcur v
Ġcoun ter
Ġrespon se
w ay
Ġem pl
Ġor th
Ġcomm un
Ġindic ates
Ġsph ere
" ,
Ġclo ud
Ġques tion
it t
Ġrati os
i ally
Ġc f
Ġferm ion
Ġinterp ret
Ġd ir
o u
Ġcal ib
Ġconstruc tion
is s
Ġexp and
Ġuncertain ties
Ġu v
Ġneut ral
Ġindic ate
s y
f aces
Ġh ist
Ġp erm
Ġsepar ation
Ġr ich
Ġcoordin ate
Ġplas ma
Ġfunction al
Ġtri vial
Ġob vious
e f
Ġs ay
Ġext ract
Ġpredic tions
Ġexpres sed
Ġid en
Ġlo ok
Ġinvestig ate
m er
Ġs a
Ġre view
Ġcon v
Ġstra ight
Ġenti re
re es
6 7
Ġexpon ential
Ġpo st
Ġq cd
g ing
a rent
Ġit er
Ġt ree
Ġcool ing
Ġ199 4
Ġprinci ple
l ing
Ġa ge
Ġbas ic
u k
Ġext ension
Ġdep th
is ms
r s
Ġde v
ec tions
Ġmetall icity
Ġin verse
Ġ2 2
Ġcoll ap
Ġno tice
Ġv ectors
Ġeffici ency
d f
Ġl if
Ġf er
Ġk n
Ġcont ext
Ġli e
a res
Ġtre at
Ġpossi bility
res sion
Ġsen se
Ġh ot
ev ed
Ġdist in
Ġsatisf y
) ,
Ġre ve
6 8
Ġnetwork s
Ġkine tic
Ġhar m
i k
Ġampl itudes
abil ities
Ġpl ay
Ġcoll ab
Ġl y
or der
5 7
Ġre plac
Ġcurv ature
mmetr y
Ġp ix
Ġcoll ision
Ġr ing
Ġt urb
Ġa u
osph ere
Ġ2 1
Ġconst ants
Ġon ce
Ġle m
Ġm orph
Ġdis pl
Ġappropri ate
Ġreg ard
Ġh yp
Ġset ting
Ġn an
Ġg en
Ġpic ture
Ġn or
Ġcosm ic
Ġful ly
b i
Ġat m
Ġpro ton
Ġse lected
Ġam ount
is es
Ġfil ter
Ġeq n
Ġaccur acy
v ari
Ġm c
Ġcomplet ely
Ġminim al
Ġint rins
Ġover l
Ġem bed
Ġpr ac
Ġd op
Ġneed ed
ynam ic
Ġir re
Ġ5 0
Ġne ver
Ġto wards
Ġintern al
Ġlong er
Ġpar ts
Ġstar ting
Ġs ites
Ġ201 2
Ġdiagram s
Ġapproach es
Ġveloc ities
Ġdepend ing
6 0
Ġcons ists
Ġlimit ed
Ġgraph s
Ġke y
Ġdet ect
Ġexam ples
Ġtop ological
Ġquanti ty
Ġ ri
Ġnucle i
Ġat tr
Ġmagn eti
Ġwh ite
Ġent angle
Ġturb ul
Ġmet al
Ġdiffic ult
Ġloc ated
Ġform ed
p tions
Ġeigenval ues
Ġsl ope
Ġabs ol
Ġf ast
Ġex cept
c a
it z
Ġre sid
f unction
Ġpro ceed
u ish
Ġconse quence
Ġmention ed
4 3
Ġchannel s
Ġnar row
Ġinequ ality
Ġtyp ically
Ġn m
qu id
Ġhe at
Ġconver gence
Ġpar tial
ov a
Ġem it
omorph ism
Ġpul se
f low
am b
Ġabund ance
Ġini ti
Ġst ation
Ġcomb ination
Ġentangle ment
tit le
Ġconfigur ations
Ġli quid
Ġhigh ly
av ity
Ġw ide
Ġdevelop ed
Ġsugges ts
Ġyear s
si tivity
il d
Ġenviron ment
Ġdeg rees
Ġover all
Ġac tive
ra d
tic le
Ġfin ding
Ġfit s
Ġmak es
Ġfre ed
Ġhel p
Ġver tical
Ġanaly tic
Ġis s
Ġlow est
Ġfour ier
Ġus ually
Ġspher ical
Ġbehavi our
p ec
Ġwh ole
Ġof ten
Ġus ual
Ġauth ors
Ġp ack
Ġplot ted
om al
Ġ2 3
Ġinteg er
Ġcat al
Ġh ub
5 8
Ġst ri
9 6
Ġg a
Ġoscill ations
Ġprog ram
Ġcr iter
Ġ. -
Ġgeneral ized
plic ity
si p
Ġch iral
Ġdecre ase
Ġargum ent
Ġvari ations
n el
Ġexpression s
Ġtechni que
Ġout put
Ġsupercon duc
el ess
Ġsumm ar
Ġits elf
in o
ut h
Ġsubs tit
Ġlas er
Ġbi as
is ted
Ġw all
Ġse lection
Ġdec ays
Ġd ra
Ġear l
s et
Ġle pt
Ġallow ed
Ġph on
Ġsuffici ent
Ġpeak s
Ġderiv ative
Ġconstruc t
led ge
Ġb urst
b urst
i re
Ġr ule
Ġcomput ation
ber t
Ġ199 3
Ġunivers ity
ami ly
Ġro b
Ġtrans m
Ġre duction
Ġp ub
Ġse g
Ġapp arent
Ġtherm od
igh ts
Ġcomb ined
Ġstar t
p ro
Ġs i
Ġbos on
Ġorbit s
Ġocc up
Ġrelax ation
le y
Ġsug gest
Ġpl ace
Ġan omal
Ġchar ged
g an
Ġimpro ve
Ġtech n
Ġh ost
Ġd m
Ġo dd
Ġco ur
et y
Ġv ir
4 2
Ġunit s
Ġdist ances
Ġdis sip
Ġqu al
Ġfreed om
on ical
Ġapplic ations
1 10
Ġf amily
Ġmod ified
Ġgre ater
Ġnormal ized
Ġiden tical
Ġexplicit ly
Ġcoupling s
Ġprevious ly
it ch
Ġpo sitions
Ġhyp oth
Ġl iter
Ġdef orm
Ġdiff us
h ip
er ic
Ġnot ation
imension al
Ġinter acting
Ġnucle on
Ġsub se
Ġseem s
Ġstep s
Ġan s
Ġcoh erent
Ġc avity
Ġdenot ed
Ġparti tion
Ġh o
ul l
Ġsen sitive
Ġdistin ct
Ġr ise
Ġeas y
Ġ3 5
b e
Ġrepresent ed
Ġg i
et ries
c ent
Ġaccur ate
Ġstatis tics
Ġad v
Ġbel ong
a h
a der
av or
Ġelectron ic
]- [
Ġy oun
Ġintrins ic
Ġanaly tical
Ġsh ar
Ġav oid
Ġcon duc
Ġsu it
Ġinst ability
Ġide al
Ġst at
Ġact ually
onst ruc
Ġcyc le
Ġhom ogeneous
Ġastro phys
Ġpur p
Ġ3 8
Ġdomin ant
p r
Ġearl ier
im in
l ig
2 00
Ġstr ate
Ġnumer ically
Ġabsol ute
Ġapp lying
Ġyiel d
Ġst och
k er
rang ian
Ġapproxim ate
Ġtelesc ope
Ġtransm ission
our s
Ġrec onstruc
Ġn orm
Ġpossi b
Ġ3 7
Ġm ac
m in
Ġexcit ed
Ġprim ary
a im
duc ing
Ġsem i
Ġexc ess
Ġinter f
Ġlag rangian
d en
Ġfig s
Ġre action
m c
Ġsym bol
d le
Ġqual it
4 1
Ġtri ang
Ġr h
ore n
Ġg rid
ol ated
p o
Ġp c
Ġr ang
ac tive
d imensional
Ġw al
Ġf ain
Ġv ers
a z
Ġtechni ques
6 9
ol ar
Ġb er
Ġst atic
el i
Ġthan k
in i
ol l
Ġconstruc ted
n a
Ġnear ly
Ġbreak ing
Ġpri or
Ġinvestig ated
Ġy et
Ġliter ature
Ġother wise
Ġbo x
Ġc as
s m
Ġgradi ent
Ġsyn ch
f ect
ve x
Ġinteg rated
Ġstation ary
e lect
Ġnucle us
Ġbright ness
Ġst ress
Ġf ac
Ġcour se
Ġinflu ence
Ġperform ance
Ġcatal og
Ġproj ection
Ġexpl o
m od
Ġsam pl
Ġke ep
Ġ ic
Ġrem ov
Ġdist ing
ort ex
Ġro w
Ġconc ern
Ġf all
Ġremain ing
Ġl and
Ġev ol
Ġcl aim
Ġwor ds
Ġsuc cess
Ġco ul
Ġdisting uish
Ġapplic ation
Ġmagn et
Ġens em
Ġa way
Ġre ce
Ġcollab oration
Ġabs ence
ul es
Ġshow ed
Ġpotential s
Ġdip ole
Ġcont act
Ġ. ..
Ġrough ly
Ġfigure s
Ġunderstand ing
st able
Ġconser v
Ġempl oy
Ġh tt
rib ute
Ġ 00
Ġsugges ted
Ġes pec
Ġstoch astic
Ġpro ject
Ġcharacter ized
Ġhol es
Ġde ep
ol ds
Ġgr ant
Ġconven i
Ġcoul omb
Ġsen sitivity
Ġcontain ing
Ġon to
Ġem er
Ġp p
Ġtr ack
u ed
Ġk ern
Ġout side
Ġespec ially
Ġac ross
Ġsub tr
Ġas p
Ġsimul taneous
Ġdir ac
a pp
Ġsplit ting
Ġneg lig
re am
Ġlog ar
Ġpop ul
Ġe in
Ġk pc
Ġexplain ed
Ġmaxim al
8 5
Ġimp act
Ġ199 2
: ",
Ġcan onical
Ġsol ve
Ġdri ven
Ġm s
Ġ2 9
Ġhe ight
Ġlar gest
8 7
Ġt ail
Ġdwar f
Ġv ortex
s ki
Ġp i
Ġcirc ular
Ġ201 3
Ġsub g
Ġaverag ed
Ġlab el
Ġcarri ed
Ġdes ign
Ġopp osite
Ġthe ories
Ġt e
Ġse qu
Ġcompar able
Ġbeg in
Ġp ers
Ġb ri
ds s
Ġ4 5
Ġassum ptions
Ġb h
Ġs at
b ack
Ġmo ving
6 4
Ġsubse qu
Ġup on
Ġhtt p
Ġ !
Ġess entially
Ġcorrel ated
Ġp ut
Ġp ion
Ġf a
b l
omorph ic
Ġmon te
Ġm u
Ġform ing
Ġidentif y
Ġ4 7
Ġfi ve
Ġcon j
Ġsubs et
Ġexpon ent
i red
Ġdist ributed
Ġradi i
Ġform s
Ġc p
Ġext in
Ġbound s
Ġcar lo
Ġsur faces
ot op
Ġs atur
Ġinter face
Ġharm onic
ot ropy
r up
Ġl oren
Ġdescrib es
n ova
u ds
Ġcom plic
Ġtun nel
Ġconsequ ently
Ġmic ro
Ġorth og
Ġdecre asing
Ġdirection s
Ġ4 0
Ġdot ted
Ġco st
Ġre ad
Ġcon vex
Ġradi ative
Ġin ver
Ġunder lying
ro up
Ġout flow
Ġhydro gen
Ġ ul
Ġglu on
Ġang les
Ġconven tion
Ġcryst al
Ġlif e
Ġloc ation
Ġmes on
Ġor gan
Ġf ron
Ġun til
Ġobserv ational
Ġmn ras
1 00
Ġsp ac
ith ms
Ġden se
at t
Ġachi eved
c al
Ġr ank
Ġpres er
Ġcompar ing
os ing
Ġkin ematic
Ġneglig ible
Ġcollap se
Ġc ub
Ġst e
Ġl h
Ġmo ve
Ġconcl usion
Ġextin ction
Ġcirc le
ip ar
Ġdevi ation
Ġs un
Ġunivers al
Ġclass es
Ġo x
Ġein stein
9 0
Ġpropag ation
Ġphotometr ic
Ġper fect
Ġdecomp osition
Ġst ric
Ġro ot
Ġmom ents
Ġn s
Ġbar ri
Ġinterpret ation
Ġun stable
Ġdisk s
cul es
Ġion ization
Ġin h
Ġt ev
Ġs dss
Ġparticular ly
Ġref lection
Ġgener ation
ap s
k en
ab atic
Ġa a
Ġn a
ure s
r ates
Ġagain st
Ġdis order
Ġspec ies
Ġsuper nova
Ġperturb ations
8 8
Ġaff ect
Ġnot ed
ac ity
ead y
Ġmanif old
on t
Ġyoun g
Ġf rag
le t
Ġd ed
Ġlogar ithm
c om
Ġincre ased
Ġexc lu
Ġinf er
Ġtre nd
Ġinclu des
Ġvari ance
for ward
ur al
k ing
Ġch a
id ed
ul i
Ġbri ef
Ġre duces
is ely
Ġsh e
Ġclo uds
Ġresid ual
Ġinst rum
Ġindic es
Ġidenti ty
Ġdispl ay
Ġprob e
em a
Ġmak ing
Ġconn ection
di abatic
Ġimp ur
Ġvary ing
ati ves
Ġat ten
Ġre duce
re l
9 3
Ġstric t
Ġel astic
Ġtri ple
Ġmo le
Ġgam ma
8 0
Ġspin s
eren ces
Ġquark s
Ġenh ance
Ġquad ra
] )
5 3
Ġelect ro
Ġprec isely
Ġst eady
h il
osph eric
Ġm ill
wh ere
5 4
Ġan n
Ġb ol
Ġfor ward
aw a
Ġpredic tion
Ġide a
Ġvis c
us ions
Ġcon form
Ġst age
s ch
Ġsatisf ied
b on
6 3
Ġmain ly
Ġasy mmetry
Ġsatisf ying
Ġh i
Ġredsh ifts
er ing
Ġcontro ll
Ġdegener ate
Ġrelations hip
itt le
Ġloren tz
Ġac know
Ġad vant
en ch
Ġcontain ed
Ġmole cules
Ġeffici ent
Ġperturb ative
Ġsub ject
Ġvanish es
ari ties
Ġz h
Ġsh ear
un c
iz ations
Ġstraight forward
si v
5 9
Ġspec if
Ġcom es
Ġh old
Ġwork s
p a
Ġorient ation
Ġreason able
anc y
rid ge
Ġacceler ation
Ġformal ism
5 2
Ġphon on
Ġconcent ration
Ġs il
at ch
Ġorder s
Ġs ix
Ġra ys
Ġcomput ational
Ġmagn itudes
Ġmagneti zation
Ġadop ted
Ġmo tiv
re g
7 7
Ġtim esc
is ation
Ġs izes
Ġindic ated
Ġcomm ut
Ġanis otropy
Ġelect romagnetic
Ġl ittle
5 6
ter s
Ġco vari
Ġflux es
l and
Ġexcit ations
it ed
Ġexpect ation
Ġfe ed
Ġast ron
Ġb ond
it ing
Ġ iv
ove red
Ġmeasure s
Ġensem ble
Ġhorizon tal
Ġrep e
Ġprov ed
Ġanalog ous
Ġlocal ized
Ġsol it
Ġa diabatic
Ġeigenval ue
Ġcont ribute
Ġno op
Ġlay ers
Ġg ain
Ġevalu ated
Ġun li
Ġs k
ema tical
Ġ199 1
Ġinterf erence
Ġalgor ithms
Ġgeometr ic
Ġrot ating
Ġsp aces
Ġr ig
Ġexperiment ally
Ġunderst ood
Ġphot o
Ġinf lation
Ġgener ate
Ġquadra tic
Ġreson ant
Ġcon duct
j ection
Ġnormal ization
Ġvol t
Ġsign ature
Ġquanti t
Ġcap ture
Ġh d
Ġhypoth esis
9 4
Ġm ar
Ġcaus ed
Ġp en
Ġs ight
Ġthrough out
Ġsepar ated
Ġd amp
Ġsimul ated
Ġan ni
Ġcan c
Ġac tivity
Ġb ra
Ġprec ision
a f
Ġep och
Ġphotometr y
Ġorthog onal
Ġcell s
Ġb ase
5 1
th eless
6 1
Ġabund ances
6 2
Ġnever theless
Ġha pp
Ġrel i
Ġferm ions
ra ined
par t
if ted
Ġhydro d
Ġanni hil
Ġtr ig
p ir
Ġf ail
Ġm ir
Ġd rop
Ġkern el
Ġl ies
Ġreal istic
Ġc ate
o per
Ġknow ledge
Ġcol d
Ġmix ed
Ġrenormal ization
is son
Ġpolar ized
Ġmon ot
Ġvers us
Ġto ol
or g
Ġ ions
Ġrob ust
Ġfor ces
st ellar
Ġprec ise
Ġsw itch
Ġhe ating
a i
Ġv s
Ġsol ving
Ġimag ing
l s
Ġiniti ally
r action
Ġsuperconduc ting
Ġt end
w r
Ġdis plac
Ġl ate
Ġaltern ative
Ġref s
Ġgener ic
Ġvanish ing
Ġneutrin os
Ġk ind
Ġ ult
pt y
wh at
Ġsuit able
Ġact ual
Ġw ar
Ġtr ace
Ġsome what
Ġs ector
Ġcomp an
Ġis otropic
Ġgre at
Ġpredic t
Ġpopul ations
oid al
( -
Ġcomput ing
Ġconcl usions
pl er
Ġt ang
Ġvari ability
it or
Ġdiscussion s
Ġsecond ary
7 0
c ed
Ġdynam ic
or ts
ic ular
ful ly
Ġsp iral
id al
Ġa im
Ġc d
Ġtreat ment
Ġret urn
en sive
Ġpar am
ro t
Ġpo isson
Ġhigh est
Ġinc or
Ġintegral s
Ġmoment a
Ġtem por
mm etries
Ġma x
re v
Ġdel ay
Ġcoun t
Ġcalib ration
Ġsol ved
Ġex ceed
sc aled
Ġm ut
Ġatt em
Ġar c
Ġachi e
Ġsim plicity
- -
Ġs ed
Ġenh anced
Ġcross ing
Ġunit ary
Ġcut off
Ġb all
) ]
Ġbary on
Ġsem ic
Ġfit ted
Ġ4 8
Ġconj ug
are st
Ġbin ding
Ġad ap
Ġ3 2
Ġspace time
Ġen g
pend icular
Ġqu ality
Ġma pping
Ġoverl ap
Ġimag inary
Ġres olved
n ed
Ġper pendicular
Ġw in
Ġw ater
Ġg hz
, [
Ġd id
Ġinterp re
Ġv or
Ġdemonst rated
Ġw id
amet er
Ġshow ing
Ġrec ur
Ġtunnel ing
g r
Ġ201 4
Ġdemonst rate
Ġz one
Ġvari ety
Ġj ets
Ġinc om
Ġsubs p
Ġsign als
it ely
Ġturn s
Ġc ruc
r ating
Ġsu ff
Ġreson ances
ph as
Ġdeterm ination
Ġpo or
Ġtrans l
Ġargum ents
scaled width
Ġar ri
Ġer g
Ġear th
Ġr ules
ometr ic
p e
Ġess ential
f e
z z
Ġimp ly
Ġsp read
Ġh er
9 2
elect ric
Ġ6 0
Ġad ded
Ġstrate gy
Ġem pir
Ġwor ld
Ġor dered
Ġfain t
Ġl ack
n s
Ġsur round
Ġestim ation
Ġcomp osition
Ġatm osphere
Ġmaterial s
9 1
Ġprob abilities
Ġcomplic ated
Ġcon ject
Ġne arest
Ġcomplex ity
Ġvis ible
Ġh il
Ġc od
ut ing
Ġcon e
Ġ199 0
Ġinvol ving
Ġspect roscopic
Ġsat ell
Ġstron ger
Ġthermod ynamic
Ġd im
Ġpanel s
Ġsupp ressed
Ġoper ation
i j
Ġc are
Ġsingular ity
], [
Ġpossib ly
Ġult ra
Ġar ise
Ġspect roscop
Ġcont rad
Ġbarri er
Ġf ore
Ġinst ant
Ġgr b
Ġsyn th
Ġtrans mit
Ġd ur
Ġanaly zed
Ġimpro ved
Ġcor oll
Ġphenomen a
Ġderiv atives
Ġobserv ables
c m
Ġthick ness
Ġpurp ose
z ing
Ġw il
Ġcontrad ic
Ġv l
Ġoscill ation
Ġimport ance
Ġ ign
lect ing
Ġcirc les
Ġfron t
Ġplan ets
Ġcharacteristic s
Ġneed s
Ġto ward
Ġpath s
d a
os es
Ġextrem ely
Ġeigen st
at z
Ġref erences
Ġr g
Ġrapid ly
Ġanaly ze
ap e
Ġt as
Ġmean ing
Ġpix el
Ġillust rated
ure d
cep ti
Ġd est
pl ace
Ġgraph ene
lec tive
tim es
Ġloc ally
Ġge odes
Ġextract ed
Ġdescrib ing
Ġh ier
Ġtraject ories
m at
Ġwavelength s
os p
Ġestablish ed
Ġaff ected
Ġm ach
Ġre wr
Ġun ity
Ġl ist
Ġcol ors
Ġgi ant
Ġloop s
Ġm ann
Ġrot ational
Ġhier arch
og raph
en ess
Ġuniform ly
Ġb ig
id ing
Ġweight ed
Ġup d
Ġun know
Ġmodel ing
Ġiss ue
b o
Ġflow s
on n
Ġconfirm ed
op es
Ġsepar ate
Ġevalu ate
Ġsus cepti
Ġlong itud
Ġs s
Ġconserv ation
Ġh is
Ġweak ly
Ġcandid ates
Ġobserv able
Ġprob ably
Ġst ream
Ġem phas
Ġcondens ate
Ġbu il
b a
Ġn ull
Ġpl us
i o
Ġc le
p oint
Ġco p
j ective
b les
duc ible
um ul
Ġb a
Ġrestric ted
Ġar cs
Ġbos ons
Ġfluctu ation
Ġsampl ing
k ov
Ġb und
Ġtr unc
Ġspecif ically
ac ed
le x
Ġar ises
ig u
Ġbro wn
Ġpl ate
Ġvolt age
Ġwind ow
Ġlinear ly
Ġconst rained
Ġis olated
Ġin ser
Ġwh y
Ġun f
Ġmechan isms
Ġpar ity
Ġcoroll ary
Ġinc ident
Ġcandid ate
Ġm or
ak e
Ġacc oun
Ġor d
Ġscal ed
Ġd il
b h
Ġchang ing
j ected
Ġexpl an
ac ts
Ġtraject ory
Ġnecess arily
Ġre ads
Ġrepro duce
Ġb ub
Ġinvol ved
Ġdissip ation
Ġp ast
Ġpattern s
Ġ5 7
Ġ9 0
8 2
Ġturbul ence
z ero
Ġus es
Ġadj ac
Ġsimultaneous ly
Ġplot s
Ġ0 5
Ġl isted
Ġc e
Ġfeed back
Ġtop ology
w er
Ġadvant age
Ġs al
Ġm ed
Ġnatur ally
ynam ics
Ġwh o
um ps
om in
act or
Ġconvention al
Ġlh c
Ġalgebra ic
Ġn ational
Ġnear by
Ġd ays
Ġhub ble
Ġreplac ed
Ġshar p
Ġmatch ing
eli hood
ren ce
Ġdimension less
Ġastron om
Ġins ul
Ġpar ton
Ġinteg ra
Ġconduc tivity
Ġb or
sy mmetric
8 3
Ġinterest ed
Ġt il
Ġcoun ts
Ġm il
Ġpair ing
Ġcruc ial
Ġlongitud inal
Ġs ect
Ġgo es
Ġu til
Ġvir t
ign ment
Ġcorrect ed
Ġl ang
Ġcent ered
Ġa per
Ġm arg
r r
Ġrep ort
]. ,
Ġ198 9
Ġm g
Ġsurve ys
Ġhil bert
Ġlik elihood
medi ately
Ġe u
Ġproj ected
Ġgiv ing
Ġstruc t
Ġcomp ati
y l
Ġinh om
Ġ esc
Ġet c
Ġadop t
Ġde al
ort un
Ġinstrum ent
Ġim mediately
Ġcon cept
in ement
anc k
Ġp ump
l at
Ġmechan ical
Ġextrem e
ul a
Ġle ar
o very
an es
Ġhyper bol
Ġhal os
Ġc s
Ġtempor al
Ġmath ematical
v ent
Ġcriter ion
Ġconveni ent
Ġ ve
h ar
Ġpolynomial s
Ġinters ection
id el
Ġinterpre ted
tit ute
Ġembed ded
Ġprot oc
cc cc
Ġstrict ly
Ġf m
Ġdep ic
Ġcy cl
Ġcom e
Ġcombin ing
Ġadd ress
Ġinter ior
Ġellip tic
Ġexp os
Ġanomal ous
w are
Ġsn e
Ġrespon sible
Ġbin aries
vel ope
Ġunknow n
Ġachie ve
em ann
7 3
Ġsc re
Ġsequ ences
Ġparamet ri
Ġpre p
Ġne b
siv ely
Ġinterval s
Ġorder ing
) )
Ġfl avor
Ġcomple ment
k in
Ġa f
Ġst abil
go ing
Ġhadron ic
Ġ9 9
Ġaut om
Ġen velope
ip s
Ġprin c
Ġdiscre p
Ġt ext
ere s
Ġbound aries
Ġperm ut
Ġsupercon duct
Ġn et
u it
Ġinfin ity
Ġtor us
Ġform ulation
ruc ture
Ġland au
Ġlimit ing
Ġfollow ed
Ġgener ating
Ġemploy ed
Ġinvari ance
in ing
Ġfrag ment
k o
Ġdi ameter
8 9
ub e
Ġquanti f
og ram
Ġset up
Ġdiff er
Ġand or
Ġexam ine
Ġpl anck
110 3
Ġextra p
Ġem pty
Ġexpl ore
Ġoscill ator
Ġ3 6
a di
uc l
Ġbro ken
Ġhy b
Ġindic ating
Ġphenomen on
8 4
Ġincor por
il ities
Ġellip tical
Ġprotoc ol
Ġad ding
Ġclassif ication
Ġempir ical
Ġa ds
Ġj oint
Ġintro duction
Ġcirc um
Ġch all
Ġpuls ar
Ġh u
Ġcont ent
ent ric
Ġh all
o sities
Ġimpur ity
Ġpre f
8 1
Ġc am
w w
Ġsubs ection
Ġsubsequ ent
Ġcre ated
Ġrun s
Ġproduc es
Ġexpres s
Ġj unction
Ġch ains
l im
p ite
Ġtre ated
Ġspectroscop y
in es
Ġmechan ics
Ġgo ver
em ents
g a
us ive
Ġbrief ly
Ġt idal
Ġp d
Ġrep ul
ay er
f lu
Ġconform al
Ġpub lish
iv ed
Ġdet ectors
Ġequival ence
Ġmir r
Ġperiod s
ri al
Ġc ros
Ġnon zero
Ġenhance ment
Ġlumin osities
Ġneighbor hood
Ġs oc
as ter
g ory
Ġt it
us h
Ġderiv ation
Ġlogarithm ic
Ġc n
Ġ3 4
Ġfraction al
Ġmid dle
Ġannihil ation
Ġstat ement
Ġlept on
Ġext ent
Ġa z
Ġchall en
8 6
Ġpo le
at a
Ġreach ed
Ġstar burst
Ġdes pite
ici al
Ġex isting
Ġdwar fs
Ġdevi ations
Ġdes ired
Ġsur pr
Ġconduct ance
w ell
Ġsingle t
2 01
Ġ7 0
y c
g ers
a fter
Ġcons isting
Ġmem bers
Ġsumm ary
o res
Ġar ch
Ġmem ory
Ġexhibit s
Ġaper ture
Ġdetermin es
Ġint en
Ġgo ing
ren ts
Ġsuper p
Ġquas ars
Ġneg lected
Ġgl ass
Ġatten tion
enti f
Ġdiffus e
m e
Ġsqu ares
u i
i ous
7 4
c ur
Ġtransform ations
a ves
Ġco oper
Ġsh ifts
Ġpure ly
Ġt ight
Ġqu ench
Ġdefin ing
ect ing
Ġop tically
Ġcar bon
Ġform er
Ġg yr
Ġcoh erence
ar se
Ġk a
Ġinter fer
Ġf u
Ġsubg roup
Ġsc att
Ġ5 5
Ġdamp ing
Ġ8 0
id s
atic ally
Ġinvestig ation
Ġoptim ization
Ġcomput er
act ed
Ġo ld
Ġvi ol
Ġ198 7
7 2
Ġpropag ator
Ġpi ec
Ġdevelop ment
Ġlength s
Ġparti ally
ar ity
Ġcluster ing
Ġstruct ural
Ġsh ifted
id den
Ġsh or
Ġcm b
Ġab el
Ġmer ger
Ġapproxim ations
ul er
Ġgo al
an o
l oc
Ġdeform ation
Ġd ay
Ġ3 3
Ġus er
Ġs r
el ves
an i
Ġ198 8
re ct
Ġd s
ten ess
ul arities
Ġv ic
v s
Ġpseud o
Ġmann er
Ġindepend ently
Ġwe ights
Ġscenari os
Ġconf idence
l ic
Ġb es
Ġr ational
Ġgu ar
Ġm is
Ġs ig
an a
Ġobvious ly
Ġcont ribut
Ġsp ring
r ical
Ġmo ves
Ġanis otropic
Ġar tif
Ġexpon entially
Ġmod ulation
Ġschem es
b ound
Ġo ct
Ġdefin es
Ġp in
Ġincl usion
Ġinfer red
Ġfound ation
Ġeff ectively
ine ar
et h
Ġrang es
Ġg ate
Ġproduc ts
Ġcont am
Ġwidth s
Ġfill ing
Ġ3 1
) .
Ġf ace
Ġtra p
Ġmic roscopic
Ġadjac ent
Ġdri ving
Ġo th
j oint
Ġac cept
Ġtran si
Ġequ ality
Ġquantit ative
igh ter
- (
Ġz er
Ġhist ory
Ġel imin
Ġv aries
Ġcover ing
Ġintro ducing
up le
un g
Ġcommun ication
Ġinvol ves
,, ,,
Ġcol lective
Ġsymbol s
ow ski
Ġsubsp ace
Ġst rain
Ġpro m
7 6
Ġag ree
Ġoth ers
Ġasy mmetric
Ġad mit
Ġhyperbol ic
Ġm i
Ġmolec ule
end ing
is en
r ations
Ġallow ing
Ġreach es
Ġirre ducible
Ġdifferen ti
Ġidentif ication
Ġseg ment
ont inu
ri pt
on es
Ġconject ure
Ġguar ant
v o
de f
Ġlink s
Ġcurrent ly
Ġc odes
Ġh st
Ġ4 3
Ġc ause
ici ties
Ġturbul ent
Ġdur ation
Ġvisc osity
Ġprop ose
g ra
Ġins p
Ġtri angle
Ġuni qu
Ġelement ary
Ġexplan ation
Ġspati ally
h d
qu ark
Ġevalu ation
7 9
Ġmost ly
rot ron
Ġcur rents
Ġmark ed
Ġcosm ology
Ġbr ane
h ep
Ġord inary
Ġt a
Ġprovid ing
Ġ0 6
Ġvirt ual
Ġmeas uring
Ġlens ing
Ġox y
Ġanaly tically
Ġw ant
Ġillust rate
Ġdetermin ing
Ġim plic
Ġfa ir
Ġcol lection
Ġsimpl est
Ġcomp ton
h l
Ġcompati ble
ang led
Ġwa ys
Ġlab or
Ġrepresent ations
Ġmix ture
Ġcap acity
phys rev
Ġqualit atively
Ġrun ning
Ġthere in
Ġre actions
vers al
vi ties
Ġg old
ur a
Ġri emann
Ġremov ed
Ġdiffic ul
Ġgra ins
c ome
Ġreal ized
Ġsmall est
en ed
7 8
! !
Ġexpand ing
Ġdra w
Ġt ends
Ġimplement ation
Ġfill ed
Ġsynch rotron
Ġsuscepti bility
un ct
Ġco res
Ġoper ations
Ġmin or
Ġcont in
in ity
Ġtimesc ale
Ġbranch ing
Ġpuls es
Ġevolution ary
7 1
Ġorient ed
Ġbe h
Ġacknow led
Ġd ig
Ġconsider ation
Ġprocess ing
Ġe cc
g ent
Ġrandom ly
Ġpoin ted
Ġemit ted
Ġfi ber
Ġsp on
Ġbul ge
Ġh erm
Ġs d
Ġf aster
Ġis otop
Ġi a
Ġe ucl
Ġcontroll ed
Ġwor th
Ġsurpr ising
Ġmes ons
Ġ0 4
Ġclos ely
Ġtes ts
Ġlumin ous
ce ption
Ġw ang
Ġoxy gen
Ġdo ub
Ġobserv ing
Ġevent ually
Ġsil ic
Ġdegener acy
Ġmo tions
Ġqubit s
Ġsupp ression
Ġclos er
Ġbar s
Ġcent re
Ġspon taneous
Ġsing ularities
Ġexpon ents
Ġpix els
Ġsy mmetries
g raph
Ġcub ic
ist ance
Ġlife time
Ġstudy ing
Ġ3 9
Ġprinc ip
Ġl s
Ġz e
Ġabel ian
Ġsubstit uting
Ġinter stellar
Ġj o
Ġp as
w ave
ot ed
Ġmed ian
Ġho pping
Ġtas k
Ġqualit ative
Ġimplement ed
Ġb ath
Ġ3 00
Ġdefini tions
v a
de pend
Ġdat as
Ġra m
Ġembed ding
Ġch and
t ri
h ed
Ġprog en
ot o
mat rix
Ġplan ar
Ġfer romagnetic
im es
Ġm iss
Ġ201 5
Ġconver ges
Ġapproxim ated
Ġc c
Ġmod er
Ġ4 4
ti tu
Ġfin ds
Ġeigenst ates
Ġtit le
Ġcompan ion
Ġm ess
( )
Ġkn ot
Ġj ump
Ġres ol
Ġi b
function s
Ġcol s
Ġreli able
Ġdis joint
o i
ator ial
Ġrestric tion
m ass
Ġe uler
Ġj us
Ġobtain s
Ġis m
Ġspec ified
Ġcol our
Ġpublish ed
Ġis ing
1 01
Ġaverag ing
Ġquas ar
Ġcriter ia
Ġar ising
Ġle g
Ġcont our
Ġob e
Ġmulti p
Ġb if
o upl
Ġpos s
Ġ4 6
Ġp n
Ġrefer red
Ġsatur ation
Ġper h
el astic
Ġconsist ency
Ġshor ter
Ġprac tical
i ti
Ġperh aps
Ġs ens
Ġp b
Ġdirect ed
Ġoff set
Ġlat tices
Ġf amil
Ġmulti plic
Ġcalcul ating
Ġcha otic
Ġobser ver
Ġh op
m on
Ġo h
Ġn n
ax is
Ġcyc les
Ġaz im
Ġpres c
Ġstar ts
Ġvi olation
Ġ0 3
Ġb ell
am a
Ġsepar ately
Ġlocal ization
Ġf o
Ġm r
Ġent angled
Ġreg imes
Ġdisc overed
ide an
Ġexc ell
Ġw ire
Ġasympt o
Ġac ts
Ġdisplac ement
Ġjus tif
Ġcomp ound
Ġazim uth
Ġar ticle
ur c
Ġreve al
Ġ4 2
Ġprot ons
Ġ5 4
Ġdisc ontinu
Ġg ets
Ġsynch ron
Ġeucl idean
Ġs ides
Ġf ab
Ġbund le
Ġanti fer
Ġslow ly
Ġb ur
Ġprac tice
Ġsurround ing
Ġdiv ided
Ġorgan ized
Ġunli ke
Ġn as
s k
el ine
l or
Ġquas ipar
ut es
b ody
ad ing
Ġans atz
et t
Ġsch war
Ġdis app
Ġdom ains
Ġra re
Ġr ms
ann ing
Ġre ader
Ġhere after
ra mm
Ġd ro
Ġcate gory
Ġatm ospheric
Ġm yr
Ġ198 6
Ġdiver gence
Ġins et
Ġb are
or ing
Ġpaper s
Ġinteg rating
er a
Ġresp ective
Ġar row
Ġreas ons
Ġsf r
pl ane
Ġpres ents
Ġconf ined
Ġ9 5
Ġcre ation
Ġhel ium
Ġm pc
Ġbin s
al es
Ġsn r
00 1
Ġf ine
Ġanalys es
r ich
Ġburst s
Ġcho osing
Ġprincip al
Ġa ug
Ġp ec
Ġquad r
in ts
Ġbol tz
ul ated
Ġcomp osite
Ġvis ual
ib ility
Ġion ized
Ġgeodes ic
Ġexplo sion
Ġso und
ol es
lec ts
Ġrequire ment
Ġsatell ite
Ġreconstruc tion
ex p
Ġax ial
Ġal one
Ġeng ine
oh n
Ġphys ically
o ti
Ġd a
Ġno tion
Ġmath ematic
Ġ5 3
og en
Ġ6 5
Ġgeneral ization
op h
Ġpow ers
id er
Ġasp ects
Ġth om
Ġpre fer
Ġrem n
Ġval ence
Ġincl ination
Ġmirr or
Ġste ep
Ġ0 2
lin der
Ġrepresent ing
Ġasympto tically
Ġlabor atory
Ġre ct
Ġtem pl
Ġg c
Ġwil son
Ġout burst
Ġ7 5
Ġf ri
Ġmain tain
pl an
Ġst ack
Ġ4 9
Ġdisc overy
Ġcoinc ides
Ġc amb
Ġhapp ens
Ġro s
it a
Ġcom ing
Ġmark ov
Ġvic inity
c omp
Ġcoun ting
ding er
Ġsci entif
Ġexc l
Ġir on
Ġmu on
Ġc u
Ġun ion
Ġsuper flu
d x
Ġproceed ings
Ġis omorphism
Ġy r
Ġb c
Ġattr active
Ġpl ays
Ġt s
Ġequival ently
Ġscatt ered
an tial
il i
Ġdot s
Ġcomp osed
Ġpl aced
Ġsch r
Ġappear ance
Ġext ends
el d
a de
Ġs ad
Ġdr ift
Ġver ify
Ġsimpl ified
on a
er on
Ġboltz mann
Ġweak er
if old
im eter
Ġdi electric
Ġfl are
Ġneb ula
Ġex ception
Ġbif urc
Ġbal ance
Ġg h
Ġbel ie
Ġlang u
Ġeigen v
Ġmorph ology
Ġb ose
Ġperform ing
Ġ4 1
Ġm os
Ġcy linder
Ġorbit als
o ul
Ġshock s
Ġk h
osp in
Ġdel ta
Ġtriple t
od al
Ġsummar ized
Ġar m
Ġinver sion
Ġbeam s
Ġcorrespond ence
in a
Ġformul as
ing er
ric tion
Ġexcell ent
n o
od ing
Ġsignific ance
Ġvari ational
ii i
Ġs b
Ġsh ad
es ian
Ġj ac
Ġscientif ic
Ġn i
Ġgra in
Ġdepic ted
Ġnor th
Ġvor tices
Ġdop ing
Ġmodel ed
Ġ198 5
Ġsubst antial
Ġm art
he ight
iel d
Ġmajor ity
Ġa ir
Ġrec omb
Ġ5 2
Ġres er
Ġun less
Ġo l
Ġcamb ridge
Ġdiscrep ancy
Ġ0 8
Ġmass less
Ġact ing
r is
Ġzh ang
Ġe w
Ġcover age
d m
Ġposs ess
Ġd av
Ġobserv atory
ok es
er r
ra di
ord ered
Ġb it
Ġconcern ing
Ġdra wn
Ġfr actions
Ġ5 8
om eter
Ġbegin ning
Ġin er
Ġev ident
Ġhydrod ynamic
Ġm el
Ġstrength s
Ġchar ges
Ġrepe ated
Ġtr ac
Ġtra pped
Ġrig id
ab ol
Ġener ge
f ill
Ġ1 10
Ġdisapp ear
Ġvalid ity
wh m
st ra
Ġfil m
Ġequ als
Ġw ord
' '
Ġthan ks
Ġcolumn s
m as
Ġins titute
Ġch en
Ġcombin ations
Ġconver sion
Ġmac roscopic
00 00
l as
ay lor
it ter
Ġexper i
Ġfour th
Ġconsider ably
Ġens ure
Ġa j
Ġp m
Ġsqu ared
Ġlabel ed
Ġsu p
Ġ198 4
Ġt et
Ġr s
Ġmotiv ated
Ġmiss ing
et ers
Ġ0 9
Ġle e
Ġgrow s
Ġastrophys ical
Ġf av
Ġy ork
Ġbub ble
Ġrec og
Ġplanet ary
Ġesc ape
Ġdev ice
Ġ5 6
Ġt en
Ġ5 9
Ġdomin ates
Ġres is
olog ies
Ġo wn
Ġwal k
Ġbes ides
3 02
Ġgra d
Ġ6 8
i ver
Ġap plies
Ġtes ted
Ġthough t
Ġvi rial
Ġcho ices
Ġcros so
Ġare as
l a
Ġnew ton
k a
Ġrepresent ative
ang ed
Ġcre ate
Ġexclu ded
Ġblock s
Ġcovari ance
Ġhist ogram
ous ly
Ġconser ved
Ġf is
im p
ad a
Ġsuperflu id
Ġag es
g u
Ġiter ation
Ġb il
Ġphenomen ological
Ġcaus es
Ġcoinc ide
Ġper cent
s ec
Ġin duces
b ard
Ġacc ess
Ġcontradic tion
Ġl ed
Ġke pler
Ġcondition al
Ġpre par
Ġstri p
ig m
al actic
Ġreplac ing
Ġunf ortun
Ġrec ord
Ġdisplay ed
] )-
Ġ6 7
Ġexpos ure
Ġans wer
Ġtriang les
Ġent ries
Ġvi br
Ġf al
al geb
Ġsummar ize
y stem
r g
Ġp t
. (
Ġo mit
c n
Ġt aylor
Ġdiscre ti
Ġc umul
Ġpredic ts
Ġgener ators
Ġj hep
Ġatt ach
Ġaddition ally
Ġschwar z
Ġpoin ting
Ġpoly mer
Ġre place
Ġtransi ent
Ġm hz
ipar ti
Ġschr dinger
Ġw i
Ġf whm
Ġn l
Ġmetall ic
Ġsolit on
Ġap art
Ġcl ump
Ġt rain
Ġwhen ever
Ġfermion ic
Ġst ated
Ġkinematic s
Ġcom ments
Ġ6 4
Ġh z
Ġcharacter ize
Ġne ither
Ġnon tri
Ġwid ely
Ġshap es
que e
Ġ5 00
Ġred d
Ġconf erence
Ġmas ter
adi ly
Ġcontr ary
Ġcomple teness
Ġal ice
p ts
tic les
Ġmod ification
Ġtang ent
Ġques tions
st atic
Ġcut s
Ġoccup ied
Ġpro te
Ġ0 7
ass ical
Ġchand ra
j y
m ap
am s
i ra
Ġecc entric
Ġqu ick
Ġbelong s
Ġdec oupl
Ġcrosso ver
ir ing
br ane
Ġagre es
Ġin elastic
Ġtrig ger
Ġb ir
Ġl ying
Ġass ign
Ġb en
Ġen ds
Ġestim ator
Ġquad rup
Ġres our
ot e
Ġin duction
Ġunfortun ately
Ġper c
Ġfragment ation
Ġs ke
Ġtechn ical
Ġsugges ting
Ġimplic ations
f ord
Ġspac ing
ad es
Ġtw ist
Ġs quee
vers ely
Ġhyb rid
Ġtechn ology
Ġrec over
Ġps f
Ġf riction
Ġinteg ers
yp e
Ġel se
Ġsubst anti
Ġmic row
Ġiss ues
Ġhub bard
un ch
Ġcon duction
Ġval ued
Ġaccur ately
if ies
Ġim plicit
Ġrestric t
c k
Ġgeneral ity
Ġconjug ate
Ġf s
Ġreve aled
Ġfl av
Ġregard ing
Ġdetermin istic
y m
Ġse lect
Ġcheck ed
Ġsubst rate
Ġconf inement
Ġdef ects
Ġbr ack
c tic
ist ent
Ġaff ine
Ġneighb our
Ġsl it
Ġpuls ars
Ġst okes
Ġro ots
Ġprog ress
Ġp df
Ġevol ve
v in
Ġl f
b re
Ġt ension
ep s
Ġrem ove
Ġpr ime
Ġsoft ware
Ġnontri vial
Ġh am
Ġmodul us
Ġn t
Ġglob ular
em an
Ġ1 01
Ġref lected
Ġdisc r
Ġpro min
Ġp ron
Ġcomput ations
Ġl am
Ġmulti plicity
Ġe cl
Ġan ten
Ġreal ization
iz able
Ġtrans lation
Ġis omorphic
Ġal ph
Ġneighb ors
Ġbos onic
Ġass ess
Ġband width
Ġcar ry
Ġmax well
Ġt ell
ab s
Ġdis ordered
Ġgr ate
vo ir
Ġarg ue
Ġlear ning
Ġimprove ment
Ġ198 3
it al
Ġd u
isen berg
Ġpec uli
at s
Ġso uth
ond o
Ġmer gers
Ġax es
Ġe g
Ġam oun
Ġl m
Ġf avor
Ġhar t
ign er
Ġreser voir
Ġgr bs
Ġcryst all
Ġad m
Ġsimilar ity
Ġtra vel
un e
Ġhom otop
Ġar rang
Ġus ers
Ġk le
Ġl l
ar a
Ġtw ice
Ġy uk
Ġle aves
d t
Ġsuperp osition
a ff
Ġproper ly
Ġobtain ing
Ġsa id
Ġentire ly
Ġinvol ve
Ġy ang
al ities
Ġsym ple
Ġdat ab
Ġb ay
Ġsad dle
Ġe ject
Ġstr ings
Ġhe isenberg
Ġh f
Ġview ed
Ġmicrow ave
Ġre ver
Ġfr act
Ġassum es
Ġd c
Ġsubstanti ally
Ġlaw s
e k
Ġon set
Ġan tic
Ġext ensive
Ġinhom ogeneous
Ġw igner
Ġcirc uit
Ġdef ect
Ġkeep ing
Ġpower ful
Ġchang ed
a vi
Ġch rom
Ġcryst als
Ġf idel
Ġarg ued
Ġappear ing
Ġmodul i
ve red
Ġver ified
Ġbeh ind
le ment
Ġdis s
Ġtransform ed
Ġspring er
our n
Ġwork ing
Ġfinding s
et a
Ġra d
Ġemit ting
Ġsitu ations
Ġarcs ec
Ġterm in
Ġnas a
Ġrecomb ination
Ġt au
Ġpropag ating
Ġdec oh
Ġsumm ation
Ġfactor ization
Ġsubstit ution
Ġsemic on
Ġdev ices
oun ced
Ġd on
Ġconsider ations
Ġr r
oth erm
Ġde ple
Ġfe yn
Ġthere by
Ġform ally
Ġimp osed
Ġconn ecting
ific ations
Ġch ap
Ġre qu
h o
Ġon line
Ġminim a
Ġdes igned
Ġsus y
Ġbo b
Ġreve als
Ġdomin ate
ell ing
Ġpol es
e ak
Ġam b
p i
Ġazimuth al
Ġneg lect
ell i
Ġh und
Ġexam ined
Ġmil ky
Ġcont ours
Ġdiff raction
Ġcle an
Ġamoun ts
Ġint ui
Ġt i
Ġyuk awa
Ġ8 5
Ġproduc ing
ret ch
is k
Ġhelp ful
Ġdist ortion
im al
Ġf ro
Ġt m
Ġ7 7
Ġr m
Ġattem pt
or di
Ġc us
d r
Ġst o
Ġarbitr arily
er t
Ġqu oti
Ġtarg ets
Ġde ut
Ġl mc
Ġtre es
Ġal ignment
Ġis ospin
itz er
Ġapplic able
Ġge om
Ġ6 6
Ġlar g
Ġpermut ation
Ġintern ational
Ġhierarch y
at on
Ġcons titu
ic ations
Ġsm ith
Ġrelativ ity
Ġjac ob
ak i
Ġpar abol
Ġgeometr ical
Ġloc ations
Ġconsider able
Ġinequ alities
Ġded uce
Ġdefin ite
Ġp atch
Ġim f
Ġabsor bed
l ight
Ġe os
Ġclassif ied
k owski
e ff
Ġdual ity
Ġsp an
Ġgener ator
Ġsub t
Ġextend ing
Ġcontinu ity
Ġtra dition
Ġtheore tically
Ġdi am
Ġw ish
Ġac qui
Ġb s
Ġdetermin ant
Ġ0 1
Ġ198 0
Ġcomp ens
ell ed
Ġdiff ers
Ġsuperconduc tivity
Ġcycl ic
c r
Ġac ous
Ġ6 9
per turb
Ġsur v
h al
Ġbr ighter
Ġand ers
f it
Ġmanif olds
Ġ1 11
Ġlangu age
Ġst retch
Ġco ex
m ing
Ġcontam ination
Ġed s
Ġp ick
Ġremark able
Ġh idden
Ġbelie ve
Ġbroad ening
Ġdist ant
Ġfair ly
Ġm ig
Ġm im
s ur
Ġprepar ation
tim ate
s ing
b es
em b
Ġsuccess ful
Ġgam e
Ġantifer romagnetic
Ġno vel
Ġco vered
Ġk o
Ġpos it
Ġre adily
Ġpass ing
Ġref lect
Ġ6 2
Ġun p
Ġmoder ate
Ġpoly t
Ġde x
Ġlarg ely
Ġnot ing
Ġau x
rom agn
Ġ5 1
Ġsubtr action
Ġpre lim
Ġhe x
er y
Ġswitch ing
Ġdecoh erence
Ġprim arily
Ġcl ock
Ġgap s
Ġmes h
Ġpot entially
Ġir as
Ġg ar
sy mmetry
Ġdet ections
Ġsymple ctic
Ġelect row
Ġprim ordi
Ġgradi ents
Ġmarg inal
Ġl b
Ġatt ributed
Ġpa uli
Ġ6 3
Ġelectrow eak
Ġkn ots
m id
ist ence
Ġd os
Ġsuper symmetric
Ġgrow ing
k h
Ġd ram
Ġp ric
l ind
Ġredd ening
Ġb urn
Ġt ube
Ġprimordi al
Ġagn s
Ġfil ament
Ġunder go
ar ds
Ġsome times
Ġj ohn
Ġk r
Ġsuc ces
Ġthe ms
Ġ1 15
Ġpurp oses
Ġexpl ored
ee e
Ġsp ir
Ġw f
Ġthems elves
Ġhe avi
Ġimp os
Ġ198 2
am e
h n
ist ry
Ġfidel ity
olog ically
em ber
Ġin jection
Ġsupp ress
w a
Ġtriang ular
Ġh b
Ġf ock
Ġconsequ ences
Ġs z
le tt
Ġr f
Ġfl o
Ġst ages
Ġro und
Ġfeyn man
Ġful fill
i tive
Ġrepro duced
c ing
Ġloss es
Ġb onds
Ġi eee
Ġscre ening
omorph isms
Ġin g
Ġplan es
Ġre tain
Ġob sc
Ġaff ects
Ġacceler ated
Ġanomal y
Ġres c
Ġdem and
Ġposit ron
Ġsubs ets
Ġl ati
Ġequ ally
Ġcertain ly
Ġat tain
Ġl d
t or
Ġam bi
Ġcommon ly
Ġseg ments
Ġour s
Ġasp ect
Ġh um
Ġmon op
Ġaltern atively
ic a
Ġaccording ly
Ġprog ramm
Ġm f
ann ed
c ar
Ġint r
Ġmon itor
Ġneighbor ing
Ġproj ective
f ield
Ġquanti zation
Ġun ch
Ġass igned
k ely
Ġeject a
il le
Ġconver ge
on ically
Ġimp lying
Ġsubs ystem
m ark
iti an
Ġre versal
Ġbuil t
Ġincom ing
Ġo m
erm an
y a
Ġenc oun
Ġsupernova e
Ġstand s
Ġm b
Ġanal ogy
ion ization
Ġ7 3
Ġrang ing
Ġag g
Ġd f
par ts
Ġbranch es
Ġtheore ms
Ġ ur
Ġsubtr acted
Ġrenormal ized
Ġinstant aneous
Ġnon e
Ġlook ing
Ġunli kely
ol i
Ġwall s
Ġcounter part
00 2
Ġresis tivity
Ġw d
Ġis otherm
w or
Ġdispl ays
Ġag b
Ġgener ates
r ange
Ġbu ild
Ġgen us
Ġh eter
Ġprelim inary
Ġdop ed
Ġo w
Ġk s
Ġyiel ding
Ġm d
Ġbor n
Ġwe yl
Ġreconstruc ted
Ġinteresting ly
ak ing
e ared
Ġabsor b
ra ys
Ġcanc el
Ġenviron ments
Ġemphas ize
Ġrepul sive
ut ed
Ġregard ed
Ġval u
Ġev olved
Ġpa rent
Ġguarant e
rel ated
Ġ100 0
Ġwin ds
Ġherm itian
s ky
enc ed
Ġr y
Ġacknow ledge
h ing
Ġg cs
Ġsimpl er
Ġr ings
oid s
Ġoccup ation
Ġrec o
Ġsphere s
Ġpartic ip
Ġpron ounced
ar xiv
Ġe ight
g ered
ul ate
Ġinst abilities
Ġfin anc
h am
Ġconv ection
Ġfram es
Ġ ut
Ġuniqu ely
Ġhel icity
Ġpossib ilities
Ġ7 2
Ġcy lind
Ġcomp ression
Ġadj us
Ġdatab ase
Ġrewr ite
if ying
Ġk ondo
Ġs and
Ġt ables
Ġqu ar
Ġfilter s
o sitions
Ġintegra ble
Ġm hd
Ġ. .
Ġl u
Ġd y
Ġco uple
Ġh r
Ġj ourn
Ġn lo
Ġc t
Ġf p
Ġsubsequ ently
Ġacc om
Ġachi ev
Ġhadron s
Ġk im
Ġs gr
Ġdim er
Ġadj oint
Ġempl o
Ġalgeb ras
Ġmin d
Ġbifurc ation
Ġdop pler
Ġsuccess fully
Ġn om
ole t
Ġb ern
Ġastronom y
k l
Ġded uc
Ġwar m
Ġbary ons
Ġquick ly
Ġinvari ants
Ġrapid ity
as hi
Ġcomp r
av ing
b all
l assical
Ġparam etric
h ol
Ġcovari ant
Ġtun ing
Ġt ip
end ed
Ġdet un
Ġmajor ana
])- ([
Ġimpos sible
Ġb ene
Ġqu ies
ra b
Ġwave function
Ġquasipar ticle
Ġwe b
Ġg m
Ġrig or
Ġacknowled ges
ometr y
Ġag ents
Ġcarri er
Ġinten sities
Ġconsist ently
Ġ7 4
Ġag ent
Ġse y
f r
Ġh ome
asi ble
Ġc cd
Ġ1 12
Ġsuperconduct ors
Ġcharacter ization
Ġbrown ian
sch ild
w s
Ġstatis tically
Ġ7 8
c y
Ġinsul ator
Ġt er
Ġhand ed
et ing
Ġoverl a
Ġadv anced
Ġclos ure
Ġsemicon duct
an ov
Ġinvestig ations
Ġsearch es
Ġquoti ent
m ers
Ġshe et
Ġmer ging
Ġpeculi ar
Ġambi ent
om ic
Ġcol lected
Ġcent ers
Ġcar t
Ġplate au
re ction
Ġacous tic
Ġy u
Ġn ak
Ġrec ip
Ġ2 45
in ter
Ġdiv is
Ġexcit on
Ġsignature s
Ġp u
Ġst op
el low
Ġop acity
Ġres istance
Ġprogen itor
Ġne ur
Ġmod ule
Ġref lects
Ġ198 1
Ġnew tonian
Ġpack et
Ġ um
Ġind uce
Ġbreak s
Ġ7 9
Ġassoci ation
rin t
e an
ca de
Ġd ic
z i
Ġ8 7
ur able
Ġexceed s
Ġm y
Ġg p
Ġfil ms
Ġsolit ons
Ġstr ange
Ġrece ived
Ġob jective
Ġbl och
or ting
Ġ7 6
Ġ197 9
Ġc i
Ġd ate
Ġvisc ous
Ġcontribut es
Ġzer os
g low
Ġcam era
Ġp y
algeb ra
Ġtra pping
Ġvari ed
Ġun us
Ġrecog n
Ġauth or
Ġcate gor
Ġ12 0
Ġins ight
Ġfain ter
Ġtrunc ated
c ol
Ġtimesc ales
Ġop tics
Ġcontinuous ly
Ġsuff ices
Ġarri ve
po ints
Ġse ed
Ġinfin itely
Ġsey fer
Ġchar m
Ġq s
Ġadmit s
g l
Ġsystematic ally
Ġq c
Ġre ducing
z en
Ġsig ma
Ġfl ares
ili ary
Ġsign s
Ġprop os
er ior
Ġa de
Ġfamil ies
Ġb b
Ġcounter parts
w o
Ġm al
qu et
Ġpro ves
Ġ8 2
ul y
Ġpromin ent
d ay
Ġd t
Ġf usion
Ġexpand ed
Ġl ad
Ġfore ground
Ġbo ost
Ġaux iliary
Ġsupp lement
Ġad di
Ġspect ro
Ġfinanc ial
ess el
Ġdatas et
Ġconcent rated
Ġrow s
Ġsum s
os h
Ġr u
iz er
Ġconv olution
Ġw ol
Ġartif icial
iv es
Ġf unct
en ko
Ġide as
Ġacc es
Ġeffici ently
Ġsuperconduct or
Ġmanif est
um m
Ġs oci
Ġal f
Ġac tiv
Ġm l
ot ential
Ġf lex
Ġ8 1
Ġdifficul ty
Ġcondens ation
Ġre verse
Ġrequire ments
or i
-- --
00 4
Ġpl aus
Ġhom ology
Ġen rich
Ġb iparti
Ġstrate gies
e b
Ġe c
Ġp al
s en
Ġsw e
Ġtrack s
Ġrec overed
00 5
Ġeccentric ity
cd m
Ġsimpl ify
un ov
Ġ8 3
Ġcomp eti
Ġunch anged
ti ll
Ġ15 0
Ġab ility
Ġpub lic
Ġsynth etic
Ġevol ves
al ing
Ġacc omp
Ġsampl ed
Ġcontr act
Ġres em
)- (
Ġr x
b ur
Ġdiscr imin
00 3
Ġdouble t
Ġout going
Ġaccomp an
Ġmonot onic
: [
Ġastrophys ics
Ġcorrect ly
Ġn ir
Ġp ush
ut her
Ġcylind rical
os cal
u tive
ch i
Ġke pt
im ir
ax ial
Ġmut ual
Ġnucle ons
v n
Ġafter glow
Ġ7 1
Ġinter act
Ġ1 13
Ġs om
Ġtes ting
Ġpric e
Ġlab els
Ġtempl ate
de g
Ġcor ona
Ġjourn al
Ġdrop s
Ġlo st
Ġout come
Ġads or
Ġcontin ue
f in
Ġpreser ving
am ents
Ġinf all
y er
Ġ9 8
Ġshap ed
Ġmet als
ne y
Ġ6 1
Ġtim ing
us e
c or
en n
Ġext en
Ġabs ent
c ell
ogene ity
Ġprior i
ro id
Ġgr an
Ġde part
Ġqu e
Ġsp ot
Ġc ard
ti ble
ec tivity
Ġsp arse
Ġquadrup ole
Ġund eres
k ed
i tion
Ġfl ip
Ġillust rates
Ġextension s
Ġtrend s
Ġk l
Ġsoc ial
Ġb low
Ġoccur rence
Ġfall s
Ġdri ve
Ġquantif y
Ġbuil ding
Ġgover ned
mid t
Ġto t
Ġp ortion
Ġthin k
h r
Ġdissip ative
Ġw ise
Ġ1 14
Ġp ay
Ġ ice
ynam ical
Ġtool s
Ġregular ization
Ġgaus s
Ġra man
Ġperm it
Ġt ag
ard ed
Ġupd ate
h m
Ġ8 6
Ġbas eline
o ft
Ġkle in
Ġparabol ic
Ġindi rect
d oi
Ġsimul ate
Ġinc omp
] )[
Ġconv ective
t ered
Ġperc olation
Ġagg reg
Ġperturb ed
Ġunivers ality
Ġmulti pl
Ġb cs
ub es
Ġdiff e
Ġac cep
Ġ8 4
Ġre plic
Ġwr iting
Ġminim ize
Ġsp itzer
Ġamb igu
Ġp ort
en g
Ġle ave
Ġrequ iring
Ġis land
Ġ9 7
Ġco arse
op tions
he ader
Ġdemonst rates
Ġacces sible
Ġmatch ed
Ġpack age
loc al
] ]
Ġvibr ational
Ġx mm
Ġtradition al
Ġschwarz schild
ch e
Ġske w
Ġcas imir
Ġorigin ally
s ub
Ġtelesc opes
Ġgreat ly
Ġrec onn
im a
Ġrewr itten
Ġback ward
Ġfe asible
Ġmodel ling
Ġcor onal
Ġfocus ed
st ream
r active
Ġsubg raph
Ġj an
Ġg s
Ġop t
Ġoutflow s
Ġas ser
Ġgra y
Ġremn ant
Ġoccur ring
Ġper i
Ġtrans it
h t
it ors
Ġsuper symmetry
Ġk err
o x
Ġn p
Ġadd ressed
Ġ10 5
h s
Ġev ap
Ġparametri zation
Ġden omin
Ġmedi a
Ġli u
Ġm ss
Ġatten u
Ġd rag
Ġs ure
ograph ic
n os
Ġreason ably
Ġtransform s
Ġprefer red
Ġisotherm al
Ġincom ple
man ifold
es h
o vi
Ġbet a
Ġit em
re di
Ġp or
ell ation
Ġv on
Ġcl umps
Ġens ures
vi olet
Ġh ii
Ġmetall icities
ow er
Ġbright est
Ġco vers
on i
Ġion izing
r t
Ġsl opes
Ġq d
Ġadap tive
Ġout l
Ġdecay ing
Ġhomotop y
Ġpost erior
Ġfil aments
Ġmach ine
Ġformula e
Ġw est
Ġconn ections
Ġsemic lassical
Ġincl usive
f old
Ġultra violet
- )
d is
Ġdetect able
Ġcl ar
oscal ar
Ġch ern
um ann
iv ari
Ġch am
Ġm w
Ġro ll
p m
Ġsub sc
Ġprec ed
Ġhol omorphic
Ġfin itely
Ġresidual s
Ġd ft
Ġiter ations
Ġlo ad
ces sion
Ġinc ons
is sible
Ġref ers
Ġcommun ity
Ġk k
Ġcoll inear
Ġirre g
Ġviol ating
Ġb lu
si bility
f l
Ġneutron s
Ġimpur ities
Ġing redi
Ġintro duces
Ġerg od
n eg
Ġadj ust
Ġpar ad
Ġunc or
st ructure
Ġb ore
Ġro om
Ġill umin
Ġaccoun ts
anc ies
at o
Ġcomplement ary
Ġinterp olation
Ġconserv ative
Ġac ad
Ġext raction
Ġcod ing
Ġeigenv ectors
Ġj ose
Ġperfect ly
ian ts
Ġade qu
Ġcombin atorial
Ġprinci ples
Ġman ip
Ġp ip
Ġ4 00
ve re
Ġro ut
Ġm ot
1 12
Ġcas cade
Ġanders on
Ġe ur
Ġarrow s
Ġmeas urable
Ġcross es
d ec
s es
Ġs tim
Ġshell s
Ġtor que
Ġgrate ful
Ġbiparti te
Ġsch midt
Ġpre vent
Ġmod ify
n ers
Ġnumer ous
Ġexten sively
Ġfri ed
Ġma pped
Ġpro xim
Ġdest ro
Ġf aces
Ġb od
uch i
y mmetric
Ġlept ons
is ons
Ġh ill
Ġmem brane
Ġhierarch ical
Ġdiffus ive
Ġh ours
Ġcomb ine
Ġtr y
Ġresol ve
Ġno is
Ġseyfer t
Ġcoh om
Ġrecord ed
Ġconver ted
Ġglu ons
Ġim mediate
Ġlet ter
Ġtrain ing
i pped
Ġanaly zing
)( -
Ġrece iver
Ġreal izations
w in
Ġcalib rated
Ġd d
k m
Ġth or
Ġin n
et ch
Ġsh are
x x
Ġj ones
Ġimp ose
Ġmaxim a
di rection
Ġevol ving
Ġlad der
Ġprocedure s
Ġfal se
Ġen ables
em ic
Ġoptim ized
Ġpres um
Ġns f
om er
Ġcap ac
Ġcare ful
Ġremov ing
Ġo ve
Ġepoch s
lin es
Ġg ib
Ġhex ag
Ġtransmit ted
Ġrepul sion
Ġdeduc ed
Ġass emb
Ġaverag es
[ (
ak ov
z er
Ġst or
s u
lat tice
b c
Ġtet ra
Ġconveni ence
Ġfis her
Ġneg lecting
us c
Ġpoly g
Ġso le
Ġle aving
Ġ8 8
Ġno va
Ġn ic
ch er
Ġ197 7
Ġmultiplic ation
Ġla place
Ġquadr ature
depend ent
Ġextrap olation
uch y
Ġpresc ription
Ġbel i
Ġdev oted
Ġjose ph
Ġse ven
Ġmess age
Ġdynam ically
Ġrect ang
re lation
Ġt d
Ġsp anning
Ġremark ably
Ġapparent ly
v ity
Ġexpansion s
Ġprom ising
Ġ9 6
par ticle
Ġprov en
Ġreach ing
Ġg w
Ġidentif ying
ec ti
Ġcompar isons
Ġm ott
Ġove res
Ġproof s
a ir
Ġcons ec
ph e
Ġp ions
Ġgeom etries
Ġpeak ed
Ġtrunc ation
Ġse es
re ci
Ġcompound s
Ġha w
Ġr c
Ġwave gu
Ġdis rup
Ġl c
Ġent er
eli ke
Ġat las
Ġsynth esis
Ġcondens ed
Ġmin kowski
Ġinser ting
Ġb og
sp ace
b al
g p
Ġburn ing
Ġmorph ism
Ġsupp orts
Ġhyper sur
Ġm t
Ġt an
Ġfract al
Ġk ol
Ġphon ons
Ġacc ord
Ġch i
Ġshow er
Ġcoll ider
Ġl amb
Ġemplo ying
Ġm k
Ġaction s
ph er
Ġapp reci
Ġbeha ves
ww w
Ġkin ds
od ed
Ġ8 9
Ġ197 8
Ġso on
Ġpen etr
ph ere
Ġext rag
Ġplaus ible
Ġacc umul
Ġp ac
ur s
Ġconcern ed
Ġsky rm
Ġh ope
Ġenerge tic
Ġcontr action
Ġminim ization
Ġthermod ynamics
Ġ il
Ġabsorb ing
e per
Ġgra nd
Ġinteg rate
Ġun bound
Ġfor b
Ġcomp res
Ġb ad
Ġbelong ing
Ġdist urb
Ġelectro static
ul us
Ġsol v
Ġb its
omin ant
Ġbeli eved
Ġaddi tive
Ġdro ple
Ġdepart ment
Ġb d
] )(
Ġas c
Ġmod ifications
Ġc amp
Ġelect rical
n n
Ġextrag alactic
pro cess
Ġquantit atively
Ġsepar able
Ġca uchy
Ġ9 3
Ġrel ate
c u
Ġoscill ators
Ġsoci ety
Ġreg ression
Ġslow er
Ġmonot onically
Ġharm on
Ġfix ing
Ġp g
Ġobe y
Ġpre cession
Ġly ap
Ġe f
h aus
Ġun res
Ġoscill atory
Ġeff ort
ov ing
Ġprot ost
iv ely
Ġestim ating
Ġdiag nos
Ġcus p
Ġex otic
Ġtail s
Ġsatur ated
Ġopen ing
Ġd b
Ġquench ed
Ġquies cent
b ration
Ġse vere
Ġs itter
Ġmod ern
Ġne umann
iv ing
Ġastronom ical
ti vities
Ġregard less
Ġw map
Ġab st
Ġmathematic s
Ġlink ed
Ġim plied
Ġf id
Ġo s
ding ton
id a
Ġspher ically
n y
Ġm etr
Ġcor ner
Ġg ates
Ġmodul es
Ġprote in
Ġr ic
Ġfr ust
Ġpri v
Ġsatell ites
mod ule
Ġstar ted
z a
Ġob st
Ġmatch es
om m
Ġno tic
d own
Ġbehavi ors
Ġreconn ection
l ag
Ġde eper
Ġevalu ating
p n
Ġiter ative
in er
Ġmo bility
, (
v ector
Ġsubs ec
Ġmem ber
ill i
Ġirreg ular
Ġinterfer ometer
Ġl v
Ġdistinguish ed
uc k
Ġeigen functions
Ġclos est
tu de
Ġt b
Ġb oun
Ġremain der
Ġmet ast
Ġall oc
Ġtor sion
b ach
Ġp f
Ġex ec
mod el
erm ost
Ġul tr
Ġfocus ing
c yc
m n
sp ec
Ġsmooth ing
Ġsti ff
00 7
Ġcircum stellar
Ġd na
Ġdec on
" ,,,,
Ġze eman
Ġ12 3
Ġmss m
Ġexpl ains
Ġ1 16
Ġunres olved
Ġent ers
Ġs g
Ġe ast
ativ ity
Ġcatalog ue
Ġd x
Ġj umps
Ġsepar ations
Ġre ally
Ġir radi
Ġbi ased
Ġvalu able
Ġconsec utive
Ġnonlinear ity
Ġanten na
dd en
Ġsk etch
p ective
Ġsilic on
Ġlyap unov
Ġrel ies
Ġmarg in
Ġhapp en
Ġbl az
p ect
Ġevery where
er c
ates t
Ġjoseph son
Ġcom oving
Ġconstruc ting
Ġeu rop
Ġed dington
Ġ nd
Ġcha os
Ġc ast
ar ray
Ġcoinc idence
Ġk ur
q cd
Ġev id
Ġt al
Ġk ra
Ġcommut ative
Ġautom atically
00 6
Ġoscill ating
Ġfail s
ath ered
Ġh em
Ġindic ation
Ġcollision al
ell er
Ġj ap
Ġbore l
ograph y
ruc tion
Ġr isk
Ġf g
Ġn ight
Ġconcent rations
Ġag o
Ġ9 2
Ġar ms
Ġint ra
Ġelse where
Ġf f
Ġfirst ly
Ġsucces sive
Ġpers pective
Ġoverla pping
Ġoper ated
Ġnot hing
Ġch ir
o plan
Ġb is
Ġformul ated
Ġast rom
Ġcar r
Ġproj ections
Ġattach ed
Ġexclu de
cep ts
Ġpresent ation
Ġel ong
Ġbary onic
Ġrele ase
Ġcons um
us s
Ġcom ment
a o
Ġm ission
Ġu k
and er
Ġb essel
int eg
Ġm jy
Ġmart in
Ġinfin ites
r d
Ġe ch
c ence
Ġign ored
Ġre ly
Ġqu i
Ġb an
Ġto m
tif ication
Ġdeform ed
Ġadm issible
Ġengine ering
Ġow ing
Ġn f
Ġins en
Ġh et
on om
Ġarri val
Ġrepro duces
Ġmetr ics
Ġoutl ined
Ġbas es
Ġspect rom
Ġbay esian
Ġproxim ity
pl ay
ph asing
Ġsepar ating
Ġharmon ics
le pt
Ġsn ap
11 1
Ġser v
ph ot
Ġmonop ole
Ġlog ic
b b
Ġspin or
Ġas k
Ġrh ic
Ġnot ations
Ġnam e
g et
in vari
Ġstrong est
Ġinters ect
Ġspec ify
Ġm ere
Ġdeple tion
Ġcop ies
Ġn u
Ġn ag
Ġdifficul ties
Ġrepe at
Ġc up
Ġ201 6
tim ately
]( [
Ġperiod icity
Ġga ug
i ro
Ġ rib
Ġintegra nd
ol ating
Ġr ul
Ġreco il
Ġecl ip
Ġdec ision
et ti
st one
Ġ9 1
Ġturn ed
Ġrg b
Ġelimin ate
Ġleg end
' (
Ġrot ations
Ġly man
Ġminim izing
Ġdo ing
Ġser ve
oc al
Ġdetun ing
Ġf b
Ġregular ity
Ġprep ared
Ġstor age
Ġaccep ted
Ġc df
Ġinter faces
Ġdenomin ator
Ġ9 4
Ġ12 5
bur g
Ġp le
Ġtun ed
Ġequ atorial
is ter
re st
k b
Ġhand le
e z
Ġsci ences
and s
Ġp et
Ġeas ier
on ormal
Ġref ere
Ġdiver ges
Ġtot ally
Ġ1 17
01 0
ch ar
g i
Ġcon versely
Ġsec onds
ish ed
Ġhamiltonian s
Ġn es
Ġwa ven
Ġjustif ied
Ġhigh light
; ;
p os
Ġspe aking
Ġwaven um
Ġof fer
q s
Ġkin k
Ġbeg ins
Ġdig ital
Ġc v
am ple
Ġst em
Ġcohom ology
Ġaccre ting
Ġfo ot
li ke
Ġsc ope
Ġfunct or
Ġinstrument al
Ġpair wise
Ġchallen ge
Ġmulti plied
Ġprac tically
00 8
depend ence
Ġsh rin
Ġdiss oci
Ġbod ies
Ġmorph ological
Ġd ens
Ġm ur
Ġuncor related
Ġt ex
Ġs ake
Ġsp ur
Ġdiver gent
Ġn b
Ġwid er
Ġpropag ators
u z
ens ur
Ġm ol
Ġturn ing
Ġbol ometric
Ġirre le
Ġchallen ging
Ġf ash
Ġm arch
Ġmig ration
Ġnon neg
Ġbeha ve
Ġcl i
Ġen cl
Ġmonitor ing
ar ing
Ġmin us
Ġq ed
Ġasy mmetries
Ġ197 6
Ġhe ad
26 4
Ġindividual s
Ġiner tial
ovi an
Ġquanti zed
ph i
Ġfash ion
re h
Ġst ein
Ġspir als
Ġq so
Ġopp ortun
y e
rib ed
uc ial
Ġterm inal
Ġto day
Ġresour ces
Ġfol d
Ġversion s
Ġn c
t in
Ġunus ual
Ġlimit ations
Ġhart ree
b or
Ġfluid s
Ġvl a
Ġsu dden
Ġsee ing
p ot
ed ge
Ġb ench
Ġe con
Ġstri king
Ġmon th
s is
Ġcub e
Ġattem pts
Ġl ond
Ġk ar
Ġatt ack
Ġcomplex es
Ġw u
Ġcap able
Ġgeneral ize
Ġinter play
Ġg ave
Ġrigor ous
Ġg y
Ġbr ing
Ġg ut
Ġinsul ating
Ġdecre ased
l ens
Ġ igm
m onic
equ ilibrium
Ġbal anced
p rop
u de
Ġover come
Ġfid ucial
Ġlag range
Ġpart ly
Ġorth onormal
Ġsm c
Ġprim itive
in os
s r
Ġcont acts
Ġampl ification
form s
Ġdiv ide
Ġmark ovian
Ġlo be
Ġorient ations
Ġexperi ence
u ary
Ġmod ular
Ġap r
Ġattr action
Ġs ent
Ġte le
Ġde phasing
Ġdenot ing
Ġs v
Ġcaus al
Ġshad ow
Ġadjus ted
Ġadop ting
Ġh en
st er
Ġconn ectivity
l ab
ov ich
Ġb ending
Ġirrele vant
Ġcategor ies
Ġcomp ac
Ġmotiv ation
Ġlet ters
Ġextrem al
01 2
Ġours elves
Ġconcent rate
Ġhop f
Ġi p
ni a
Ġfail ure
Ġcondens ates
s im
Ġfrag ments
Ġupd ated
Ġtw isted
Ġjunction s
j i
Ġt in
Ġg b
Ġaxis ymmetric
Ġap pl
Ġbet he
Ġbr ill
Ġb at
Ġy am
rop ic
p b
ron g
j et
Ġm cc
c il
ira ble
Ġph y
siv ity
ol ate
Ġemer gence
Ġg ases
Ġsole ly
Ġconfir ms
Ġis och
Ġa k
Ġphot osphere
v ance
Ġre nd
Ġre yn
Ġfi bers
Ġdec oding
Ġdiscontinu ity
Ġaccoun ted
Ġgrad ually
Ġp ad
Ġdisc s
Ġcomplet es
Ġde b
f ine
z y
Ġal ter
Ġpass age
Ġsub mit
Ġinh erent
Ġpreser ves
Ġmaxim ally
Ġsumm ing
n t
i ar
Ġret ri
Ġaccept ance
Ġmodul o
Ġl ists
Ġaf m
ff ic
Ġbub bles
Ġcumul ative
wh ile
Ġpop ular
Ġhel i
Ġinsen sitive
Ġc ms
ra nd
Ġcur ved
Ġcorrel ator
Ġthom as
Ġce phe
Ġwe in
Ġprob abil
Ġx i
Ġinstrum ents
es es
Ġqu oted
Ġapp eared
Ġlinear ized
Ġj up
Ġover d
Ġr v
Ġpropag ate
ar c
com ing
Ġhum an
l ayer
Ġcon cepts
Ġfac ts
Ġspectro graph
d y
Ġib id
Ġdec eler
Ġpreced ing
Ġmark et
Ġanalog ue
elect ron
Ġsch w
Ġconn ect
Ġhom omorphism
Ġomit ted
Ġin jected
Ġtrack ing
Ġconclu ded
Ġguarant ee
Ġpropos al
Ġmetast able
Ġsynchron ization
Ġforb idden
Ġgr ating
Ġgeodes ics
i ers
Ġtra ffic
Ġdetect ing
Ġcross ings
qu ist
Ġb im
Ġinput s
Ġsc in
Ġg ord
Ġcontrol s
Ġs aw
Ġadap ted
Ġinsp ection
Ġinter ch
Ġlond on
Ġ uc
Ġinflation ary
Ġbr anes
Ġalph a
m l
Ġse a
Ġshad ed
Ġshort est
Ġle ct
Ġli br
Ġremark s
Ġrecip ro
amb igu
Ġbackground s
on ent
Ġmas er
Ġlati tude
ard t
Ġir ac
Ġso uther
Ġriemann ian
con n
, .
lin k
Ġeurop ean
Ġnon local
Ġsmooth ly
Ġd p
physrev lett
Ġpred ominant
Ġpass es
n es
n as
il it
Ġrel ay
Ġd am
im er
Ġin form
Ġscin till
Ġsch ed
Ġdispersion s
x y
Ġcoex istence
Ġdep os
p ass
Ġuniqu eness
Ġexpos ures
Ġrele vance
Ġaltern ating
el le
Ġcare fully
Ġpl a
Ġcol ored
Ġfl ag
Ġdip olar
Ġsemiconduct or
Ġoper ating
Ġsp anned
um er
Ġpermut ations
Ġpresum ably
Ġcomp reh
Ġmultip lying
Ġsouther n
Ġco al
ag raph
' )
Ġdec ades
Ġ rom
Ġnonneg ative
Ġcarri ers
Ġnois y
Ġ25 0
Ġparam agnetic
Ġass ignment
t ype
Ġhyb ri
Ġst ee
ri ptions
Ġconsider s
Ġapproach ing
Ġw at
Ġl p
Ġdiscreti zation
Ġl ange
Ġindic ator
Ġcorresponding ly
Ġdecoupl ing
Ġhyper fine
l og
Ġsurprising ly
Ġman usc
ge v
Ġun ified
Ġun s
Ġh olog
Ġar rays
Ġattenu ation
Ġdestro y
ah ed
Ġh h
Ġb on
Ġfac ilit
Ġcollab or
plac ian
Ġf an
Ġnot es
Ġop tion
Ġnom inal
w ith
Ġlab elled
Ġflu ores
Ġl ac
a ult
d iff
Ġp ages
Ġinten se
band s
Ġra w
etr y
Ġsc an
Ġoccur red
Ġlorentz ian
Ġidenti ties
iod ic
Ġaccept able
c omes
Ġc b
Ġcanc ellation
Ġsed s
10 6
Ġa lex
Ġcons tit
Ġst ored
Ġgr ants
01 5
ou in
Ġ1 19
u x
00 9
em e
Ġsm bh
Ġunit arity
Ġo d
m ut
Ġg d
Ġsnap sh
um es
Ġfrequ ently
Ġan ne
Ġent ry
Ġbench mark
Ġcompeti tion
Ġh s
Ġparti tions
Ġfer romagn
Ġhe ated
Ġl ot
g am
Ġne ural
Ġreyn olds
Ġ10 4
Ġis o
os yn
ich let
Ġk ing
Ġcontribut ing
Ġaccompan ied
or relation
Ġj e
Ġmanusc ript
Ġremov al
Ġtetra hed
Ġsl ab
Ġdiv iding
Ġsquee zing
Ġcontinu ation
Ġsecond ly
ic y
k n
22 6
) .,
Ġpa ge
Ġsw ift
12 5
Ġtransfer red
ul ations
Ġdatas ets
Ġprobabil istic
Ġreal ize
])( [
Ġergod ic
Ġtens ors
al y
Ġreson ator
Ġde le
Ġpro mpt
e y
Ġimportant ly
Ġstatis tic
Ġl es
Ġfor cing
Ġcompan ions
Ġr b
Ġk ir
Ġal g
Ġmo b
ip olar
Ġbrill ouin
Ġv a
ll er
Ġequ ipped
Ġtor oidal
s ets
con t
tic ity
Ġcol ours
Ġser ious
st ate
Ġcapture d
Ġanti symmetric
Ġprogram s
) :
Ġj am
Ġcal or
Ġ19 75
Ġreal ity
Ġdir ichlet
Ġinc oh
Ġachiev able
Ġunderes tim
Ġfilter ing
Ġmon omial
h y
Ġme et
Ġli ps
Ġexpect ations
Ġresc aled
il s
el son
Ġgu ide
Ġval ley
ber ger
Ġtr aces
Ġpump ing
Ġt t
Ġpiec e
Ġcm d
Ġm p
cl uster
Ġn it
Ġg n
Ġdecomp osed
Ġgro ss
os cop
Ġs ectors
Ġmin utes
Ġsmooth ed
Ġcart esian
Ġb ridge
Ġe i
Ġgh ost
Ġincomp res
Ġch ance
om ers
Ġd oc
Ġout line
rom atic
Ġw o
it on
Ġsubmit ted
Ġorigin ate
sh op
Ġreturn s
Ġnan ot
Ġlook s
Ġbo ok
Ġe jected
ti a
Ġeff orts
Ġadvant ages
Ġann ulus
Ġbas ically
01 4
Ġpreser ved
ak a
Ġcontam in
Ġla placian
or ds
Ġrestric tions
ur ity
vers ity
Ġwal ker
invari ant
Ġ10 3
Ġh m
gen ces
Ġm ich
Ġch ose
Ġeigenst ate
Ġb ow
Ġrelax ed
le igh
Ġ10 7
Ġor b
Ġv ar
Ġh an
ell a
Ġg iants
Ġprov ing
th esis
et ri
Ġun ambigu
Ġprep rint
Ġmeaning ful
Ġkepler ian
Ġhalo es
Ġsubst ructure
Ġtri al
Ġh c
Ġen able
Ġk ick
Ġrectang ular
Ġwork shop
Ġt c
Ġconstitu ent
Ġpl ates
Ġdeal ing
Ġmedi ated
ub ov
Ġpub l
Ġbarri ers
Ġent ering
Ġstee per
Ġpre v
Ġpoin car
Ġisoch ron
Ġwar p
Ġcarr ying
Ġemer ge
Ġchap ter
Ġgravit ation
Ġol der
Ġ10 9
Ġle p
Ġemer ges
Ġc en
Ġneighbour hood
Ġparametri zed
Ġcons titute
ter ior
i om
au er
it ect
Ġcrystall ine
Ġpin ning
Ġbox es
ur i
i ke
Ġtri vi
or ov
Ġabst ract
l ate
Ġem is
Ġpas sive
Ġillust ration
Ġun re
Ġblack body
Ġcd m
Ġrh o
Ġdamp ed
hl ung
Ġdoub ly
Ġflat ten
Ġref lecting
Ġphot ospheric
Ġiden tically
v ille
Ġincons istent
Ġ ys
Ġ10 8
Ġflav our
Ġsubt le
Ġ6 00
Ġnon equilibrium
Ġderiv ing
Ġparameter ized
Ġfore st
at ron
Ġinfinites imal
Ġclaim ed
Ġaccord ance
Ġcharacter izing
Ġrec on
Ġmod est
Ġbrack ets
01 3
Ġh it
Ġtend ency
c ap
Ġcomp il
Ġthresh olds
Ġrefere e
Ġorigin ates
bo ok
Ġrect angle
di ag
ke v
Ġfree ze
Ġnew ly
Ġres cal
Ġtop ic
Ġsl ice
Ġattr actor
act ory
Ġemer ging
Ġloc us
Ġprob es
Ġray leigh
Ġcontin ues
Ġschem atic
Ġhydrod ynamics
Ġn v
Ġconduc ted
Ġt f
Ġarch itect
pl ot
Ġ- -
Ġjap an
ill ing
ther n
ew ise
k al
Ġro ber
Ġspectrom eter
Ġsens or
s n
Ġantic ip
re te
ruc tive
Ġisotop es
Ġmultiplic ative
ol a
Ġincomple te
Ġgu ess
Ġast ero
Ġ197 4
Ġbi ological
Ġign ore
Ġqs os
Ġheavi er
Ġto ok
Ġ( -
ac le
et ary
01 1
Ġber lin
Ġholog raph
10 2
Ġnucle ation
Ġoff ers
ch itz
r u
Ġensem bles
Ġgran ular
Ġindepend ence
Ġsp ite
Ġalf vn
Ġdisappear s
Ġspeed s
Ġsimpl icial
Ġhybri di
Ġaut oc
Ġex terior
d ist
Ġf ellow
Ġd w
Ġdeform ations
m ore
Ġle af
Ġpiec ewise
Ġcomple ted
perturb ed
Ġhund red
Ġcir cul
Ġlemm as
Ġ18 0
, )
Ġpiec es
2 000
ur istic
Ġlight est
Ġencoun ter
Ġdes irable
Ġaccoun ting
Ġlange vin
Ġv ap
Ġv o
Ġ- (
Ġpart ons
Ġic m
Ġprogen itors
stra hlung
Ġtrig gered
Ġimp osing
Ġspur ious
Ġg erman
Ġgre y
Ġros at
Ġestim ators
Ġlater al
x i
Ġsubsp aces
Ġlips chitz
Ġremn ants
Ġim per
uc lear
Ġassoci ate
b in
Ġg all
Ġul timately
ple x
Ġincoh erent
Ġtang ential
Ġfor th
Ġsa f
Ġmul tic
Ġfi re
Ġatmosphere s
Ġtransl ational
Ġstand ing
oc entric
Ġse p
Ġabsor ber
12 3
Ġequ ilib
Ġb ump
Ġlin d
h ead
Ġpar all
Ġmon ol
Ġrul ed
Ġfluctu ating
or tions
oscop ic
ur y
Ġout ward
Ġresour ce
Ġdram atically
Ġset t
Ġg ase
ativ istic
Ġgord on
z o
Ġdiv ision
Ġdiver gences
g g
it ation
10 5
Ġdo i
Ġf ed
Ġenc oded
Ġellip so
ter m
Ġbro ader
Ġ16 0
Ġcoll im
Ġn r
a a
Ġguarante es
esc ence
Ġun perturbed
Ġwol f
Ġgib bs
Ġevap oration
Ġplay er
Ġdec line
Ġins tit
Ġbrack et
Ġnorm ally
Ġglob ally
Ġpseud oscalar
im ination
Ġgase ous
Ġpa h
Ġ10 6
Ġpreser ve
Ġmodul ated
k ins
Ġpack ing
Ġadequ ate
Ġg ri
Ġkin ematical
Ġan c
Ġb f
Ġre ar
os c
Ġapj s
Ġ197 3
Ġcent r
eg a
Ġincreasing ly
Ġmas k
Ġa ust
Ġelliptical s
Ġl t
] :
Ġcomp ares
Ġax iom
Ġca vities
Ġarrang ement
Ġ iff
Ġphot onic
Ġshall ow
Ġincorpor ate
Ġprob ed
Ġcentral ity
Ġneutral ino
Ġpref eren
Ġb p
g ue
Ġjacob i
Ġh v
Ġmicro lens
Ġfol i
Ġinstant on
Ġwavegu ide
( (
act ors
Ġeigenv ector
Ġir s
b ar
Ġbal mer
Ġsh ared
Ġnor thern
Ġfre ely
op ed
Ġdis ag
Ġro d
Ġkern els
rel ativistic
atter ing
Ġinc idence
Ġsub c
Ġincorpor ated
Ġobsc ured
Ġline width
Ġar p
Ġasymptotic s
tif ied
si tively
Ġan t
Ġn odal
Ġrobust ness
Ġd l
Ġma d
m ev
Ġdiagonal ization
Ġv ice
Ġchem istry
Ġh l
Ġle v
Ġlike wise
Ġhe uristic
Ġps r
Ġf t
b ro
Ġmu ons
Ġcoupl es
p ic
Ġdiam ond
ec ond
Ġrecur rence
Ġtil t
Ġvers a
f eld
Ġra bi
Ġconcern s
if olds
Ġabsor bers
Ġout comes
Ġn ematic
Ġ1 18
Ġl ut
Ġb order
Ġc ust
Ġhypersur face
Ġl da
Ġy an
Ġ ub
Ġh n
Ġrecur sion
if ting
Ġ14 0
ro duction
Ġk u
Ġal t
Ġj une
ensur ate
Ġscalar s
Ġim m
Ġsurv ival
Ġwill i
Ġbir th
Ġcontinu ed
en se
Ġdistin ction
Ġfi le
Ġl ig
Ġadap t
Ġ[ -
ch annel
Ġpack ets
olar ized
Ġsh ot
Ġf if
Ġcompreh ensive
Ġn av
Ġinver tible
Ġ10 2
Ġinst ances
al th
ere r
Ġhem is
Ġprob able
Ġz n
Ġfol ding
Ġnan o
Ġfro zen
Ġr us
Ġb unch
Ġrele ased
Ġbre ms
Ġb ab
Ġst ay
Ġa id
ener gy
Ġmr k
Ġsupp orting
Ġoveres tim
Ġvis ibility
phys ical
Ġtr aced
Ġinf erence
Ġo g
Ġfunction als
Ġc g
Ġwell s
Ġprogramm ing
Ġric ci
Ġpredominant ly
Ġland sc
Ġrescal ing
Ġinters ects
Ġcre ating
Ġiner tia
ti o
ent ed
Ġrec overy
k el
Ġenvironment al
Ġb ag
Ġc ern
]. [
Ġproceed s
12 12
Ġvir go
Ġt ro
Ġla unch
Ġion ic
Ġmagnet o
Ġm ild
Ġstat ements
Ġm ism
Ġfulfill ed
r b
Ġcop y
Ġcre ates
t w
Ġfl ight
en i
Ġcoun cil
Ġcar ries
Ġl ived
Ġr pa
Ġsp ots
Ġpl ac
Ġconc ur
Ġx y
Ġsupp osed
Ġl ift
Ġtrivi ally
Ġrel ic
br anes
Ġorigin ating
Ġinver ted
Ġmere ly
Ġw es
Ġavoid ed
el t
Ġna ive
Ġdifferent ly
Ġsquee zed
Ġst ock
n m
Ġlight cur
Ġobe ys
Ġnotic ed
Ġpoor ly
Ġeclip se
Ġtev atron
m es
Ġh od
Ġresul ted
gra vity
Ġcham ber
Ġed uc
Ġhy st
Ġnucle osyn
Ġdetermin ations
Ġhu ge
Ġjup iter
ic ated
Ġspread ing
Ġnan op
Ġrober ts
th m
Ġwire less
Ġch ip
Ġarc min
Ġmargin ally
Ġfamil iar
ic z
Ġsubtr acting
Ġed ited
mit t
Ġsub di
Ġac s
Ġbrems strahlung
Ġtheore tic
et erm
Ġdeut eron
Ġprot ot
Ġax ion
Ġsubsc ript
12 0
Ġcm e
Ġso ph
Ġle ak
Ġpers istent
Ġk p
cyc le
Ġexcl usive
Ġha us
b u
q m
Ġt ent
Ġover view
g hz
k k
Ġthe sis
Ġrel ates
Ġ13 0
Ġmonot one
Ġs av
par ti
Ġn h
Ġres umm
Ġmodel led
Ġunc lear
Ġjohn son
Ġsetting s
n ormal
Ġy ou
Ġexception al
h an
ens us
Ġstri pe
od er
Ġenc oding
Ġdust y
Ġt l
der s
Ġwal ks
Ġreview s
Ġh in
Ġn ine
lo op
oft wo
Ġs an
con st
d or
' ,
Ġneur ons
har monic
Ġdimension ality
Ġinsp ired
Ġexclu ding
Ġexpect s
Ġph i
Ġfor t
Ġg em
Ġsugges tions
Ġus a
Ġrot ated
m u
Ġtempl ates
mm a
Ġparall ax
n l
Ġassemb ly
ivari ant
Ġwave functions
Ġimplicit ly
is c
Ġmism atch
rup t
Ġpolar izations
Ġbig ger
ys h
Ġprotocol s
o z
Ġn at
Ġmo un
Ġdil ute
02 0
p df
Ġpossess es
on ym
Ġphenomen ology
Ġi j
Ġreason ing
Ġpriv ate
Ġer up
Ġimpro ves
Ġdivis or
Ġf ren
Ġdepth s
p ted
Ġboun ce
Ġman ag
Ġmut ually
r ist
Ġr d
Ġend points
isting uish
01 6
om ing
Ġx u
Ġphys ica
Ġsub m
Ġsequ ential
Ġaccom pl
Ġperform s
Ġphoto ionization
le v
wor th
Ġo k
Ġm it
Ġput ting
Ġunbound ed
Ġdecoupl ed
Ġcent roid
Ġhexag onal
Ġdis loc
Ġaug ment
Ġsec urity
Ġtop ologically
Ġpl aces
Ġj uly
am pl
Ġc ft
Ġlet ting
ast ro
Ġse lecting
Ġhist ories
Ġtor ic
3 21
Ġcycl ot
Ġexch ang
Ġcell ular
Ġsub lattice
Ġreg ge
Ġhistogram s
Ġdisplac ements
b el
10 4
Ġst ag
Ġsuit ed
vi ve
ir c
Ġz ones
Ġgra ded
Ġmel ting
Ġplas mas
Ġconver t
Ġcy g
Ġlife times
Ġd n
Ġpressure s
Ġanalys ed
Ġ ig
sh ip
Ġstat us
02 5
Ġop in
Ġaccre ted
Ġw orm
Ġactiv ation
Ġemis sivity
g el
Ġgen u
Ġrelationship s
physrev b
Ġep is
Ġt ach
Ġt ubes
Ġdisc over
Ġsatisf actory
Ġfew er
11 3
Ġfor ced
Ġun ification
Ġsolv able
Ġwavenum ber
ed a
Ġgold stone
ar di
Ġwave let
Ġundergo es
Ġdifferenti able
eth eless
Ġdram atic
ps on
Ġdep osition
Ġmagn ification
Ġka on
Ġtra de
Ġpu zz
Ġmill er
Ġex it
Ġquasipar ticles
Ġnon etheless
f actor
Ġb us
Ġdon or
Ġref inement
oul os
Ġconc rete
Ġqui et
im ent
Ġmagneti zed
Ġe ver
Ġde par
bi ased
Ġk am
Ġh ab
ni kov
Ġ2 05
Ġmethod ology
Ġh osp
Ġcomputation ally
Ġmer ge
Ġparameter ization
au x
Ġ197 2
ph ase
Ġw ood
Ġch ina
Ġserv ice
Ġb ud
Ġpul l
Ġheavi ly
Ġanti quark
Ġsoph istic
Ġdiscontinu ous
Ġimprove ments
Ġstructure d
Ġvor ticity
em pty
Ġg on
ish ing
am oto
Ġen l
x s
p eter
Ġsuff er
Ġ ug
ut rin
Ġinvestig ating
Ġcoh en
Ġanalogous ly
ac ies
comp onent
Ġen umer
Ġwin ding
om eters
re c
Ġd g
Ġdrople t
Ġclar ify
Ġdynam o
Ġdef ault
Ġbra id
Ġte am
ol ding
Ġbund les
Ġincompres sible
Ġquench ing
Ġpen al
Ġpip eline
Ġisotop ic
Ġser ves
Ġfall ing
Ġmicrolens ing
Ġvol umes
Ġhost s
Ġref ined
Ġsur vive
Ġelimin ated
Ġver lag
Ġexcl usion
Ġhypoth eses
Ġind istinguish
Ġinv ok
Ġsqu ark
Ġparad igm
10 3
Ġbil ayer
Ġinflu enced
ot es
ul ti
Ġhaw king
in z
Ġsus p
v an
Ġre ionization
Ġen ab
Ġcomm ute
Ġapplic ability
t es
Ġconver gent
Ġhe ights
Ġp v
Ġu h
Ġp unct
Ġc row
pl ess
Ġtriang ulation
Ġcaus ing
s ol
x b
Ġball istic
Ġdevelop s
Ġelectro des
Ġh at
Ġsimpl ifies
Ġsol vent
Ġd ressed
Ġdi versity
re p
Ġfab ric
Ġne u
ev al
Ġsal peter
Ġin jective
Ġcoinc ident
Ġcommut ation
e ties
ul ating
Ġhydrod ynamical
si l
Ġhet ero
Ġintrins ically
ig roup
Ġdec ade
12 2
Ġopp osed
Ġlept onic
Ġgener ically
Ġambigu ity
Ġasser tion
os s
Ġbel t
Ġfluores cence
Ġadsor ption
b as
Ġvari ant
re ll
m ag
Ġli ou
Ġdist ortions
Ġ12 8
lept on
Ġb j
Ġpubl ication
Ġp om
Ġh t
ad o
Ġmob ile
Ġwi res
Ġr ub
Ġsumm ed
Ġh ern
Ġplanet es
Ġdissoci ation
Ġinf lat
Ġto ler
02 3
Ġmill s
Ġdoc um
cc c
Ġes o
p d
Ġnucleosyn thesis
Ġl r
Ġen for
Ġpolyt ope
igu ing
Ġtas ks
e i
Ġintr iguing
Ġshar ing
per iodic
Ġco x
Ġellip se
st and
ens en
Ġpd fs
d ynamics
Ġalloc ation
oli ubov
Ġc ri
Ġexplo it
Ġmul tiv
Ġ0 14
Ġw it
Ġmac ro
Ġpar agraph
Ġpar k
Ġreli ability
Ġmon od
Ġrever sed
Ġaut omorphism
Ġread ing
Ġinf low
Ġer gs
Ġal ign
Ġk eck
Ġresem bles
m o
Ġreplac ement
or bit
Ġsec ular
Ġsuper gravity
Ġconf ining
Ġiniti o
Ġbog oliubov
Ġnon perturb
Ġhamil ton
Ġth ous
at um
Ġvi able
p ort
Ġcooper ative
Ġs ort
Ġholograph ic
Ġplay ed
amet ers
Ġber g
Ġc er
Ġun biased
Ġrep orts
Ġinflat on
Ġmess ages
Ġin duc
Ġencoun ters
5 00
Ġg f
ri an
Ġga as
Ġcatalog s
ff er
qu is
Ġtherm ally
Ġquar tic
Ġrecipro cal
Ġg ene
p in
Ġextrap olated
ell an
Ġoptim um
Ġopportun ity
h ole
.. ..
ro gen
Ġbreak down
Ġgl ue
Ġg il
Ġprocess ed
Ġhar der
Ġrecur sive
Ġaut o
at om
u its
us ively
j l
Ġr t
Ġtransp arent
de x
Ġdec l
eti sm
Ġqu int
Ġthor ough
01 7
Ġreconstruc t
Ġdiffe omorphism
Ġp si
Ġprote ins
Ġspac ed
Ġrecall ing
Ġb onn
Ġformul ate
mm etri
u er
Ġhosp it
Ġw rong
Ġlo bes
Ġab rupt
Ġsto pping
Ġenrich ment
m og
f c
Ġf c
ys on
Ġlog ical
iz ability
Ġm ars
Ġch ild
Ġwor se
Ġbi ases
Ġappropri ately
Ġar t
tr ans
Ġd ress
Ġanis otrop
Ġutil ity
Ġry d
Ġf ading
Ġs ar
Ġcon es
Ġon going
Ġp ent
br is
o ol
Ġemission s
Ġsubstit ute
Ġx x
Ġ197 0
Ġe ps
Ġded icated
Ġtal k
Ġanten nas
Ġpoly hed
ab or
Ġcomp eting
Ġstarburst s
Ġguarante ed
sc ale
Ġrece ive
Ġs ized
Ġbra nd
Ġsem an
Ġst er
Ġsubgroup s
Ġp ap
Ġb ic
po si
Ġplas mon
se y
o an
c an
Ġsol ves
Ġlibr ary
Ġcool ed
Ġdiscrep ancies
Ġans w
Ġwein berg
Ġoff sets
02 2
Ġse pt
Ġcoll iding
m b
Ġdef lection
Ġr ising
Ġsurround ed
ti er
Ġmultip ole
11 5
ag er
re f
cl ic
Ġrel ating
Ġw ard
Ġj r
Ġincre ment
Ġelliptic ity
Ġk al
Ġe jection
Ġm j
Ġde bris
Ġjacob ian
Ġsophistic ated
Ġp eters
th ing
Ġbec oming
Ġun physical
Ġexam ining
Ġweight ing
Ġconf lic
Ġbil inear
Ġdav id
ill a
Ġd un
Ġd imin
02 4
Ġhel d
Ġcharacter izes
Ġrem in
Ġhospit ality
op le
Ġdevelop ing
Ġmag ellan
m ode
in son
exp ected
01 8
a j
Ġecl ips
Ġcirc uits
Ġl n
ogene ities
ud es
Ġy b
Ġadv ances
Ġto y
Ġproj ecti
Ġnit rogen
Ġmes oscopic
Ġplay ers
Ġkol mog
Ġend point
Ġsu z
g athered
Ġn ice
34 0
Ġs q
Ġdomin ance
Ġg er
Ġmaxim ize
ies t
Ġsure ly
Ġclassif y
Ġret arded
Ġfellow ship
be it
Ġstring ent
f ir
Ġfu v
Ġd al
Ġsh iel
at en
Ġ2 25
Ġga pless
Ġ12 4
Ġun able
Ġseg reg
Ġma nd
h om
Ġ2 10
Ġthrough put
16 0
Ġsn rs
Ġintui tive
Ġto uch
Ġimp ul
Ġnm r
Ġob s
Ġmulti ply
Ġer a
Ġpol icy
Ġdisc onn
Ġan onym
Ġb ang
Ġscaled width
Ġanomal ies
Ġincor rect
Ġdepar ture
Ġapr il
Ġqu ery
vi er
Ġsin us
eres is
Ġ- .
Ġ12 2
Ġch e
Ġdef ici
Ġhybridi zation
Ġresult ant
Ġox ford
d c
Ġelong ated
ut o
ir gs
Ġfav ored
Ġbi jection
ell o
Ġk g
Ġconduc ting
Ġlinear ity
Ġconf usion
Ġins ights
m p
Ġphot od
Ġ2 20
ra ft
um b
Ġcorrel ators
Ġbene f
Ġg un
Ġtex ture
Ġgrow n
Ġhel ical
Ġun expected
k t
Ġtransl ates
Ġacqui red
Ġresolution s
k pc
l b
p ath
" ,,
Ġnonperturb ative
Ġconjug ation
Ġr ash
Ġw et
Ġsm ear
Ġkolmog orov
Ġpoly mers
Ġwor st
Ġvap or
Ġoutburst s
Ġautoc orrelation
Ġstiff ness
Ġread out
ount ered
Ġinteg rations
ins ky
Ġsym posi
Ġcalcul us
d o
Ġenc ountered
fin ite
Ġhyst eresis
anc ing
Ġsh ed
Ġfil es
Ġun iv
Ġcircum st
Ġlimit ation
Ġastrom etric
Ġar ithm
Ġal beit
Ġschw inger
n et
101 6
ic o
15 0
Ġanaly se
um ulation
ch a
m ax
Ġj i
Ġunc on
Ġcyclot ron
Ġdisper sive
Ġcard in
Ġre in
eck er
Ġdiff ractive
Ġresid ue
Ġ ud
Ġb ipolar
Ġanisotrop ies
Ġoutput s
Ġshow ers
Ġaccom mod
f re
Ġcomple tion
Ġk hz
Ġball s
rag g
Ġeduc ation
Ġen velop
ile y
Ġindistinguish able
Ġobser vers
Ġfavor able
Ġs tic
Ġre si
Ġl is
Ġsearch ing
Ġcommun ications
Ġe ye
po ly
l en
eth ing
Ġsynth es
Ġj ord
s b
Ġis ot
Ġdelay ed
Ġstra nd
Ġn ls
o bs
Ġesc ap
Ġk as
Ġsc anning
Ġr n
Ġc w
ra f
il ing
o ot
p y
Ġspace times
Ġdel ays
Ġexceed ing
cl ass
ad ic
st ar
Ġl ith
Ġe h
Ġsom ething
Ġpatch es
Ġgeometr ically
Ġview ing
Ġhydro static
Ġemphas ized
Ġacc umulation
m ention
Ġfer r
Ġorb ifold
Ġtell s
in n
Ġlens es
n orm
Ġinters ections
Ġyoun ger
Ġlim b
Ġdevelop ments
Ġr l
Ġheter ogeneous
Ġinn ermost
Ġb z
Ġavoid ing
Ġarch ive
18 8
03 0
Ġpl astic
Ġsem igroup
Ġlandsc ape
Ġmanif es
Ġgam es
Ġst ays
yn e
j k
Ġtin y
Ġpresent ly
Ġmon och
Ġshock ed
Ġwilli ams
mention ed
15 1
Ġsp ike
Ġbec ame
Ġingredi ents
Ġcl arity
Ġfif th
ins ki
Ġmor se
Ġmixture s
Ġprob ing
Ġs ided
Ġsubsystem s
Ġpos ed
Ġdecomp ose
Ġr an
m odes
Ġalex ander
z ations
Ġr ises
Ġk illing
Ġp ed
m ic
at omic
is er
Ġv oid
Ġproject s
Ġlo ud
Ġsl ip
Ġfi bre
Ġfr anc
Ġdiagnos tic
( ,
ut ely
Ġdepos ited
f i
Ġk ron
Ġthe ta
ri pts
Ġell is
Ġzer oth
Ġdest ruction
val ues
Ġd ar
Ġsymposi um
Ġq po
Ġup ward
Ġo st
Ġcal if
[ -
Ġflex ible
Ġr p
Ġa fore
Ġhu ang
Ġsolid s
Ġdil aton
w ood
Ġcod imension
Ġins u
Ġn g
un i
Ġvol ati
Ġunp olarized
it eness
Ġpe ople
Ġj y
Ġeffici encies
Ġutil ized
Ġph il
Ġref ractive
Ġmathematic ally
Ġmer id
Ġds ph
le ts
Ġpay off
in ess
ut t
Ġ12 1
Ġred und
com mut
01 9
Ġvi olated
Ġsimple x
Ġexplain ing
---- ----
Ġmin i
man ifolds
Ġrecogn ized
10 9
Ġconstit utes
Ġ2 35
Ġsub d
Ġdist orted
Ġshe ets
v is
Ġdown stream
Ġsplit s
Ġj ack
le ton
Ġpl at
Ġorthog on
Ġ- [
Ġt bl
Ġ13 5
tu ally
Ġfoc al
Ġpenetr ation
Ġspontaneous ly
Ġcomp ressed
Ġb illi
Ġwh e
Ġdav is
s a
Ġsp ik
Ġa val
Ġre duc
Ġy es
id ers
Ġdel ocal
Ġ3 50
Ġz en
Ġcros sed
gr u
Ġcardin ality
Ġdecon f
Ġk ms
Ġc ow
Ġhar ris
Ġabsol utely
Ġin ward
Ġtrans versal
10 8
Ġrear rang
Ġgover ning
Ġstag gered
Ġ ridge
ud a
Ġl atest
Ġenc our
k ar
he ating
Ġryd berg
Ġrash ba
Ġmin istry
Ġber ry
Ġf uk
Ġfil tered
Ġb ian
uc ci
Ġp ca
Ġcapture s
n ov
sp ot
Ġpercent age
Ġvir tually
t os
b os
Ġab ell
Ġcor r
Ġmoder ately
Ġphot op
Ġconclu des
or n
Ġswe ep
Ġreflection s
Ġcontradic ts
Ġaccumul ated
ar o
Ġdomin ating
Ġwindow s
Ġimp ed
Ġo c
Ġsearch ed
Ġtim elike
sp ect
Ġbond ing
02 1
Ġcr ust
we ight
Ġtre ating
Ġadv ance
ro se
Ġinsu ffici
Ġliquid s
Ġex haus
Ġchir ality
Ġam eric
Ġacad emic
Ġsimpl ification
Ġhard ly
m ain
Ġarithm etic
Ġanonym ous
Ġmo ore
Ġingredi ent
Ġs ant
quet te
Ġch rist
Ġtem p
07 5
Ġre vers
Ġz w
Ġw ing
v ation
] ;
Ġv ast
Ġw itten
Ġpar is
Ġsilic ate
Ġmos a
Ġw imp
Ġk el
Ġnarrow er
h u
Ġtravel ing
Ġm en
en berg
Ġs ak
Ġaug ust
Ġalph ab
oc lin
org abs
Ġreview ed
Ġcup rates
eni us
Ġmagn on
24 0
Ġt rop
Ġpopul ated
Ġgenu ine
as ure
Ġb n
Ġarchitect ure
Ġyiel ded
ent r
Ġnot ably
Ġrout ine
Ġpolyg on
Ġdevi ate
Ġmill ion
Ġfer ro
Ġf em
Ġe b
g alactic
Ġsl oan
titu de
Ġelectro de
Ġjord an
app ro
Ġultr ac
Ġp at
Ġaval anch
Ġas ca
ic ate
ig er
Ġcol lect
Ġa i
am ura
ol is
Ġdesc riptions
Ġfac ility
Ġnf w
Ġ... .
Ġafore mentioned
Ġexplo iting
eq n
Ġliou ville
Ġfi b
Ġco le
ak es
Ġlv y
Ġh ull
Ġlect ure
is co
Ġstretch ing
Ġconc ave
), (
Ġdiscuss ing
Ġattain ed
Ġ12 7
ul ts
Ġfort un
g ener
or nia
Ġquantif ied
Ġz ig
Ġindivid ually
Ġs ine
ugh t
Ġve h
ti s
Ġst an
Ġattr acted
Ġd as
Ġneb ular
Ġg t
n um
Ġbul ges
f a
Ġpul sed
Ġk il
iv ity
Ġtrac er
Ġirradi ation
f m
Ġhel m
ul sion
Ġsus tain
y ama
j s
ree v
Ġs is
Ġgri ds
r c
f act
Ġconn ects
Ġthom pson
Ġcalif ornia
Ġ2 15
Ġexhibit ed
Ġdi quark
Ġle bes
Ġam orph
ak er
y on
Ġsens ing
Ġnebula e
Ġwe iss
Ġmaintain ed
lu g
eren kov
le mma
es ter
Ġfr ing
an z
Ġinflu ences
l ov
Ġcollap sing
Ġstabil ization
Ġprog res
Ġl ap
Ġin ac
t l
Ġs as
Ġno v
Ġsimil arities
Ġbo ot
Ġfit ness
Ġsec ure
Ġsched ul
rr rr
oph ys
37 7
03 3
Ġend ow
Ġreg ul
Ġp itch
im als
Ġconj unction
Ġj cap
ater al
Ġco ord
Ġdifferenti ation
Ġnotice able
Ġchallen ges
le vel
Ġl ighter
Ġsupplement ary
op oulos
Ġrang ed
Ġinv olution
Ġlebes gue
Ġl te
Ġcon gru
ion al
x p
Ġign oring
q c
Ġhyper plane
ting er
Ġd v
Ġp il
Ġnes ted
Ġlink ing
23 5
sc i
y an
Ġcontroll ing
Ġgon z
re ds
Ġpuls ation
Ġred ist
Ġmas ers
Ġdepend encies
Ġbh s
Ġmonth s
dor ff
Ġfund ed
Ġpseud op
Ġtrans f
Ġbene fit
Ġcor ners
18 0
g roup
Ġver ification
10 7
Ġatt ribute
Ġrib bon
Ġwh it
Ġsepar ates
Ġsin k
Ġdiver ge
Ġcommut es
Ġb ss
Ġflav ors
Ġbroad band
Ġcod ew
Ġw ings
m om
Ġth ings
oclin ic
ne ider
Ġlati t
Ġconser ving
Ġh one
Ġn y
Ġcorrect ing
Ġf d
Ġconstrain ing
Ġnanop ar
Ġpla quette
Ġdisag re
Ġnon relativistic
Ġbin omial
Ġsh ifting
Ġmark s
33 6
Ġga pped
c ond
et o
Ġexhibit ing
Ġinhom ogeneities
Ġsubse quence
Ġconstruc tions
Ġd ai
et on
Ġs ays
y le
Ġk ram
Ġindic ative
Ġpolar isation
03 5
Ġmove ment
Ġup stream
Ġmorph ologies
Ġdepend ences
Ġp ne
ib ly
a e
Ġswitch ed
Ġrec omm
Ġrx te
Ġband pass
Ġa ra
Ġtrac ing
12 8
Ġm v
Ġbo ard
Ġd ras
Ġorgan ization
02 6
Ġimpro ving
c ast
Ġmo ved
Ġsi o
Ġsuper imp
Ġrot ate
Ġdri ves
Ġhemis phere
Ġd yson
Ġacceler ating
Ġblaz ars
Ġhund reds
Ġvari eties
Ġ19 69
Ġtra ps
Ġstack ing
Ġde ad
Ġstar k
Ġmag ic
Ġg ir
Ġfried mann
Ġisland s
Ġclock wise
Ġel abor
et z
o ured
Ġc iv
im oto
14 0
Ġsen ds
Ġk au
ti ally
Ġinter mitt
uc le
Ġrandom ness
3 00
Ġir resp
Ġstabil ized
o ves
us ing
Ġmirr ors
Ġwit ness
Ġbo ole
Ġdisrup tion
by e
Ġspac ec
k p
Ġmic roscop
m os
Ġamorph ous
Ġmagellan ic
d v
for th
Ġrigid ity
Ġclass ically
Ġnumer ator
Ġdras tically
Ġb ps
Ġcolor ing
Ġ3 25
Ġcontr as
Ġradi ally
Ġvolt ages
Ġech o
Ġarrang ed
Ġb rid
x bs
Ġop ens
d b
Ġencl osed
Ġb t
Ġbl r
Ġinsuffici ent
Ġaffect ing
Ġbin ned
) ;
Ġy ellow
o ke
Ġk aw
ad ay
Ġfab ian
Ġhaus dorff
on ov
Ġdestroy ed
Ġc rab
Ġand reev
Ġcd w
Ġl uc
Ġpresc ribed
Ġcoll iders
Ġwa iting
Ġtr uly
Ġex erc
11 4
o ber
Ġexplo ited
av ed
Ġd ub
Ġkh ler
a ren
Ġq gp
Ġrough ness
ti le
Ġthe or
per s
Ġdisconn ected
Ġc cccc
Ġpropag ates
Ġpolar on
al d
Ġro ute
v ol
Ġlear n
Ġacqui re
Ġhist or
Ġoper ate
Ġpo sitivity
Ġreli ably
Ġmonod rom
Ġz eta
Ġtil ted
Ġb ragg
Ġfr ance
lec tivity
t ab
m ath
Ġnan ow
v ar
Ġlegend re
Ġro y
Ġsol ver
Ġmim ic
Ġgover n
Ġlower ing
Ġindex ed
Ġrh s
Ġincorpor ating
Ġminim ized
Ġnam ed
Ġpref actor
c as
Ġcalor imeter
Ġdown ward
Ġcost s
Ġprev ents
Ġo de
sk ii
Ġprec urs
Ġ[ (
ot ti
Ġboot stra
Ġboole an
Ġb rough
Ġgen etic
Ġgra ined
Ġp es
Ġp lug
Ġmorph isms
ay an
Ġro ss
ro v
pp ings
Ġsp s
Ġcompact ness
Ġscre ened
Ġh cn
Ġg j
r h
Ġsup pl
m pc
Ġapp e
Ġexcl usively
Ġexpl oration
Ġve v
Ġexplosion s
Ġcoal escence
Ġdic t
Ġgrate fully
Ġf ad
Ġj ul
Ġpom eron
Ġmagnet osphere
Ġprojecti le
Ġcom a
Ġinser tion
Ġst ro
28 8
Ġtrans c
Ġtele port
Ġresp ons
ni tion
Ġtor i
Ġinser ted
Ġp ier
Ġ12 6
Ġsh u
Ġcons ensus
st r
b ons
Ġ197 1
Ġis ometry
Ġspacec raft
g ov
Ġaust ral
Ġopin ion
ita ev
Ġsc ore
Ġso v
Ġre ject
Ġgraph ical
Ġhard ness
Ġstr ang
Ġconfirm ing
Ġschem atically
Ġlif sh
Ġfac ilities
Ġ2 23
ent ation
Ġcur ie
Ġme eting
Ġw l
if ier
Ġacknowled g
Ġachie ves
Ġsee k
Ġpreferen tially
fir st
Ġwf pc
Ġdec ide
Ġphotop roduction
v m
03 2
Ġl ose
Ġlong itude
Ġenrich ed
Ġsupp ly
Ġinters ecting
Ġm ock
Ġacceler ator
Ġdis e
Ġred der
28 3
Ġinter ven
Ġmultiv ari
Ġbrough t
Ġdro pped
Ġf n
ch t
ill ary
Ġsu ble
Ġdip oles
l ity
Ġre es
Ġspir it
Ġrespons es
s um
!! !!
Ġrecog nition
Ġj un
val ent
Ġhoriz ons
Ġstream s
ric k
Ġdm rg
Ġt p
Ġstack ed
Ġad ds
Ġiniti ated
Ġq m
it able
Ġ2 13
Ġ2 09
Ġblu er
Ġre jected
Ġstretch ed
Ġlamb da
le m
re ads
Ġpseud og
im etric
Ġfar aday
Ġredsh ifted
mod ules
ival ent
Ġall en
Ġhel ps
Ġnon commut
Ġ13 3
Ġv ide
02 7
il inear
Ġno tions
Ġdirection al
Ġoccup y
Ġfl ash
d w
n ett
Ġhi pp
Ġde bye
Ġradi ated
n on
it o
Ġshar ply
Ġsch neider
Ġpur s
Ġremain ed
Ġjo ining
Ġsubm ill
a ign
Ġtop ics
Ġcool er
Ġd yn
Ġre def
Ġchar g
Ġh our
Ġbr ings
Ġje ans
Ġsummar izes
r ator
Ġb m
Ġisotop y
e h
yc omb
Ġgr ass
Ġsystematic s
Ġroot ed
Ġro che
or ption
Ġoct ober
el a
Ġsim ons
Ġdis ent
Ġcap ability
Ġimplic ation
Ġpy th
Ġfoli ation
Ġso b
at us
Ġintui tively
u w
Ġo iii
Ġlas ers
u ki
wor ds
Ġinhom ogeneity
Ġra ised
ge ometric
ac l
Ġs sc
Ġpers istence
Ġmo on
Ġsur ger
Ġrestric ting
Ġevid ently
Ġtil ing
ag ing
Ġ2 04
Ġmill imeter
ac c
Ġocc as
q r
Ġexam ination
, ",
Ġp ks
Ġsuper sc
Ġcephe ids
mas sive
ed y
Ġindic ators
Ġreplic a
Ġcapac it
Ġlens ed
Ġdeceler ation
enti st
Ġlifsh itz
Ġf cc
Ġadv ection
Ġcos ine
Ġextract ing
Ġh g
th is
Ġhome omorphism
ro ll
Ġmonol ayer
j a
i able
Ġmonoch romatic
rest rial
Ġsubdi v
45 3
Ġfav our
Ġev ans
ci a
Ġ12 9
Ġn ights
Ġfir m
Ġcheck ing
Ġdisplac ed
Ġsmear ing
Ġexpand s
Ġk ob
Ġimag ine
Ġattem pted
Ġmon t
Ġgener ations
Ġanne aling
Ġd q
Ġestablish ing
Ġun aff
Ġorthogon ality
Ġapp ar
12 4
Ġsp ars
therm al
Ġl ll
Ġkeep s
Ġf ano
Ġcas c
Ġmagnetic ally
l ich
Ġpion e
Ġ2 17
ant om
Ġrece ives
Ġsept ember
st on
Ġf ission
i pp
Ġf ok
Ġ8 00
Ġprogramm e
Ġg ains
Ġj ud
Ġe pid
Ġoptim ize
o ys
Ġm ips
Ġpow ered
Ġdeg ra
Ġl sp
Ġobservation ally
Ġv og
Ġameric an
Ġfrust rated
zz i
arg ed
hol tz
Ġmon omers
Ġirresp ective
Ġtri ed
Ġl iving
Ġhy d
Ġe ve
phot on
Ġunaff ected
Ġthe o
02 8
Ġdec ember
Ġsuperp otential
reg ular
Ġsinus oidal
Ġz o
Ġlut tinger
Ġexcit ing
Ġcritical ity
Ġex oplan
Ġeigen function
Ġspin ning
Ġperiod ically
Ġexcit ons
Ġveh ic
sp in
i vers
Ġt uc
Ġnova e
Ġfrust ration
Ġantifer romagn
Ġf un
Ġn ond
Ġdisagre ement
Ġemit ters
Ġp w
13 0
Ġque ue
Ġf am
Ġinser t
Ġsens ors
m ed
Ġg pa
Ġcoord ination
Ġjan uary
Ġre form
Ġsy mmetri
z es
Ġs es
Ġcooper ation
Ġtermin ology
in f
Ġutil izing
Ġvac ancy
Ġblu esh
Ġpur ity
d el
05 0
Ġfire ball
Ġc ot
Ġph antom
Ġund et
Ġhone ycomb
Ġdouble ts
Ġori on
Ġmagneti sm
Ġrep eti
ra e
Ġlong est
u ous
em pl
03 4
Ġis oph
Ġmean while
us ed
Ġh es
: :
Ġvari ants
Ġinst ructive
Ġexp osed
Ġfix es
Ġlay ered
Ġ17 5
Ġw s
Ġmut ation
iz ers
ac ial
em p
Ġval le
Ġequ ator
Ġempir ically
tiv eness
Ġregular ized
Ġconject ured
Ġm us
Ġb id
Ġrepro ducing
Ġmonodrom y
Ġoct et
conn ected
parti te
Ġm h
Ġpo sitively
Ġthermal ization
t able
Ġb g
ni k
Ġvl bi
Ġ2 14
Ġ13 7
Ġdel t
Ġdiscreti zed
Ġscre en
Ġhence forth
Ġeu v
con dition
Ġdeut er
Ġcompens ated
Ġsub hal
Ġgravitation ally
Ġsemiconduct ors
Ġrever sible
Ġfe as
Ġm ller
Ġwave vector
n f
Ġd ich
Ġk t
Ġde ath
pot ent
Ġaccompl ished
Ġphy si
ish es
Ġcamp aign
Ġsf rs
r an
Ġfr uit
c ritical
Ġview point
Ġa har
ob ser
Ġc ro
y d
Ġd h
Ġd ut
Ġinter galactic
Ġapproxim ating
Ġisochron es
n ew
Ġp ock
Ġac is
ole v
Ġin effici
Ġjo in
Ġmic ros
Ġsl ices
ist ration
Ġher a
ron t
erm ann
Ġteleport ation
Ġcharacter s
Ġorbit ing
t ration
Ġshort ly
Ġutil ize
Ġtransform ing
Ġk ub
ay ers
Ġk um
Ġquas ic
ag a
Ġnot able
Ġmultiple t
Ġcap abilities
Ġc km
Ġcont ributed
Ġfacilit ate
Ġa ware
Ġspac elike
ig ma
Ġ14 5
ting ale
Ġnon empty
Ġ, ,
Ġsuit ably
Ġfi bration
Ġd an
ogen esis
Ġstream ing
Ġtight ly
Ġl cccc
Ġcr y
Ġfortun ately
Ġmembers hip
Ġn w
lat tices
l umin
Ġw ds
Ġprot oplan
Ġmultivari ate
char ge
Ġin ev
k r
Ġsplitting s
Ġecon om
Ġstress es
Ġpseudog ap
Ġz ha
Ġreservoir s
Ġ2 75
Ġflow ing
Ġdevi ates
Ġmon omer
Ġvi bration
Ġenerge tically
m f
Ġgravit ating
Ġturn er
Ġch erenkov
Ġabund ant
Ġinter layer
Ġ13 1
Ġirre ver
on der
Ġcount able
u j
Ġw edge
ex c
Ġc z
Ġskyrm e
Ġdiff ering
am ples
Ġappar atus
bo ard
Ġster ile
Ġro les
Ġcp u
Ġelectro dynamics
Ġb rain
Ġstud ents
Ġexpl oring
Ġca ution
den ed
o is
8 14
Ġrepe ating
ve m
Ġv oids
p q
Ġtr act
Ġprinc eton
Ġh oc
Ġq i
Ġemer gent
Ġal i
Ġequ ilibri
ch el
Ġoccup ancy
Ġal le
Ġmill is
Ġimag ed
Ġimplement ing
Ġver tically
Ġan ch
en b
Ġcompens ate
Ġin hibit
Ġm un
Ġlo ading
Ġsegreg ation
Ġexchang es
Ġstrip es
Ġcompac tification
11 6
Ġbo hm
er ies
Ġjet p
Ġdef ic
Ġ5 25
Ġand re
un iform
Ġq mc
f ree
Ġprotot ype
Ġcommun ities
Ġenvelop es
Ġminim izes
Ġp ere
lo ad
ant ed
03 9
Ġfok ker
Ġ3 04
n c
Ġc el
Ġget ting
pect rum
Ġh un
12 1
Ġproblem atic
Ġcaus tic
Ġloc ked
13 2
Ġg g
03 7
Ġdraw ing
Ġstri pping
Ġachiev ing
22 2
Ġflo quet
st at
Ġli ve
Ġn ord
Ġh its
Ġres ist
ent er
Ġ17 0
Ġhom ogen
Ġconstitu ents
Ġsch ool
and e
Ġoverd ensity
ar ro
Ġexplan ations
Ġdoub ling
Ġisot ope
Ġcor ot
Ġmultipl ier
02 9
li ers
Ġneur on
k d
Ġob li
utrin o
el man
Ġevolution s
amp ed
Ġtrac ers
Ġp end
ator ies
Ġ2 07
Ġ14 7
iparti tion
ern er
ph y
Ġin versely
Ġkine tics
ish i
Ġneighb ours
Ġtun n
dec ay
Ġsur jective
Ġsynthes ized
Ġatt ribut
Ġestablish es
Ġvibr ations
c ut
Ġsuperimp osed
Ġfron ts
ag ed
Ġhelm holtz
Ġdisc ord
Ġresol ving
Ġter restrial
13 5
Ġequilibri a
Ġthermod ynamical
Ġpa ul
Ġpredic tive
Ġbian chi
Ġsuper massive
Ġincl ined
Ġr k
Ġincom m
Ġcircumst ances
Ġtun e
Ġa o
Ġst ore
Ġass isted
Ġautom atic
Ġexec ution
Ġc ab
Ġtransmit ter
Ġforth coming
Ġse lective
ph a
Ġparton ic
Ġpac s
] ),
Ġzh ou
Ġtim est
ere x
Ġe k
Ġmim o
Ġre id
Ġcon ical
Ġrem ember
s phere
Ġfund ing
Ġfl aring
Ġequ ipartition
Ġn el
li e
Ġclaim s
ech ter
Ġd or
Ġenc omp
ay a
Ġclass ic
Ġpoly akov
Ġe om
Ġblock ing
Ġa w
ot al
Ġoverl aps
Ġcommut ator
et e
Ġlabel ing
Ġha y
Ġd z
Ġfol ded
Ġh p
as c
Ġinsul ators
Ġ3 45
Ġis otropy
in k
Ġg inz
Ġencomp ass
Ġ15 5
Ġgravit on
Ġtrop ical
Ġunambigu ously
tr an
200 1
ing ly
Ġcr ack
ast ron
ub a
Ġdiscrimin ate
Ġsystem ic
Ġ19 68
as on
Ġhol onom
Ġ rid
Ġpermit tivity
Ġl g
Ġpol oidal
Ġinterfer ometric
Ġout liers
Ġalphab et
Ġtransl ated
Ġsub manifold
os able
Ġstrang eness
z ag
b n
Ġproject or
Ġsub jected
algeb ras
it ous
Ġend ing
Ġcoll oidal
Ġpar a
55 5
Ġm ri
Ġacad em
Ġconclu ding
Ġc ad
Ġampl ified
Ġcomp ositions
Ġanticip ated
Ġcylinder s
Ġs ic
Ġunder going
echan ical
Ġbo hr
Ġpositron s
Ġ4 25
ass o
Ġremin is
Ġt u
Ġdil ution
r n
Ġk on
c z
Ġan harmonic
Ġrem oves
ari an
Ġhyper geometric
Ġsoft ening
Ġpol l
rins ic
Ġpass ed
Ġginz burg
Ġtransl ate
Ġdiam onds
Ġgrad ual
Ġal bed
ug al
Ġim bal
Ġsnapsh ots
Ġconfirm ation
Ġc ul
Ġsal t
Ġexperi enced
Ġtherm o
Ġr im
Ġsch echter
g ap
12 7
Ġch ord
ole c
Ġresem ble
b ib
Ġ24 0
Ġexerc ise
Ġtransp aren
ak en
plan ar
Ġp ms
Ġoct ahed
Ġtw in
Ġultrac old
Ġcan ada
Ġi raf
Ġdemonst rating
Ġs ag
Ġj s
Ġresearch ers
13 6
Ġv b
Ġconcur rence
Ġgeneral izations
Ġproceed ing
il st
ail s
Ġw ra
Ġsaf ely
Ġhern quist
Ġbl ast
Ġdiffus ivity
stand ing
Ġinter acts
Ġaugment ed
z n
ire ct
Ġse x
Ġread y
Ġ13 4
Ġb uck
Ġme yer
Ġwork ed
Ġfruit ful
ich i
Ġgood s
03 6
Ġno vem
Ġsl iding
pher al
em er
Ġcut ting
Ġobserv es
Ġvirt ue
h ow
bl ock
Ġdec ided
ti ves
Ġrecur rent
Ġint ended
Ġinterf acial
Ġmonotonic ity
Ġnovem ber
oc c
Ġvari ances
Ġwh ilst
Ġparam etr
Ġt n
Ġconveni ently
Ġfe br
Ġresumm ation
Ġcollision less
Ġh ir
Ġsc ans
a ver
Ġadjac ency
Ġ3 35
Ġdim ers
Ġgre atest
uc id
Ġcl ust
Ġrev is
Ġsuper ior
Ġs rs
Ġcop per
2 45
Ġw kb
Ġ19 5
Ġreminis cent
Ġsugges tion
Ġent rop
ang er
ia o
p age
Ġlocal ity
Ġun id
Ġmanip ulation
Ġp ati
Ġdic ke
Ġf at
Ġdet ach
Ġm ang
Ġ14 3
Ġfa ith
Ġorigin s
im et
Ġdecomp ositions
Ġintui tion
h el
Ġinst all
Ġbel le
ak is
Ġ2 22
Ġcollap sed
Ġstem s
Ġ13 2
Ġel ucid
Ġmagnet ores
Ġmultipl icities
Ġmosa ic
Ġsimul ating
l aw
Ġtr ying
Ġdiag ramm
Ġcompati bility
l f
ab e
Ġsplit ter
ov ector
h ardt
Ġsl ot
p ack
Ġorient able
Ġfebr uary
h ard
Ġac quis
p ole
Ġp qcd
Ġoper ational
Ġcon verse
' -
Ġobst acle
Ġknow ing
em por
Ġeu ro
Ġ16 5
Ġapproach ed
Ġcircul ation
Ġ0 34
Ġloc k
Ġimped ance
Ġop tions
Ġsob olev
on y
Ġaperture s
Ġcy gn
Ġsp ans
Ġconvex ity
Ġdesc ent
val ue
Ġh ur
Ġh int
Ġfil tration
Ġtransi ents
Ġide ally
inter acting
Ġbroad ened
Ġgeneral ised
Ġ13 6
Ġmc mc
Ġog le
Ġm uk
Ġupd ates
lin ations
Ġcli que
Ġh ip
Ġperm an
Ġconstruc tive
Ġt y
Ġk ohn
Ġiter ated
Ġrich ards
Ġquint ess
Ġre side
Ġhot ter
Ġbootstra p
Ġp de
Ġkey words
Ġperturb atively
03 1
Ġdeple ted
Ġconsum ption
Ġconver ging
Ġdefic it
Ġcompres sibility
Ġar n
deg ener
Ġnormal ised
par am
Ġd la
Ġcondition ed
Ġimplement ations
m d
ann on
Ġt ile
Ġsti s
11 7
Ġp iv
Ġext rinsic
Ġspectroscop ically
Ġlith ium
gra de
Ġwe alth
Ġ7 00
Ġb k
Ġtak ah
Ġfu zz
Ġ4 50
h es
Ġac tivities
Ġgo als
Ġa er
Ġcapacit ance
Ġsubtr act
f ram
Ġtop ologies
Ġfac et
Ġsusp ension
Ġlightcur ve
Ġk enn
Ġban ach
st ates
Ġk i
04 5
Ġuni ver
Ġemphas is
ur us
Ġperm its
Ġenh ances
Ġc ass
Ġunderestim ated
03 8
k ms
Ġst m
Ġsubstit uted
Ġfro b
Ġsynchron ized
Ġtra v
Ġth read
Ġ2 24
il ateral
ore m
u v
Ġcommut ing
Ġzha o
Ġinterpret ations
r ase
Ġsnapsh ot
Ġcentr if
Ġber t
d et
Ġresid ues
Ġ3 37
ay ashi
Ġ00 1
Ġretain ed
Ġre pl
Ġmid plane
Ġconv inc
com plex
Ġlatit udes
Ġle w
Ġmach ines
Ġbas el
Ġinterp olating
Ġul irgs
Ġc x
Ġtransl ations
Ġfu el
Ġskyrm ion
Ġhom ogeneity
Ġdepic ts
Ġk och
Ġoptim ality
Ġcon ce
Ġop e
ici ally
Ġgerman y
m hz
ro ids
Ġnoncommut ative
Ġelimin ating
Ġnorm s
Ġtransparen cy
esc ent
mer sion
Ġindic ations
i qu
Ġbilli ard
Ġt am
c ase
on ium
ian o
Ġsim on
Ġcomput es
p ace
e le
Ġout ermost
Ġcaus ality
em ission
Ġnon interacting
Ġprogres sively
Ġconc aten
Ġs le
Ġitem s
Ġflatten ing
Ġnar ayan
Ġpredic ting
Ġacquis ition
Ġcust om
onal d
f iel
Ġelectron ics
Ġdepend ency
par ameter
Ġdemonst ration
04 0
Ġprot o
son ic
Ġp ile
Ġpresent ing
Ġaim s
Ġvolati lity
Ġplanetes imals
Ġau au
Ġfail ed
Ġimp oses
Ġb ist
Ġdr ude
Ġad min
Ġcorrel ate
Ġed m
Ġidentif ies
Ġquar ter
Ġshall ower
Ġlow ered
Ġarch ival
Ġequilib ration
f n
d p
Ġperi pheral
17 0
q n
Ġdm ft
et te
Ġ2 29
Ġw iley
Ġgain ed
Ġleak age
Ġ25 6
Ġsh en
iss ner
Ġ3 05
Ġin her
Ġent ropic
d l
Ġchen g
Ġmet a
Ġsatur ates
Ġdeep ly
Ġcompr ises
Ġchar mon
Ġstraightforward ly
Ġre jection
Ġbr un
Ġq pos
Ġcol le
Ġm ond
Ġpart ners
Ġug c
arc os
Ġmic ron
Ġn il
Ġcub es
Ġcumul ant
Ġmulti f
Ġconcept ual
Ġ3 15
11 8
Ġhard ware
22 0
Ġpublic ations
3 26
Ġevap or
Ġexpress ing
Ġ0 24
Ġe e
Ġcl aus
04 4
Ġcollap ses
Ġpref erence
Ġdest ination
Ġh ers
Ġc si
Ġ3 39
Ġmot or
Ġzig zag
Ġwf c
Ġpoint wise
Ġg ab
Ġequ ivariant
Ġappreci able
Ġspin ors
Ġconver ged
Ġk ne
2 05
Ġfrequ ent
Ġacqui res
Ġsees aw
Ġbim odal
Ġvalid ation
g m
Ġglass es
Ġs end
Ġm ant
Ġbud get
par allel
Ġp ear
Ġun av
s in
Ġl ane
Ġoh mic
Ġor ange
Ġint ensive
Ġsurger y
Ġ3 65
Ġnam bu
Ġgeneral izes
Ġg el
Ġb ed
ent a
Ġom ega
Ġendow ed
Ġfrob enius
ec omp
Ġgaussian ity
Ġfl atter
Ġform at
ann ier
Ġcoun ted
Ġgaug ino
Ġaltern ate
Ġcontr acting
Ġlangu ages
Ġh w
ra tive
Ġadjus ting
Ġspik es
Ġrigor ously
Ġhipp arcos
Ġw t
Ġcar l
Ġsh annon
c os
Ġly rae
25 0
Ġr at
Ġtr ick
Ġclust ered
Ġt ad
Ġdraw back
upl es
ol o
Ġact a
Ġwa als
Ġq r
Ġeig ens
Ġterm ination
Ġ19 67
Ġlind bl
m ulti
Ġo t
Ġ3 23
Ġpar sec
z el
Ġcumul ants
Ġmer ged
Ġreco vers
Ġchar t
)- -(
Ġhome omorphic
Ġc sm
aw ay
bre vi
Ġavoid s
Ġsing ap
Ġconflic t
cur rent
Ġess ence
Ġtet rag
00 01
Ġactiv ated
Ġinn ov
Ġde als
Ġq ds
Ġpro l
bo x
Ġassoci ations
ous e
Ġl w
Ġsmooth ness
11 9
Ġshe af
Ġpenal ty
Ġsti r
Ġfeas ibility
Ġv es
200 7
Ġfac ets
Ġdistinguish ing
Ġb end
Ġtran sitive
Ġdrople ts
ent y
Ġab brevi
Ġpseudop otential
Ġy i
Ġfam ous
u ing
Ġsubmill imeter
Ġastero ids
sc attering
Ġis ra
Ġg ol
2 12
Ġcheck s
oul li
re en
Ġsimpl ifying
Ġdegener acies
Ġherm ite
Ġbound ing
m i
Ġunderes timate
ic ti
Ġpers ist
Ġs od
Ġ3 75
Ġorigin ated
Ġcollim ated
ans en
ar u
Ġcl ark
Ġinterfer ometry
Ġcent ury
Ġiter atively
pe z
Ġcombin ator
Ġkau ff
Ġglu ing
Ġel imination
j an
Ġrev ised
Ġox ide
Ġann ual
Ġ2 27
ill er
Ġun n
Ġprotost ellar
Ġwes tern
Ġuh ec
Ġdisc arded
Ġmod ifies
mes on
Ġautom aton
Ġ2 19
Ġrefer ring
Ġstop s
col or
e tical
yn ch
Ġsun spot
Ġrus sian
Ġk or
Ġlogar ithms
Ġdi verse
ter ms
Ġ2 16
Ġincorpor ates
Ġdi ameters
at rix
Ġpo ur
Ġsingap ore
Ġ19 66
Ġerr atum
is ch
4 00
rin k
Ġentrop ies
Ġp ore
Ġparad ox
Ġglu ino
Ġgen es
Ġmonop oles
en a
Ġ2 99
Ġw annier
Ġh im
Ġi w
Ġstabil ize
k ii
Ġlogarithm ically
Ġs x
Ġ4 05
ate gory
Ġinfall ing
Ġplac ing
Ġdiagnos tics
d am
Ġs izable
Ġschedul ing
Ġviol ate
Ġ2 33
Ġinterch ange
Ġvi i
Ġa ward
Ġma ppings
Ġcart an
Ġsuc ceed
Ġ2 95
d z
Ġidentif ications
os hi
Ġbin ning
n ucle
og ether
Ġram p
Ġexp ensive
Ġtun able
Ġintegra bility
ra w
av a
Ġt rough
Ġsevere ly
Ġmat sub
Ġfr ank
Ġpre m
Ġcr s
Ġs el
Ġ14 8
Ġproportion ality
Ġg od
Ġdes er
Ġld os
ag o
Ġs ab
Ġpers ists
Ġminor ity
y i
Ġpolar iton
Ġpri ors
pl anes
ah n
Ġ0 35
Ġstri ps
ak u
Ġis oscalar
Ġshrin k
Ġm cl
c f
Ġ19 64
l an
in dependent
it ored
Ġsuper cell
Ġbern oulli
Ġf ov
Ġtri axial
fig ure
Ġ3 07
Ġacadem y
Ġal ma
Ġinv is
Ġpin ned
Ġna vier
Ġsuff ers
ig g
Ġs ax
Ġle x
Ġbu ffer
ch em
Ġpropos als
Ġre ducible
Ġsh im
Ġmon itored
Ġk en
Ġtransf ers
Ġeuler ian
Ġ. [
ur ation
Ġtetrag onal
Ġbl ank
Ġc ited
Ġ19 3
13 3
Ġinf ected
Ġ19 65
sing ular
Ġoscill ates
Ġ14 9
Ġorgan ic
Ġlb gs
can onical
Ġw n
Ġquintess ence
Ġ15 7
he imer
Ġspecific ation
Ġh co
Ġli p
g b
Ġequ ip
bh s
Ġmod ifying
ost er
Ġis ometric
g h
ac s
Ġposition al
Ġant ine
Ġb uch
Ġme ets
Ġmaxim izing
Ġcomp rom
Ġv en
Ġe ik
Ġdeb ate
Ġeclips ing
Ġarp es
Ġ25 3
Ġaggreg ate
Ġbr u
Ġs ss
Ġgraph ite
Ġsci entist
Ġub iqu
r f
Ġeff ec
Ġsuppress es
au ber
o tion
Ġb ank
Ġexch anged
Ġperm e
Ġmatsub ara
Ġc ach
ver tex
Ġvl t
Ġfr w
Ġ13 9
Ġst re
ivari ate
Ġmagnetores istance
ew ski
Ġsubs ample
Ġincomm ensurate
15 8
Ġ2 31
Ġillumin ated
Ġpro sp
o ly
Ġsuper sonic
Ġt iles
Ġbl ob
06 0
Ġdisloc ation
Ġillumin ation
10 38
Ġtom ography
is ations
Ġdecon v
Ġjoint ly
Ġber ger
st en
ue z
Ġpa ren
Ġis olation
Ġunambigu ous
Ġpolar izability
Ġtan aka
Ġmaintain ing
Ġ iz
structure s
Ġecc entr
Ġflex ibility
l m
ts ch
Ġpuls ations
Ġj oh
Ġprop ositions
Ġv iz
Ġw el
Ġbre ath
Ġis om
Ġunder d
Ġcharacter ised
Ġdens er
Ġcontroll er
Ġh k
Ġstand ards
Ġdemand ing
Ġba o
Ġbl and
Ġ27 3
Ġh ess
w est
Ġal tered
es e
Ġ4 47
Ġeccentr icities
Ġis ovector
Ġmicroscop y
Ġk w
Ġsign ed
irect ed
d ot
Ġdi e
Ġfav ors
Ġph ill
Ġall oys
Ġtakah ashi
Ġi au
15 5
Ġkenn ic
Ġlag s
Ġa e
is p
Ġtr uth
Ġredist ribution
t op
ac ities
Ġzh u
Ġp ir
Ġcent red
li a
Ġfe el
Ġys os
Ġrestric tive
res ults
Ġs ending
Ġpa ired
Ġinduc tive
Ġpl anned
Ġdifferenti ating
Ġind ust
Ġalt ogether
Ġoff ice
Ġ8 50
Ġrestric ts
Ġdiscontinu ities
Ġzen ith
Ġk os
Ġ0 44
Ġh j
Ġtor ques
Ġ2 65
Ġvide o
Ġc cs
Ġ3 33
Ġsen si
Ġser ver
Ġchar ging
Ġnon degener
Ġadiabatic ally
Ġdec o
c b
j o
Ġmanag ement
Ġspher oid
200 4
Ġp on
Ġprecurs or
Ġex cep
Ġast er
Ġdep olar
Ġjustif y
Ġen orm
yp es
Ġalbed o
Ġcompres sible
Ġsubs ections
Ġrem ote
Ġun im
q l
Ġkennic utt
Ġvac ancies
Ġf k
z h
Ġstabil izer
plic es
Ġa h
Ġ16 3
Ġmultiple ts
Ġcontamin ated
e u
14 4
Ġaut onom
100 7
Ġcombin es
ch ange
ya ev
v able
lit ch
Ġmanifest ation
Ġnon thermal
Ġex empl
Ġw erner
Ġsub algebra
Ġdav ies
Ġdeg rad
Ġampl ifier
r ance
Ġcr yp
Ġ15 4
Ġpos et
z w
Ġb acter
an al
Ġst ressed
ate ver
200 2
Ġdis reg
Ġblaz ar
Ġspher oidal
Ġdiscr imination
Ġgrass mann
re cht
Ġferromagn et
Ġdo f
Ġcircular ly
Ġth z
Ġvor on
Ġros en
as ov
Ġq p
Ġ18 5
Ġwh atever
Ġneighbour ing
Ġminim ally
ott o
22 3
Ġpolar ity
Ġunder t
Ġcomm ensurate
Ġ14 1
Ġqu iver
Ġim mers
Ġq w
Ġdise ase
ev a
Ġk om
Ġshap iro
Ġavail ability
Ġtract able
Ġal umin
Ġf os
Ġtetrahed ron
Ġelastic ity
Ġcanc els
2 07
Ġost ri
li k
Ġeg ret
Ġastero id
Ġover sh
Ġnormal isation
Ġi e
Ġsecond oftwo
Ġmet am
Ġdesc end
Ġgaussian s
Ġc ay
Ġaggreg ation
Ġaccommod ate
x n
Ġpart ner
Ġrepro cess
Ġcod ed
Ġsuscepti ble
Ġrecogn ize
Ġanti pro
Ġinstit ution
Ġstim ulated
Ġaim ed
Ġrece ivers
Ġ18 9
Ġcm ds
Ġro uting
Ġst ere
04 3
Ġdec oder
Ġf inger
Ġtarget ed
at ern
Ġc vs
Ġal titude
Ġdiscuss es
Ġpot ts
Ġflu ence
Ġbreak up
cl assical
Ġpeters on
Ġostri ker
m ar
Ġb old
200 3
Ġnecess ity
ri er
Ġisra el
Ġm cs
Ġk ore
Ġdisappear ance
Ġren ew
Ġnanot ubes
Ġplot ting
Ġep r
Ġincomp ati
q q
Ġ2 37
Ġlig o
19 2
Ġterm ed
Ġinvok ed
j ections
m k
Ġnic ely
Ġthom son
Ġsd w
v ectors
Ġcl im
Ġd k
Ġprep are
) ],
12 9
Ġnan ost
Ġhes sian
Ġhod ge
04 2
r ically
Ġsw ap
Ġconform ally
Ġ3 27
Ġmodul ations
ose ism
Ġinterpre ting
Ġn ut
Ġoveres timate
Ġinac cur
Ġcont ex
Ġrecur sively
12 6
s ite
ti ous
Ġ2 36
Ġk ag
Ġincre ments
Ġcat astro
Ġto wer
Ġwave f
Ġprot ected
Ġlif ting
Ġsh i
Ġaug er
od yne
h f
Ġpref ix
Ġdis p
Ġprotost ars
Ġartif acts
pro f
Ġag ing
Ġdisturb ance
ht ml
Ġst ern
Ġrot ates
Ġafterglow s
Ġ15 3
Ġimper fect
Ġra ises
ar th
ac o
Ġco il
Ġbar red
d rop
Ġdisc ard
Ġsitu ated
05 2
Ġrest ored
Ġdam age
Ġmon o
Ġenab led
Ġcentrif ugal
Ġ17 3
Ġit iner
the orem
Ġtrans actions
Ġrepeated ly
Ġgal act
Ġbl ended
Ġfactor ized
05 5
Ġbifurc ations
Ġh eck
Ġimmers ed
i ent
Ġ14 4
p f
Ġ9 00
200 6
sh ell
Ġembedding s
Ġcollabor ations
Ġf ra
Ġf ly
Ġout per
Ġphill ips
Ġj ob
Ġ2 06
k le
Ġund irected
Ġul timate
Ġerup tion
Ġ12 00
Ġsubsc ripts
ze k
if er
Ġt on
Ġcl iff
Ġideal ized
Ġmat roid
Ġm cd
Ġbu oy
Ġsrs ic
Ġus age
Ġavalanch e
g in
Ġref raction
Ġsec ret
Ġcharmon ium
14 3
Ġg athered
Ġf esh
al i
ok a
Ġastrom etry
Ġhighlight ed
Ġk un
gam ma
m t
Ġsc r
Ġartif act
Ġclump y
Ġet a
Ġj ar
04 8
Ġa as
ap es
Ġspect ator
Ġif x
Ġhad am
flu x
olec ular
Ġ13 8
Ġgl auber
Ġwave form
Ġw en
Ġg ot
Ġscintill ation
Ġbre it
ats u
Ġcomput ers
Ġspecif ying
Ġmoun ted
Ġsubst rates
j n
Ġher b
Ġ2 97
Ġ15 8
Ġ27 0
Ġcontex ts
Ġsk in
Ġd ick
Ġcalib rations
Ġth ing
Ġim pl
Ġlindbl ad
Ġfesh bach
Ġemit ter
ed u
14 5
i as
Ġellipso id
Ġ14 2
Ġ19 2
Ġsketch ed
Ġ3 22
Ġs id
Ġw ag
res on
Ġpolyg ons
Ġri p
Ġtunn elling
Ġconjug acy
Ġp q
Ġ2 03
201 0
ow itz
17 5
ugh lin
Ġreg ister
Ġeffec tiveness
Ġref lectivity
Ġsupersc ript
ysh ev
Ġincomple teness
Ġamong st
Ġs ong
Ġobsc uration
Ġmonomial s
Ġlh s
fiel ds
ub lish
Ġshadow ing
Ġt v
Ġcephe id
Ġg litch
Ġstri pped
Ġ2 11
har a
Ġa side
Ġcam e
Ġls b
Ġderiv ations
Ġartif icially
bas is
Ġan ton
t f
Ġtreat ments
pic ture
Ġmet e
Ġf use
fre qu
Ġl en
Ġtechn ologies
Ġ2 30
Ġre ques
ian s
Ġparticip ating
a el
Ġbec k
d om
Ġtab ulated
Ġnormal ize
Ġa ip
Ġworth while
Ġcontinu ing
Ġsymmetr ical
Ġlat ent
Ġreveal ing
van ishing
Ġps d
t n
Ġgal ile
Ġjustif ication
Ġ16 7
ch en
Ġfe b
Ġchrom ospheric
Ġadapt ation
Ġx rt
Ġd j
Ġarg on
Ġhyper graph
ini tion
Ġacknowled ged
Ġconstrain s
Ġlack ing
Ġeas tern
Ġl un
Ġ2 34
Ġhadam ard
Ġcontr ac
Ġ3 19
Ġferm il
Ġ16 1
Ġk lu
Ġshiel ding
Ġw ick
Ġw im
ah l
Ġsil ver
Ġ0 45
erm ion
h and
Ġcle o
Ġs j
Ġw ake
Ġpseud ospin
up ta
ny i
first oftwo
Ġe it
Ġconven tions
Ġreduc tions
Ġdetermin ants
Ġdi ps
Ġalgebra ically
m r
Ġ18 3
Ġa le
ap tic
Ġex er
Ġdri ver
Ġhypoth etical
Ġassess ment
0000 00
ro g
Ġco b
ost at
Ġcomp ress
Ġfren k
ater ial
Ġl ub
om echanical
13 4
Ġt um
ut ter
Ġmet rop
Ġspec ulate
Ġpuzz le
Ġsuper cluster
Ġla ure
Ġsm eared
ang ling
Ġattr actors
Ġ3 30
Ġre actor
Ġ17 1
Ġfree zing
Ġcompr ising
Ġir r
Ġgun n
Ġground s
if ert
Ġnn lo
Ġmis sed
an ol
Ġ3 55
201 1
Ġn os
Ġneg ativity
Ġmultip oles
ublish ed
Ġmar tingale
Ġthous ands
esc u
c p
14 7
Ġrandom ized
Ġbay es
Ġsequ el
Ġac m
Ġlif ted
Ġquadr ant
Ġd ans
Ġle o
s l
Ġgravit ino
201 2
im etry
Ġdiv ides
Ġadsor bed
Ġin ject
Ġ3 57
Ġneg atively
Ġcosm os
Ġdiscrimin ant
m yr
Ġch ak
Ġrad ical
i res
Ġc ave
Ġsing ly
Ġdest abil
Ġ25 5
Ġcol lecting
Ġredund ant
Ġspin less
Ġundet ected
f il
Ġo ce
Ġrec ords
Ġgalact ocentric
h ere
ab i
Ġg x
Ġ17 7
Ġassign ing
Ġma j
Ġp od
Ġas h
Ġdiagonal ized
Ġ3 09
Ġe a
Ġcr ude
com put
w all
Ġde hn
Ġcontradic t
Ġs it
ul ly
Ġelement al
Ġreturn ing
res sive
Ġt ack
Ġlm xbs
Ġsp line
Ġk an
Ġnon vanishing
Ġd las
Ġexperi ences
Ġunf olding
Ġdig raph
Ġk atz
in ar
Ġrem ind
06 5
Ġnanopar ticles
as p
Ġdistinguish able
Ġoscill ate
Ġdeut sch
Ġgal ex
Ġconv olved
Ġpo ol
Ġenhance ments
Ġhere in
Ġestim ations
Ġb ah
Ġsubdiv ision
ur sion
Ġprim es
Ġroberts on
Ġim mersion
Ġh q
Ġinterfer ometers
Ġob late
13 8
Ġpas p
d ata
200 8
Ġcatalog ues
it ons
Ġformul ations
Ġnanost ructure
Ġ. ,
Ġsubgraph s
Ġf red
200 9
Ġtrig on
Ġc pt
ass er
Ġmaxim ization
Ġcentr ally
Ġbroad ly
Ġincons ist
Ġglue ball
Ġcall s
Ġswitch es
Ġ3 03
Ġ15 1
n r
Ġv ot
Ġgre edy
Ġunp ublished
Ġbe ads
Ġext r
Ġdissip ated
Ġord in
Ġheli ocentric
m or
Ġdefin itely
05 3
Ġco in
Ġlear ned
Ġis olate
Ġpor tions
Ġit aly
Ġkob ayashi
Ġdegrad ation
Ġw y
worth y
Ġrob inson
Ġcompeti tive
Ġlis a
Ġholonom y
Ġso fter
d h
Ġst one
Ġhers chel
Ġwe ather
j ee
Ġle gs
Ġpro late
Ġsun yaev
Ġl j
. -
Ġa ri
Ġch u
Ġsynchron ous
Ġre heating
Ġall oy
a ut
Ġuni axial
Ġl fs
ev en
Ġhypersur faces
Ġ27 9
Ġbi ology
och em
Ġseman tics
Ġeigen modes
Ġpartition ing
Ġautom ata
Ġal kal
Ġinter band
Ġsome how
16 5
Ġoptim ally
Ġm z
Ġpar ties
Ġ2 08
Ġr w
Ġquant a
ab el
Ġoverestim ated
ile pt
b ilities
Ġcharg ino
Ġdeco uple
Ġgar cia
Ġnondegener ate
le z
ac ci
Ġblock ade
Ġmand el
13 7
Ġscattering s
Ġch eb
Ġphys ic
06 4
Ġret ro
im age
st ring
Ġsa fe
Ġc ep
pa ir
Ġsu d
Ġ4 21
Ġacc ident
Ġansw ers
Ġillust rative
ts ev
Ġide als
Ġspac ings
oc ation
04 6
pro b
Ġescap ing
Ġes a
Ġadequ ately
Ġbat se
Ġqu atern
Ġcompil ed
Ġacceler ate
eterm ined
Ġ3 49
200 5
Ġexpress es
Ġperi astron
Ġs ul
Ġautom ated
Ġt ik
Ġinc linations
Ġf q
Ġdeuter ium
Ġp ie
Ġexc ursion
Ġloc ate
Ġde pl
Ġassemb led
Ġplas m
Ġenc ode
aff e
Ġsand ers
Ġ3 20
enc ing
Ġworm hole
Ġp k
Ġv v
Ġpen rose
Ġn iel
pher ical
id ity
Ġinstant ons
Ġdemand s
Ġepid emic
Ġwhere by
Ġc um
Ġh x
Ġse ifert
Ġrespect s
Ġmention ing
Ġ2 39
rep res
Ġhadron ization
3 01
Ġspars ity
tion al
val ued
Ġarri ves
Ġinvis ible
6 00
Ġecon omic
23 0
Ġop acities
Ġfu j
Ġ3 10
Ġep ic
ar is
Ġun equ
Ġstra tification
Ġcalib rate
Ġinv est
Ġ18 7
Ġscintill ator
Ġn elson
Ġ26 7
18 5
in ely
Ġsupplement ed
Ġeuro phys
b d
Ġnav arro
b p
ch ain
Ġnanot ube
Ġmagn ets
n ode
Ġsub band
Ġbas in
Ġconduct or
t ens
Ġele g
ew s
Ġkinematic ally
f inal
Ġ2 26
Ġbeg an
Ġp ds
Ġineffici ent
Ġsc o
Ġdro pping
Ġ0 75
Ġrein for
z k
us er
h ov
Ġdiagramm atic
Ġd rain
Ġaut omorphisms
Ġun e
ell ig
04 9
27 0
Ġt angle
Ġs on
Ġgu ided
Ġle ib
Ġapp end
Ġt io
Ġimbal ance
Ġmanifes ts
Ġcho oses
Ġp matrix
Ġsm a
u ate
Ġpump ed
Ġd ol
r yst
p op
Ġto l
su per
l ock
r ison
Ġfuzz y
Ġconv ol
Ġro c
l p
Ġcomput able
Ġexcep tions
m g
ot a
Ġautonom ous
Ġsl ater
c all
Ġ3 01
Ġi x
Ġindirect ly
Ġexcess es
Ġretri eval
Ġ2 28
Ġn ative
Ġro ds
er g
Ġtriple ts
Ġphoto ion
Ġd re
Ġcox eter
Ġph as
Ġper imeter
Ġdiag on
Ġalgorithm ic
Ġper t
Ġfocus es
Ġx n
Ġtri ples
[ ]
Ġs now
Ġsub class
Ġsuble ading
Ġdoub t
14 2
Ġcus ps
Ġcham bers
qu ant
Ġsugges tive
Ġdesign s
Ġrun away
Ġtoler ance
pl us
Ġbeam ing
Ġpush ed
ch o
pr ime
Ġcont ents
Ġ0 12
red ic
04 7
Ġz eld
ar m
st ep
ogen ic
co ol
Ġprior ity
Ġqu eries
yp ical
Ġphen ix
Ġis omorphisms
pro ble
ron e
Ġsch ur
Ġafter wards
Ġed ition
app a
Ġrotation ally
ti an
are ll
c ope
Ġhyper on
Ġrecon c
Ġin ducing
Ġ3 13
Ġunc onst
Ġps pc
Ġk y
Ġdirect or
lec tively
Ġsm ir
Ġy osh
ren ces
Ġbl ind
Ġmis al
Ġdi lepton
Ġrich ness
Ġhomotop ic
Ġh df
Ġ2 38
Ġirradi ated
o e
Ġe ph
le b
Ġplat form
Ġj eff
] ]-
Ġ3 29
Ġ5 12
Ġol ive
Ġcompil ation
Ġwet ting
Ġb ent
22 5
Ġann uli
Ġ0 15
Ġlast ly
Ġ2 12
Ġg ad
Ġrich er
Ġaltern atives
Ġa ur
Ġtra vers
Ġreson ators
Ġfor n
Ġ4 33
Ġprocess or
Ġsch u
Ġap ex
a ud
Ġpicture s
Ġic ec
w f
Ġc es
Ġcomplic ations
Ġtag ged
Ġh on
Ġaxiom s
Ġoper ates
Ġhistor ical
Ġg k
Ġattain s
Ġtr ic
eterm in
Ġda ugh
2 16
Ġ3 000
Ġlo ose
Ġsub lattices
ve y
Ġk re
Ġco ars
Ġclos ing
Ġphoto emission
Ġf el
Ġkel vin
Ġprotoplan etary
Ġt ill
Ġg ga
Ġl ifts
Ġwarp ed
Ġcruc ially
Ġover den
as tically
Ġcodew ord
Ġe ase
Ġ4 38
Ġbar t
Ġelabor ate
Ġstra tified
Ġplay ing
Ġ5 01
Ġassign ments
Ġwavegu ides
Ġk ut
Ġoversh oot
ign ific
Ġinterven ing
ay ama
Ġm q
Ġwave pack
Ġskew ness
Ġp is
Ġintern et
Ġsh am
cr yst
s ation
Ġswe pt
Ġk ane
Ġperman ent
3 25
Ġirrever sible
Ġphenomen ologically
Ġlate x
Ġpoisson ian
Ġb ill
Ġunconst rained
Ġs onic
im ple
row s
Ġfermil ab
Ġwhe eler
Ġb v
Ġyu an
Ġ19 60
Ġ16 9
omb ic
Ġha ir
Ġna ively
Ġdil uted
ram s
Ġcomp os
Ġdist inc
Ġt ub
Ġ4 36
l c
Ġmetrop olis
Ġunus ually
f ur
Ġfirst page
b und
Ġupd ating
Ġfundament ally
Ġvacu a
Ġl um
Ġ15 9
Ġ4 35
106 31
Ġicec ube
Ġsat urn
Ġpolyt ropic
en der
Ġk b
Ġmod al
Ġmicro canonical
Ġint ellig
Ġ4 15
Ġy e
Ġhl der
Ġsp ie
Ġsh a
Ġne pt
Ġn ed
Ġsmall ness
Ġfast est
Ġvoron oi
e ks
Ġsw im
Ġze us
ian i
Ġinterp ol
Ġglass y
Ġemer ged
Ġadjust ment
Ġitiner ant
Ġvis co
Ġam en
anes e
as a
Ġfilament ary
Ġlegend rian
Ġtrigger ing
Ġh ints
Ġfi br
ti um
Ġdeconf inement
Ġr is
Ġmem branes
Ġmul tim
Ġkum ar
co ordin
Ġsup plied
Ġdivis ors
Ġev an
pro duct
Ġt id
Ġp ra
Ġion isation
Ġob j
Ġum a
Ġ3 21
Ġappe aling
Ġun imp
Ġfa ult
Ġflat ness
Ġrenormal izable
06 3
Ġ28 0
al a
Ġ28 5
Ġhydro ph
Ġg erm
Ġnam es
l ot
ig e
Ġresis tive
form al
Ġphoto electron
Ġmar c
gi ant
45 0
Ġ3 31
Ġsurv ives
Ġ26 0
Ġnew man
Ġpen gu
Ġis oc
Ġsuper critical
Ġvl ba
Ġdisloc ations
Ġcho i
Ġhart mann
Ġ19 0
all ine
Ġ4 09
Ġtrig gers
Ġcompr ised
Ġsuz uki
Ġevery thing
os ov
Ġwr ight
Ġs ir
Ġbe aring
Ġcliff ord
Ġsch ro
Ġlightcur ves
Ġl ives
Ġpent ag
Ġinvok ing
Ġhol land
Ġt k
Ġpr ism
Ġbra un
Ġsom mer
Ġphil os
Ġferro electric
Ġcor ro
Ġsc uba
Ġtrav elling
j j
Ġ3 60
Ġexcit onic
], ,
Ġpyth ia
Ġrest oration
Ġ2 98
Ġ5 000
Ġwat son
i pping
Ġ, .
Ġji ang
3 07
Ġ3 48
13 1
Ġbasel ines
o on
ar ge
Ġsensi tivities
t m
Ġ4 000
hol m
Ġcryp t
r ally
Ġtri als
05 4
Ġmultipl iers
]) .,
Ġbab ar
10 88
Ġvis it
Ġdf g
Ġambigu ous
de ev
Ġprosp ects
Ġmulti ples
Ġn eck
Ġlaunch ed
Ġadmin istration
or h
con i
si f
sil on
Ġcongru ence
Ġw c
ad vant
Ġro pe
Ġminim izer
Ġmillis econd
Ġl id
ra p
Ġ urb
13 9
Ġwh ence
Ġgu iding
Ġany thing
Ġprotost ar
Ġsuper h
Ġloren z
em i
Ġcompar atively
Ġtach yon
Ġ24 7
Ġfranc isco
Ġsingle ts
ami ok
Ġearl iest
Ġv r
Ġbluesh ifted
m eg
b one
im an
Ġspec ially
org ab
2 10
Ġindex es
Ġ2 18
Ġb cc
Ġto k
Ġsolit ary
Ġbeh aved
Ġenab ling
Ġse lects
Ġme ant
Ġmat th
Ġsqu id
Ġretri eved
Ġm st
Ġdisrup ted
Ġoccas ion
Ġdis advant
Ġenerge tics
Ġdec or
sy m
Ġpolyt opes
Ġenl arged
t c
Ġapproxim ates
an aly
Ġy au
Ġd ord
19 5
Ġ26 3
Ġelong ation
ys is
Ġnon classical
Ġextrap olate
Ġbar nes
Ġwi ener
Ġtransp orted
eren tial
ib o
ell ations
Ġab c
Ġnak ed
Ġp ain
id ist
Ġzeld ovich
Ġthous and
Ġq n
Ġisochron e
Ġred dened
Ġsem ilept
Ġg rom
si ze
Ġ3 36
Ġ18 1
qu bit
Ġappro x
r ight
Ġk ap
Ġf ern
Ġbranch ed
Ġless er
n ick
par ticles
Ġdelocal ized
m agnetic
Ġsm gs
Ġmi tig
al istic
Ġenorm ous
Ġcom et
Ġz r
Ġsmir nov
Ġmer it
y clic
Ġsto pped
Ġenti ties
Ġd rell
Ġfin er
Ġsucces sively
Ġ3 47
Ġcompr ise
ver si
Ġ ue
Ġbelie f
ha w
Ġ2 02
Ġar ticles
Ġmultiple x
Ġboost ed
ov sk
Ġp rices
Ġ19 63
Ġco gn
Ġsc ott
Ġ28 7
are r
Ġ3 17
Ġrank ing
ynch ron
Ġis ob
Ġ19 62
Ġloc king
Ġlinear ization
Ġdai ly
Ġra in
Ġfl ips
c ross
Ġassoci ative
Ġinterp olated
Ġka iser
d u
Ġ4 23
Ġdepl oy
Ġzo om
Ġnon singular
Ġpor ous
Ġubiqu itous
Ġmagnet ar
Ġs nia
11 11
Ġside band
Ġdiver ging
ignific ant
Ġimpul se
Ġturn over
Ġsegment ation
Ġt ar
Ġ3 99
04 1
Ġ17 9
ul um
Ġta uri
Ġrewr iting
gener al
Ġk alu
Ġpar ker
Ġka ons
Ġkron ecker
ef ined
j e
Ġsig m
Ġferromagn etism
Ġf ft
Ġcor on
n b
equ ation
Ġstrand s
p re
Ġtrans iting
Ġreturn ed
Ġfaith ful
Ġmulti dimensional
Ġsymbol ic
Ġimp acts
Ġincl usions
Ġmc g
op tim
Ġlie b
Ġc q
Ġmj d
Ġoce an
Ġsubject s
Ġexc ite
Ġph d
un gs
Ġsemilept onic
c ons
equ ivariant
ix ed
Ġmor ris
Ġh ump
Ġper tain
Ġm ack
13 01
Ġ4 29
]- (
ba um
Ġnotic ing
Ġ17 8
Ġsymmetr ically
Ġcri tically
Ġsup rem
Ġv ill
Ġi k
out s
Ġdiffe omorphisms
Ġkub o
Ġmaxim ized
Ġr atch
Ġn ik
Ġbe pp
g al
Ġwave forms
Ġ26 9
Ġchrom atic
Ġh ut
Ġrec ording
Ġsetup s
ig en
Ġdest ructive
33 33
Ġ16 4
y ear
Ġdur ations
Ġevalu ations
Ġin active
Ġdisent angle
Ġcoex ist
Ġhand led
re ma
Ġheter ogeneity
Ġsp r
res ult
Ġenti ty
Ġklu wer
Ġk ul
Ġ4 07
f ol
Ġhel ix
Ġtrigon ometric
form ed
Ġla es
bos on
Ġpresc riptions
Ġ3 11
Ġconver ting
Ġquies cence
Ġt ied
Ġmin ute
Ġcap illary
Ġtransp ose
Ġnan oc
Ġent rance
19 0
Ġunit ed
25 3
Ġmaxim izes
Ġfab er
Ġmat s
ire ction
Ġspecif ies
Ġpro xy
Ġo v
Ġpow der
Ġinv oke
Ġbb n
Ġtra iling
ot z
Ġsp ent
Ġproject ing
Ġ5 65
201 3
05 6
Ġsub mm
b ell
Ġcos et
Ġse ism
Ġx is
Ġanne aled
Ġjam es
c ore
it ary
Ġaddress ing
ow icz
Ġno ises
Ġdel i
Ġpermit ted
sy stem
Ġt iss
Ġg ps
Ġph osph
Ġlos es
Ġderiv es
Ġmon oidal
Ġins ignificant
Ġniel sen
Ġn j
Ġtr ust
Ġ4 55
ort ant
Ġany more
Ġcontro versi
Ġl iv
Ġunav oid
Ġchak rab
ec m
Ġbre vity
Ġshrin ks
Ġresc attering
Ġcompact ly
Ġarray c
Ġd od
Ġsf h
Ġ16 2
08 0
nd ez
x j
Ġn k
Ġle ver
Ġwe ek
Ġdict ated
Ġt uple
Ġr ud
Ġemplo ys
Ġrev olution
Ġara a
w ich
Ġper ic
Ġn jl
Ġviol ations
l ights
r w
Ġfin ish
Ġnic mos
Ġens uring
idel berg
Ġ3 95
Ġ27 7
Ġinstrument ation
Ġepis odes
16 2
Ġ3 40
osc ale
Ġobserv atories
Ġdepic t
Ġcay ley
Ġe th
Ġincompati ble
Ġun w
lin ing
Ġaccompan ying
Ġrevers ing
Ġsuper b
l ength
Ġmultif ract
Ġunre alistic
Ġ16 8
Ġorient ational
or bed
Ġrm f
Ġe aves
ier i
Ġtable au
ere rs
sc aling
con ver
Ġproject ors
Ġsh ares
Ġcomm it
or th
Ġ3 26
ens on
ier ls
Ġclassif ications
Ġdifferenti ate
k har
yn ski
Ġpin ch
Ġm ec
Ġ28 1
Ġw onder
Ġgr iff
exp ansion
Ġergod icity
Ġh ugh
08 5
Ġheck man
Ġid em
n ot
Ġc av
Ġp itaev
06 2
Ġtechn ological
Ġk er
Ġge ophys
Ġ3 38
19 4
tr u
Ġkram ers
Ġv and
m ond
Ġhi res
b f
Ġad atom
Ġro ad
Ġeleg ant
Ġuniform ity
Ġfring e
Ġadvantage ous
Ġeph emer
Ġrepl aces
Ġtw enty
Ġvis ually
Ġeik onal
15 3
Ġwe bs
Ġhe idelberg
Ġbary cent
Ġobe ying
o ule
Ġac h
Ġbi om
cu o
or a
Ġ4 45
Ġtrans vers
po sitions
Ġbenef its
Ġback scattering
Ġk ov
Ġgeneral izing
Ġbon di
Ġobli que
re r
y t
Ġo ii
Ġsuper giant
Ġsus pect
Ġchrom osphere
Ġn ish
Ġunimp ortant
Ġmor i
occ up
Ġ14 6
amiok ande
Ġpath ways
Ġn ii
Ġs ach
ogram s
ster dam
p ul
Ġexp ense
Ġpar ty
Ġ3 44
Ġunp re
Ġprec ess
Ġt ur
Ġkin ks
Ġposition ed
Ġlaure nt
Ġf iz
Ġcrystall ographic
Ġattribut es
Ġdistinc tive
Ġm ell
ag i
Ġass istance
Ġro ck
Ġcasc ades
gra ded
Ġbim od
22 4
Ġ25 9
Ġ3 97
Ġem br
Ġj en
Ġele v
Ġoc cul
weight ed
Ġv he
Ġtrans its
n ell
cyc les
Ġam sterdam
s d
Ġdis h
Ġlook ed
Ġprop ulsion
ven tional
ur ic
mom ent
al id
Ġx te
Ġ3 24
Ġparticip ation
Ġgra ham
Ġ4 27
Ġem an
Ġsuscepti bilities
ampl ing
Ġcob ord
k es
ol sky
Ġy a
lo ok
Ġe isen
ac u
Ġle ader
Ġpe ierls
Ġ0 55
Ġdord recht
Ġth ro
Ġfunct ors
Ġmerid ional
Ġnormal izing
Ġ19 61
Ġo ph
Ġk j
Ġra ise
physrev a
entif ied
Ġa eron
Ġpers on
Ġuniver sities
Ġcontrac tible
14 6
Ġattach ment
p ix
Ġent hal
z picture
Ġw ants
Ġlatex math
15 4
Ġoptim izing
",,,, ,,
Ġbah call
b ra
Ġ19 1
t ree
Ġ17 2
Ġradio active
h igh
Ġscientist s
Ġj ensen
Ġ15 00
Ġevan escent
Ġsub process
Ġnote worthy
Ġparticip ants
Ġc k
Ġ5 11
ent al
Ġ35 1
Ġnak amura
Ġtr im
Ġm ik
Ġbl ending
Ġinf ection
Ġun obser
Ġplac ement
Ġsc ores
t urn
Ġunpre ced
eg er
Ġsatur ate
Ġbj ork
Ġsol en
Ġsch ul
l t
Ġ25 7
Ġmild ly
Ġlo os
Ġcons isted
Ġchand rase
st rm
14 9
Ġbland ford
Ġhigh lights
Ġbra z
Ġc ss
Ġe ft
23 2
acl uster
Ġm ari
Ġcollabor ators
Ġe is
Ġtradition ally
Ġcheb yshev
Ġmon oid
Ġp up
all a
Ġcoll ide
Ġl an
Ġbra king
Ġdis till
Ġseem ingly
Ġnanow ire
b m
lumin al
lab el
l r
Ġpropag ated
on ing
oy ama
Ġt ern
Ġ3 69
Ġgroup ed
Ġi ib
rect ed
h off
23 4
Ġinter cept
Ġj in
Ġ4 37
Ġmag enta
Ġcompens ation
com ple
Ġflatten ed
Ġsubs amples
Ġzh eng
Ġjack son
Ġac yclic
Ġequal ities
Ġtechn ically
Ġpartition ed
Ġhe art
Ġsignal ing
Ġst ef
Ġreal izing
Ġben nett
len eck
Ġtid ally
ers on
Ġj a
Ġh of
w al
in ner
im um
15 2
! -
Ġhol ding
Ġrectang les
Ġn od
me as
sp ots
Ġqu ote
Ġresi des
Ġresol vent
Ġmet er
Ġext rema
Ġwavef ront
Ġv c
22 7
Ġdisturb ed
ou x
Ġsh ib
se par
Ġ3 18
Ġexclu des
Ġarrang ements
bi us
Ġintermitt ent
eld ysh
r ast
Ġst aff
Ġp ose
en on
Ġn ash
op t
Ġ4 39
Ġchir p
Ġcompton ization
p rint
per t
Ġsec re
Ġunpreced ented
d im
Ġsumm and
Ġrare ly
Ġrecomm end
Ġcorrel ates
Ġhyper planes
Ġla z
Ġsat o
Ġvalu ation
Ġwo os
Ġaeron au
3 17
Ġmo h
Ġbott leneck
il ar
Ġfar ther
Ġwe eks
Ġ0 25
Ġphot oc
it ably
Ġbec ker
Ġintr acluster
der iv
Ġhyper c
Ġf eng
Ġf le
Ġre tr
Ġdecl ination
Ġtw ists
Ġmic rom
ti tial
Ġextrap ol
Ġ5 17
Ġmc ke
- ,
Ġst ations
Ġp eg
Ġdeal t
Ġamen able
Ġsh oul
form ing
ans ky
Ġcoherent ly
Ġfs r
Ġ2 21
Ġchild ren
er as
Ġ4 65
05 7
Ġview s
Ġbe ar
Ġsilic a
Ġz i
Ġwag ner
Ġforn ax
Ġcontr acted
integ ration
Ġadjust able
Ġpione ering
Ġ15 6
im ov
Ġsurv iving
Ġ15 2
Ġt ully
dist ribution
Ġperme ability
Ġwoos ley
ph eres
Ġ28 3
Ġtell er
ra o
Ġpitaev skii
ar cs
Ġgra ining
ol or
Ġsw a
ega ard
Ġviol ates
f ar
Ġins ets
Ġsuprem um
g t
Ġcomm ission
sh ock
Ġsp er
Ġdil ation
z r
sci ence
Ġvalid ate
h k
Ġ4 95
Ġflo ating
Ġnorm an
Ġbare ly
07 3
Ġmut ations
ant e
Ġre lying
Ġg is
Ġfe ii
Ġaggreg ates
Ġrout ines
Ġinter atomic
ist ered
23 6
Ġd up
ur face
Ġmy ers
Ġflo or
Ġfir ing
Ġrep t
Ġe y
Ġorth orh
Ġsyn aptic
amb da
) ].
n p
fram e
Ġpull back
Ġsumm er
Ġ35 3
Ġst au
ome ga
ett es
Ġjo ined
ale z
45 8
Ġretain ing
Ġp enc
2 02
Ġstabil izing
Ġaeronau tics
as y
Ġle h
ret t
ra de
w ig
Ġnon line
Ġmay be
Ġelimin ates
Ġsepar atrix
Ġk eldysh
Ġ37 9
Ġper se
14 1
ri p
Ġgem ini
ret o
Ġcombinator ics
on ia
Ġmaxwell ian
Ġchap man
Ġattack s
w ind
comp act
Ġcoll ins
Ġcon ic
Ġd ry
15 6
Ġrepeti tion
Ġx j
Ġfor sch
m orph
im m
16 3
08 4
Ġput s
integ ral
Ġsuz aku
Ġinters titial
Ġun related
Ġuncon ventional
Ġplug ging
Ġmas ked
Ġfad deev
Ġgar ca
om y
Ġp it
hed ral
Ġchandrase khar
Ġox ides
Ġwavenum bers
Ġellipso idal
Ġepis ode
Ġ28 8
Ġsil k
Ġis h
05 8
06 7
Ġcorro bor
Ġdi ode
15 9
Ġ16 6
Ġgood ness
Ġinv alid
wh el
Ġ4 75
Ġopen ed
os ax
Ġcontroll able
Ġout wards
physrev d
Ġx r
Ġind ecomp
Ġschwar tz
Ġcom pl
om ar
Ġhf b
et ter
Ġprec lu
Ġmatter s
kin son
Ġve ga
Ġdocum ent
Ġgold en
Ġhe egaard
Ġmulti layer
Ġ35 9
Ġover whel
al o
Ġsant os
Ġra ising
ac les
ful l
Ġhugh es
Ġtriang ulations
Ġpe e
Ġequ idist
Ġbe at
07 0
Ġp and
Ġdi jet
Ġenc odes
15 7
Ġb atch
Ġes p
Ġserv ices
Ġpengu in
Ġapj l
Ġv f
Ġpl ain
Ġbepp osax
ab und
Ġvisual ization
Ġsp ar
Ġnon loc
Ġam s
Ġreader s
Ġsch le
Ġgrom ov
Ġad ams
en ger
Ġconc ord
Ġrot or
Ġses sion
Ġgonz alez
Ġfabric ation
om on
Ġultr as
Ġalkal i
Ġo u
Ġsuff ice
Ġover head
Ġhal d
Ġ4 03
Ġunder g
Ġmich ael
Ġab er
dr ig
Ġge org
Ġgu o
Ġput ative
Ġhar ves
sh ep
Ġ37 7
e ke
Ġs sp
Ġellip ses
Ġrob ot
the ory
occup ied
Ġv ul
Ġre active
Ġ4 57
Ġbl end
Ġsem ide
Ġnumer ics
Ġ4 01
Ġstim ulating
oupl ed
Ġsen sitively
Ġdu plic
Ġ3 34
Ġ3 42
Ġsquark s
o il
Ġste idel
h oles
09 0
Ġsummar izing
Ġss ec
ecti ves
Ġtimest ep
al pha
Ġ5 35
Ġsc ar
Ġr he
Ġrun ge
Ġpm t
Ġcon vers
Ġ5 33
Ġmisal ignment
Ġlagrangian s
g aus
Ġpur ple
Ġfib res
Ġcap ital
Ġmot ors
ul ator
Ġresp ond
Ġx e
Ġsuper comput
Ġdefici ency
Ġanti parallel
Ġmars h
Ġbe ad
de p
ak s
Ġmi y
Ġor acle
Ġd ag
Ġ17 4
Ġge or
Ġmonot on
Ġmete or
Ġp el
Ġgr s
t uring
ec onds
Ġsim plices
Ġ5 39
Ġzero es
Ġrequ est
n an
pl it
Ġme x
Ġcalib rator
Ġf si
Ġsen sible
Ġdefici ent
Ġnept une
Ġo z
Ġpp m
ant on
Ġ18 8
Ġshu ff
ok i
Ġwhere in
Ġphysic ists
Ġthorough ly
Ġinev itably
b eck
Ġsuper lattice
wa velength
is i
Ġste ph
Ġhop kins
Ġnu v
Ġwas hing
oh y
Ġasc ribed
Ġh off
Ġgra ding
Ġ12 12
h at
Ġ3 67
22 1
Ġ37 0
Ġnew s
Ġ24 9
Ġfr an
16 6
Ġconvinc ing
irection al
Ġmicros cope
Ġdo e
06 6
ik awa
Ġd ms
Ġextrap olating
ener gies
Ġ5 45
Ġbl obs
Ġtre main
Ġcorrect ness
v d
Ġcomplic ation
Ġsod ium
Ġhexag on
g d
Ġany way
16 7
ob ic
Ġgal ois
cl ock
Ġvehic le
! (
ch l
ex pl
Ġsi am
ima jor
f ast
Ġech elle
Ġshrin king
Ġrend ers
te v
Ġst ew
Ġstar light
in dex
Ġoff ered
Ġsem imajor
Ġax ially
Ġsm m
kn ot
Ġback bone
Ġwork ers
Ġthermo electric
Ġnonline arities
Ġ17 6
Ġhor n
ach er
Ġnil potent
Ġ4 13
Ġpreferen tial
Ġhol low
Ġfound ations
05 1
14 8
Ġdich ot
j ets
Ġhit ting
ill o
mat rices
Ġst ur
Ġ3 28
Ġbl a
ane k
38 4
Ġorthorh ombic
Ġlog istic
ad di
Ġl ing
Ġ4 17
Ġ18 2
uc oule
08 3
Ġtremain e
Ġro drig
Ġcal abi
Ġm bh
Ġsing h
Ġcam eras
Ġseman tic
Ġa head
lim it
ad ays
Ġsection al
Ġfaint est
Ġsol ute
cha ft
09 5
ga ard
Ġprof ess
Ġtil ings
Ġv t
appro x
Ġre act
Ġwe i
Ġsub aru
Ġ18 4
Ġlew is
Ġl ax
appro xim
Ġcl ause
Ġcircum vent
Ġo i
Ġl enn
sm all
Ġgam m
Ġdiscover ies
Ġpost ulate
Ġscatt erers
07 6
Ġcost a
Ġfre eman
en heimer
Ġcomp elling
Ġcan onically
Ġhald ane
Ġcontroversi al
Ġac tively
Ġtag ging
Ġfor d
Ġcan tor
Ġtra ding
Ġinstall ed
11 01
Ġdefini tive
bor n
Ġcad ence
Ġopt omechanical
Ġta urus
( )(
Ġs de
Ġep it
Ġhelp ed
Ġextra ordin
Ġ3 43
Ġencour aging
ron ic
Ġstic k
z t
Ġha ar
Ġsuperp osed
Ġn ss
Ġclassif ier
Ġanalog ues
Ġneglig ibly
Ġsubstructure s
p si
Ġr nyi
Ġ3 46
Ġ38 5
b ary
c irc
s ection
Ġso ught
Ġbonn et
r ators
Ġ29 0
Ġcompres sive
Ġsp reads
Ġk ac
Ġtermin ated
vi e
Ġ upl
Ġbroad cast
Ġpseud or
oc ity
oci ation
Ġman u
Ġver ifies
Ġprin t
inter val
or b
Ġradi atively
ren e
Ġdr astic
Ġ5 10
Ġcel es
Ġth oul
Ġtrans ist
Ġhost ing
Ġi h
Ġvel a
23 8
Ġdisper sed
Ġn ick
Ġinstitution s
Ġun occupied
o in
Ġsto ichi
Ġvalle ys
Ġch an
Ġtetrahed ra
diag onal
Ġrend er
ade qu
Ġaustral ian
Ġwe il
Ġvis ited
Ġextern ally
Ġch ic
Ġf cn
Ġpublic ly
b od
Ġs war
Ġf w
Ġsuper positions
Ġhas h
Ġsimpl ifications
Ġcm es
Ġundert aken
or o
Ġ4 49
07 4
Ġfore cas
eg el
Ġshe aves
f ly
Ġpa id
Ġrepro duction
Ġexplore r
Ġt ighter
Ġvl asov
Ġschu bert
Ġequ ating
Ġ24 3
Ġ4 80
][ -
Ġpointing s
Ġ3 93
Ġceles tial
Ġnon uniform
f p
g iants
Ġra o
Ġreg ulated
Ġfil ipp
Ġdaugh ter
Ġo vi
Ġinver ting
Ġneutral ity
z os
Ġper ovsk
Ġphilos oph
Ġ3 41
Ġdut y
Ġunc oupled
Ġcy an
bro ken
Ġm ps
Ġcul ture
Ġaccumul ate
Ġsl its
ew icz
Ġtent ative
04 01
Ġ0 33
Ġ3 08
Ġseed s
b ow
Ġpunct ured
Ġ5 55
Ġspan ish
Ġt ap
zz o
Ġkalu za
o o
Ġsome where
Ġunivers es
Ġinsp iral
Ġm yst
Ġlos ing
Ġgm cs
Ġdesign ing
Ġref ine
on uclear
ucoule urs
Ġl q
Ġpee bles
Ġmotiv ates
Ġsubhal o
all is
at ti
06 8
ines e
ll ll
Ġpend ulum
25 6
Ġ29 3
qu ad
Ġp be
Ġdivis ible
Ġpolyhed ron
16 8
Ġunderd oped
d n
Ġ27 1
Ġsuperfluid ity
Ġrichards on
Ġad hes
Ġspin odal
u ti
Ġpl anning
] !
Ġ29 1
Ġbar b
Ġprec ip
Ġcalcul ates
Ġx c
Ġslow ing
Ġtrans versely
Ġsix th
Ġve vs
Ġsas aki
Ġma z
lept ons
Ġsemide finite
Ġevid ences
23 1
Ġcap s
Ġdisturb ances
Ġpoly cryst
Ġgp u
Ġq kd
Ġrx j
Ġt ess
th and
Ġk ot
) .[
t ance
Ġpo vm
Ġload ed
;; ;;
Ġx enon
35 0
66 66
ton e
Ġhom o
Ġv eto
Ġchem ically
Ġ28 9
Ġconstitu tive
Ġsl ic
Ġn em
- .
Ġpack ed
Ġparametri zations
Ġbrid ges
Ġretro grade
Ġinf rast
Ġiter ate
Ġto f
b is
Ġhand ling
Ġsmbh s
Ġl ss
Ġarri ving
Ġn sc
Ġcontras ts
Ġstud ent
Ġfed er
cell s
i ors
Ġappreci ably
Ġmer r
Ġunequ al
Ġch inese
Ġcontradic ting
2 11
Ġdoub led
Ġplanetes imal
in ov
Ġ3 58
Ġtw isting
Ġ5 07
n ote
Ġf resh
Ġhe alth
Ġfl ipping
Ġin adequ
Ġass em
Ġup coming
Ġloc i
Ġbjork en
ph ic
201 4
Ġup wards
Ġco ating
Ġanti p
Ġanc illa
res e
op al
cor r
Ġcompac tified
Ġmark ets
Ġm ort
ms sm
Ġsubc ritical
Ġmetam aterial
Ġv ital
Ġreg ards
Ġuhec r
Ġref lex
Ġanc est
18 7
Ġsudden ly
Ġc cc
Ġt g
16 9
75 0
Ġc te
Ġshap ing
Ġil c
] ][
Ġr na
Ġwor l
Ġdm r
Ġsem inal
Ġdic tion
Ġexer ted
qu ettes
Ġpa reto
Ġperse us
16 4
Ġimpul sive
re z
Ġw ild
Ġop tic
Ġcent res
Ġsec s
its ky
Ġk ato
Ġho oft
Ġelucid ate
Ġresumm ed
Ġviol ent
ion e
vel ocity
Ġnow adays
g ett
Ġt pc
Ġ37 3
Ġd gl
Ġdes orption
Ġr up
Ġperform ances
Ġprefer able
ohy dro
Ġ4 99
48 0
h in
Ġp assi
09 4
Ġrecip e
gy r
Ġis otrop
Ġss fr
Ġinfrast ructure
p rin
Ġsch a
eck i
Ġconcent ric
Ġlam bert
Ġz a
ed er
Ġexec uted
Ġinstit ut
Ġfin iteness
6 06
Ġcont empor
Ġinitial ization
Ġperturb ing
Ġenthal py
Ġquark onium
Ġbec s
Ġsay ing
Ġattr acting
Ġpers pec
Ġreconc ile
b ased
l n
y cl
j m
Ġ0 85
Ġprocess ors
Ġs ell
Ġsize able
Ġisom etries
Ġun m
s f
Ġdom ination
Ġk ro
Ġ4 10
Ġadv oc
Ġmad au
Ġch ab
Ġthere after
Ġw and
Ġantiferromagn et
Ġop al
Ġmat te
ker t
Ġ] .
con f
Ġexhaus tive
33 0
Ġ rix
Ġab e
Ġcomprom ise
as aki
Ġhom odyne
Ġtrac eless
r ho
Ġno ether
Ġ3 12
Ġantipro ton
m y
Ġ100 00
Ġright most
land s
Ġ4 19
form ula
Ġcoll oids
Ġrepresent atives
Ġvi b
Ġfract ure
Ġswe eps
Ġlas ting
Ġld pc
Ġfo am
Ġkra us
Ġm ct
Ġstack s
Ġtermin ates
Ġcurvature s
Ġflo er
Ġindecomp osable
le ft
Ġregul ator
ad m
Ġhal per
g ren
Ġmanip ulations
Ġkauff mann
Ġconsum ing
ol s
Ġ4 24
Ġwim ps
Ġco co
07 8
Ġ2 96
00 02
Ġbur rows
Ġ19 4
dis c
Ġconce iv
Ġhyper ons
Ġop a
Ġroy al
Ġli pid
Ġga o
Ġkut ta
par ameters
Ġunknow ns
28 7
Ġbis pectrum
or gan
Ġbl ur
Ġnan or
Ġdisplay ing
f rom
s w
ynam ically
Ġconcl usive
Ġpla quettes
ar ov
Ġout age
Ġconf used
Ġann ular
Ġsp ain
Ġpriv acy
Ġc ec
Ġ4 48
( )-
edi a
Ġmission s
if e
Ġrh omb
Ġgovern ment
Ġh ri
r ac
Ġsuper luminal
Ġnl r
Ġd ose
05 9
Ġh ell
Ġ0 65
27 9
Ġillust rating
Ġben der
Ġimper f
q p
Ġ5 18
Ġcount erex
ra tic
Ġneighborhood s
Ġparametri ze
ec ke
Ġde w
Ġevid enced
m jy
Ġbounded ness
Ġa mm
Ġed dy
Ġl anc
Ġu i
Ġ38 9
Ġgonz lez
Ġenfor ce
Ġsuppress ing
Ġsustain ed
Ġclar ified
Ġres ort
Ġ26 1
Ġva ucouleurs
Ġj d
Ġ5 09
proble m
Ġv n
Ġcoex isting
Ġposterior i
v ised
Ġlept ogenesis
Ġpock ets
Ġpo yn
Ġv p
Ġb w
Ġmulti partite
Ġeclips es
Ġac id
Ġunderestim ates
Ġent ails
Ġ0 54
Ġx spec
Ġ24 1
06 9
en z
Ġneg lects
35 9
Ġ38 0
Ġquadra tically
Ġga ia
Ġko z
Ġb aker
ov o
hi ou
Ġconjug ated
Ġ2 32
Ġhand book
Ġsuper giants
Ġske leton
Ġf uch
Ġsp ine
r yp
Ġc ity
Ġremark ed
Ġmeth anol
Ġknow s
Ġwashing ton
Ġ19 59
Ġ18 6
Ġperspec tives
hy per
Ġtad pole
Ġthro at
Ġs bs
Ġdis f
Ġco be
Ġpal omar
en berger
Ġk oh
Ġact u
Ġgover ns
Ġambigu ities
Ġsil va
Ġmat lab
Ġinduc tively
en stein
Ġnv ss
Ġz ak
Ġt ls
Ġdiagonal ize
om o
Ġtell uric
Ġindi a
Ġnes ting
el ve
26 0
Ġrearrang ement
Ġthoul ess
Ġsub bands
08 6
Ġrece iving
29 3
Ġle vi
Ġ4 43
Ġinterest s
on ian
wh ich
Ġserious ly
agn eti
Ġfabric ated
Ġl und
Ġlect ures
Ġin duct
Ġm se
Ġ5 24
Ġsav age
il a
bund le
Ġ4 40
Ġfis cher
a diabatic
Ġyb co
Ġt uring
Ġp ep
Ġ4 67
Ġhom oclinic
is per
Ġse i
Ġsem imet
Ġcosm ologies
Ġabrupt ly
en h
Ġmid point
Ġcl ues
Ġba um
Ġrecipro c
Ġunavoid able
Ġed itors
Ġp eter
Ġsal am
stat hiou
z ini
Ġ4 20
Ġlam inar
Ġsu ite
Ġplate aus
m w
",,,, ,,,,
Ġneutral inos
Ġdetach ed
Ġ4 11
att ach
Ġlo u
ick i
Ġt j
Ġdark ening
b w
Ġ18 00
Ġnonloc ality
Ġrec ast
Ġgu id
Ġtwo fold
Ġ3 91
Ġobst ruction
-------- --------
3 10
ing le
Ġblock ed
Ġk amiokande
00 03
Ġ5 03
quark s
Ġradi ating
Ġ4 85
co upl
Ġmotiv ate
Ġchar lot
t ech
Ġh ansen
Ġcom ets
Ġbright ening
Ġms ps
Ġquantif ies
Ġsubt ree
Ġcup rate
ch enko
Ġappend ices
m et
p ting
Ġstrain s
Ġext ras
Ġoccasion ally
Ġ4 30
Ġunn ecess
Ġtach y
Ġgaug ed
Ġpoyn ting
Ġmur ray
Ġfor get
Ġgi ov
Ġjustif ies
ut ation
Ġtext book
Ġk az
",, ,",
Ġsm o
Ġweak ness
par ity
Ġ37 1
Ġgroup oid
Ġad af
Ġtransmission s
Ġcf ht
Ġsp t
Ġbar ger
17 7
Ġste adily
Ġsper gel
Ġconfigur ational
Ġuseful ness
Ġf ate
Ġf es
Ġ5 38
Ġbf kl
07 2
Ġretain s
Ġlex ic
d ynamic
Ġs und
od d
Ġnon con
Ġframework s
Ġon t
Ġenumer ation
Ġas m
Ġdel icate
Ġwal ter
28 0
oper ator
Ġl ick
ac on
Ġdeconv olution
Ġr ice
Ġmagnet ohydro
Ġm ist
06 1
3 12
Ġembr y
Ġm bius
Ġfram ed
m etric
Ġass et
Ġdec lines
Ġhiggs ino
Ġanalog s
Ġb rink
Ġch ur
26 8
Ġbal ancing
Ġcl as
Ġthickness es
Ġef stathiou
Ġirr ational
Ġic os
22 9
08 8
36 0
p olar
Ġx t
Ġtil ting
Ġtw elve
Ġh ong
Ġcon tig
ad el
Ġgy ro
Ġk v
Ġbraz il
Ġth reads
Ġlo eb
Ġw is
Ġ3 90
Ġpre condition
Ġmer omorphic
Ġsem is
Ġrom an
st rom
Ġpa hs
Ġbc g
Ġshear ing
Ġpenetr ate
e lement
Ġaddress es
Ġratch et
Ġid ler
Ġpol ish
Ġdig iti
clock wise
Ġregular ly
ir ts
Ġj im
17 2
Ġassign s
Ġis a
Ġdig its
Ġquatern ion
d ensity
Ġq pc
Ġadm ix
Ġnan oscale
Ġ; .
Ġur an
at rick
ra tio
.... ....
Ġshoul der
Ġmultifract al
Ġnon magnetic
Ġcu o
t een
Ġbi asing
19 1
Ġdel iver
x k
e ve
man s
re nd
Ġcanc er
tos is
ag uchi
Ġattach ing
Ġbal d
Ġch ips
19 6
19 9
Ġped est
Ġprof ound
Ġenh ancing
Ġsymmetri zed
fol io
ro b
Ġjs ps
Ġp am
atch ed
Ġb our
Ġed wards
Ġun broken
04 02
Ġcontr acts
Ġsecre cy
Ġsy st
18 3
8 00
Ġ] ,
Ġet ch
Ġconcept ually
Ġ5 13
Ġair y
Ġkne e
arell i
Ġpear son
in v
ec tic
Ġ26 2
g f
Ġloos ely
28 6
Ġg an
Ġparameter ize
Ġtric ritical
j unction
Ġa uc
Ġund oped
Ġw w
Ġd anger
Ġadsor b
Ġoverestim ates
08 7
Ġinherent ly
Ġprot ection
n k
un k
Ġparticip ate
p ol
Ġsus pend
id ences
Ġhe ii
,- .
Ġrec al
Ġcounter clockwise
el o
Ġmechan ically
33 2
Ġyosh ida
Ġquantif ying
Ġpromin ence
Ġ5 29
Ġout sk
Ġmerid ian
Ġc ram
Ġdec lining
Ġcygn us
Ġdra ine
op f
Ġcr is
del ta
Ġ4 34
Ġ5 49
Ġtik zpicture
j p
ind ler
Ġanalytic ity
Ġdiffe omorphic
Ġsurpr ise
Ġs orted
Ġg upta
Ġann ot
Ġ0 13
Ġbern stein
Ġnanow ires
Ġmaintain s
se e
Ġmang an
Ġcogn itive
Ġcontinu a
Ġclock s
Ġdetect ability
b ly
Ġf ont
Ġport folio
e a
im i
Ġahar onov
Ġanalys ing
Ġelect rically
Ġcorot ation
Ġbuoy ancy
Ġextras olar
Ġ3 68
Ġ5 37
Ġpack ings
Ġco cycle
Ġre ward
Ġcoll oid
Ġsyn t
a fs
am in
Ġn ich
Ġasc ending
Ġantine utrino
Ġc ds
Ġd um
Ġillumin ating
Ġst air
Ġdsph s
]), ([
Ġk it
rup ted
Ġ4 69
Ġpy ro
Ġnanostructure s
Ġcompar ative
Ġk od
25 5
Ġpath way
Ġpers onal
Ġdatab ases
Ġp ag
27 3
a ul
Ġcomp ete
Ġ5 05
Ġen j
Ġdepolar ization
Ġg ott
tor al
m ller
Ġf v
00 05
Ġoccur rences
Ġmanifes ted
[ [
ell ini
Ġpil ot
de en
Ġtable aux
Ġinequ ivalent
Ġcon formation
Ġscal ings
ur l
Ġmathematic a
23 7
Ġcorr ug
Ġcum bers
Ġreg istered
Ġpip e
ts ov
Ġpolar itons
2 09
li o
Ġfreed man
Ġdefin iteness
abs orbed
18 4
Ġe bl
Ġli ang
Ġwavepack et
Ġextrapol ations
m h
Ġl amp
Ġi ue
Ġ3 98
Ġ4 68
g us
Ġmant le
ple t
Ġ4 87
Ġrep ar
24 9
Ġdeconf ined
Ġt ec
Ġshar per
Ġbir kh
Ġcumbers ome
Ġre cept
uc z
Ġlenn ard
Ġanticip ate
Ġg ill
Ġly nd
Ġox id
Ġpolyhed ral
Ġeven ly
Ġel meg
Ġstation arity
Ġq q
Ġjen kins
si a
th ere
Ġoverla id
23 3
Ġaccident al
Ġscatt erer
00 04
2 03
Ġ3 06
t uple
ul ates
Ġ25 1
Ġj t
d al
p k
Ġdec isions
n am
Ġj itter
Ġcool s
Ġsett le
4 01
w ord
04 03
Ġelmeg reen
Ġpuzz ling
Ġtra ined
17 3
f b
Ġs ys
Ġobst acles
Ġf ss
Ġinter particle
Ġx s
Ġroll ing
Ġcodew ords
Ġmcke e
Ġ38 7
Ġ) .
cur ve
Ġdep in
Ġskew ed
th eta
orgab shep
op s
Ġts allis
Ġinterf ere
Ġleg i
so ft
Ġoutflow ing
Ġephemer is
Ġf ake
ack s
Ġbin ney
Ġeigen frequ
Ġconject ures
b ered
Ġem its
Ġb ass
Ġ3 63
Ġam r
Ġcar ina
Ġru iz
Ġnor the
l am
Ġle vin
22 8
Ġalumin um
Ġrenormal isation
Ġlar mor
Ġ28 6
Ġicos ahed
n u
Ġpl en
29 6
Ġp wn
Ġx m
Ġcn o
Ġag u
Ġchakrab ar
Ġrest oring
Ġcn t
), [
Ġsequ entially
Ġbenef icial
h c
Ġdi hedral
Ġho ok
Ġconcaten ation
b inary
ra ble
Ġaccre te
Ġ19 6
Ġme g
duc ting
Ġreg ener
Ġdetun ed
Ġspe ak
Ġ47 7
Ġpie zo
Ġpir an
j ectivity
Ġ5 50
Ġm ush
Ġ4 98
Ġco ated
ke y
Ġmanifest ly
Ġpen g
Ġ4 26
Ġmix ings
Ġoccup ies
Ġconcord ance
Ġwin ter
Ġsurround ings
re action
Ġ3 14
Ġsm art
Ġlocal ised
ber ation
Ġse as
Ġbl o
Ġman age
Ġ0 95
Ġsand wich
Ġver ifying
Ġherb ig
als ki
Ġclaus es
Ġhom omorphisms
Ġexoplan et
Ġso f
Ġl sc
16 1
Ġsand age
Ġf icti
Ġbring ing
07 7
Ġcount ries
ij k
b ond
Ġ26 6
Ġantic omm
ann er
Ġdeparture s
; ,
Ġinitial ized
08 9
Ġsubhal os
Ġdiagon als
Ġd end
ib ilities
Ġad vers
edi ag
Ġsteep ening
as m
id able
Ġaustral ia
Ġcri tic
od ynamics
Ġom eg
d oc
Ġr uss
Ġhen ry
Ġmanu fact
Ġrevis it
08 2
Ġvehic les
ne ighb
Ġ38 1
Ġspring el
Ġtr ilinear
Ġpol ic
Ġstew art
Ġ3 62
Ġsuper current
phys ics
Ġt x
re ich
h ad
Ġpd r
Ġex ces
33 4
Ġ3 32
Ġres et
Ġreg ulation
Ġhard y
Ġp ist
Ġinterch ang
Ġtreat s
Ġbur g
Ġ4 93
Ġuncon dition
Ġk at
utrin os
Ġfred holm
Ġso i
Ġparameter izations
Ġkore a
Ġg ard
Ġoutsk irts
Ġsteep ly
Ġ5 27
Ġir win
Ġ28 2
Ġcrystall ization
Ġbor on
Ġbro ok
Ġlines h
Ġbar deen
ky o
",, ",
Ġt q
con v
et ta
st ation
Ġmos c
b our
Ġ3 66
Ġdifferential s
Ġ5 57
Ġtri es
Ġm ech
Ġ10 35
Ġs arg
Ġrot ators
Ġ0 74
Ġwish es
Ġth r
Ġv m
Ġlin er
Ġlaw rence
Ġ0 235
Ġexoplan ets
od ular
d ar
Ġpos es
Ġunit al
Ġcirc umn
Ġthermal ized
Ġwhit ney
Ġc red
Ġ7 50
Ġtra pez
Ġkick s
Ġ4 61
09 6
Ġtil de
) ,,
Ġadmix ture
Ġtherm op
Ġmac d
17 9
Ġves ic
Ġinconsist ency
a ev
i ly
18 9
qu as
Ġeng lish
u y
ron s
Ġforsch ungs
Ġsubstitution s
Ġredund ancy
Ġ0 11
Ġkram er
Ġbre ather
Ġlar son
Ġinterp olate
Ġannihil ate
Ġalle vi
Ġpseudor ap
Ġcent a
Ġconcur rent
Ġul xs
Ġfab ry
Ġpick ed
Ġcolle ge
Ġtern ary
Ġbern ard
Ġbreath ing
Ġcondition ing
33 3
tr y
Ġ3 96
Ġarn old
07 1
Ġvirial ized
Ġch ris
sm ooth
hd m
Ġpossess ing
Ġd ome
Ġcontr actions
Ġl cs
Ġ19 58
Ġficti tious
17 6
19 7
t ra
Ġt err
Ġg rib
Ġg le
Ġv dw
Ġsp l
Ġ5 75
tru ecm
Ġram sey
19 8
Ġprim aries
99 9
Ġ5 87
v ature
Ġr j
Ġ4 44
Ġb ak
Ġun st
Ġcloud y
k an
Ġk itaev
Ġcat ch
Ġbrand t
Ġtri p
39 7
Ġri eke
un a
Ġgen ome
st art
g rid
Ġle on
Ġdil at
g on
r ant
Ġelev ated
u an
Ġs or
re y
Ġf eld
Ġint end
Ġtetrahed ral
Ġdiction ary
3 16
k awa
Ġfron tier
Ġinf imum
Ġspec kle
Ġr q
Ġn rg
Ġe j
24 4
Ġexchang ing
Ġf ish
Ġg ather
Ġpiv ot
tr actor
sim plex
Ġphotod iss
Ġgriff ith
17 1
Ġcanc elled
Ġf on
Ġb auer
Ġtransmit ting
Ġdisreg ard
Ġlap se
el and
Ġ6 50
erc ial
Ġwood s
Ġtiss ue
un t
Ġ4 04
Ġaim ing
17 4
Ġnotice ably
Ġconser ve
Ġassess ed
Ġspect rally
Ġconf ine
ochem ical
Ġfail ures
Ġint act
Ġcomm ercial
Ġfluctu ate
Ġcoordin ated
Ġhorizon t
Ġ6 75
Ġg rin
Ġla ughlin
Ġopportun ities
Ġax ions
Ġglu onic
Ġphotoion ized
Ġj ay
Ġunid entified
re asing
ar us
Ġ5 36
Ġ24 8
Ġ38 3
param etric
25 2
Ġ26 8
Ġj j
Ġa ia
ud h
ive red
Ġfring es
Ġam ple
Ġpock et
Ġcoron agraph
Ġsmo other
Ġb atter
Ġ19 57
Ġoper ad
Ġspectro phot
Ġpenc il
Ġz onal
Ġspin on
al ian
Ġto kyo
Ġdele ting
Ġl up
Ġ4 12
Ġkur ucz
Ġme issner
Ġhorizont ally
elf and
t ation
Ġal am
Ġam ino
i que
Ġs lepton
Ġab ram
19 98
Ġe ck
Ġ3 02
h or
Ġdisc ern
reg ion
Ġmim ick
Ġsuspend ed
Ġsl abs
Ġhop s
Ġinf lection
Ġeqn s
Ġsuper cool
Ġrelax ing
Ġdegra ded
35 5
optim al
Ġextrem um
Ġt ac
Ġpa v
Ġgre iner
24 6
Ġpet ro
Ġequilib rated
Ġisob ar
p redic
Ġmor gan
ed ges
Ġrest ore
Ġm x
Ġcircumn uclear
al og
Ġc j
Ġ26 4
Ġst ory
Ġd ns
k ow
plan etary
Ġz d
Ġam p
Ġdel ivered
ruc tions
Ġst rom
Ġ5 47
all ing
Ġq t
ars ki
p otential
Ġout standing
Ġis g
Ġmarked ly
18 1
Ġl z
Ġte ich
Ġlhc b
Ġs ii
all ow
Ġ3 61
Ġp ns
Ġ0 94
f our
ne z
Ġmim ics
Ġprofess or
Ġfl ipped
Ġ27 2
Ġback wards
Ġh uch
Ġ4 28
Ġ uch
h h
Ġun expl
Ġb ax
Ġon s
Ġpric ing
4 15
Ġpolycryst alline
Ġfer gus
Ġpurs ue
Ġd ss
Ġbuil ds
Ġm ate
Ġlay out
Ġhe i
Ġmc m
on ents
Ġh ove
24 2
Ġdisadvant age
z ys
Ġper tin
Ġvis ibilities
Ġadv ent
Ġleft most
Ġf ug
Ġdistinguish es
Ġcap turing
Ġw igg
as ch
Ġgra m
Ġarray cc
Ġmacd onald
od el
Ġt ax
Ġcollim ation
Ġattem pting
Ġnot ational
Ġvis ion
Ġinform ative
und er
Ġparallax es
Ġfun nel
Ġc tio
Ġun knot
Ġvisual ize
Ġys o
Ġtransc end
Ġdick inson
ted ly
Ġar k
od i
Ġ29 2
Ġeaves drop
Ġ4 97
Ġsepar ability
Ġcharm ed
w itz
um a
fs ch
Ġrand all
25 7
Ġhard ening
Ġfulfill s
Ġswa pping
Ġer os
34 8
q i
olog ous
Ġz ag
Ġfri ends
si o
Ġqu inn
Ġk ad
Ġintermitt ency
Ġra pp
Ġconform ations
Ġdiagonal izing
Ġn az
w i
Ġto om
Ġk og
Ġdef n
ref ring
q v
Ġcaus tics
Ġsuperb ub
Ġdimin ishes
c ov
Ġsub manifolds
Ġdgl ap
Ġp sc
Ġsched ule
Ġinc on
Ġcol oured
Ġgl ance
Ġarchitect ures
Ġjam ming
Ġequidist ant
Ġ( (
i ability
Ġco planar
quant um
Ġpolic ies
lec k
2 04
Ġdress ler
Ġb ivariate
Ġinser tions
c omb
is o
Ġr gs
Ġpur ification
Ġ37 2
Ġunf old
os a
Ġmagnet ars
Ġens ured
Ġ27 8
Ġdesign ated
Ġb ark
Ġro th
Ġparen th
Ġfcn c
s z
Ġro bert
Ġtravel s
Ġnum bered
Ġcol lectively
09 8
Ġstere o
in ations
Ġc ii
Ġ5 15
Ġx k
Ġad c
Ġstabil izes
Ġw ww
ruc t
Ġint ric
18 2
Ġcc ds
Ġs ie
Ġ4 08
Ġfl ame
Ġintern ally
Ġwe ber
Ġcond on
Ġ35 6
ke ley
Ġoptim istic
d k
az zi
Ġb omb
Ġl k
Ġdef er
si le
Ġmanag ed
w an
Ġstein er
Ġfram ing
Ġul x
Ġso ut
Ġup s
Ġsuper radi
Ġ12 35
19 99
Ġsurvey ed
Ġorth o
Ġunnecess ary
Ġful le
ch air
ik ov
Ġew s
Ġst yle
33 1
u u
Ġg ron
Ġsch n
Ġimag er
moment um
Ġcomple ting
Ġpopul ate
Ġsubd war
Ġo ls
Ġp anc
Ġatom istic
Ġcontain er
pro of
Ġad am
Ġpy ram
Ġcrow ded
Ġrecomm ended
Ġsub lim
Ġdecre ment
uk ov
Ġexplo sive
Ġmagnet ospheric
Ġthermop ower
07 9
a un
Ġl asing
ack er
Ġ4 60
Ġst ating
5 10
Ġh og
Ġvalid ated
Ġs ave
09 3
Ġearth qu
]) .
Ġevent ual
Ġca o
Ġcapac ities
s al
Ġp ev
im eters
Ġhetero structures
Ġsingle ton
rel ations
",,,, ",
Ġomit ting
Ġspati o
Ġprim al
Ġrare f
Ġboun cing
201 5
Ġdress ing
Ġcontig uous
Ġas ynchron
Ġag ency
le ading
Ġcancel ed
Ġ6 25
ann i
Ġsommer feld
Ġj pn
Ġgrad uate
Ġsch ol
Ġcounter s
Ġquoti ents
Ġdelocal ization
!- !
graph s
Ġth urst
Ġh ank
Ġer rone
Ġf asc
Ġg or
Ġlow ers
Ġge ant
fsch etz
on omic
Ġtrack er
Ġvir us
Ġc ens
g rs
Ġqu d
23 9
Ġdenomin ators
zy k
Ġconvers ations
Ġcent roids
Ġres emb
Ġyam ada
Ġch im
Ġ24 4
Ġfergus on
b eta
Ġms d
Ġdet on
Ġlog normal
ett ini
ag en
Ġher tz
Ġj k
Ġlev y
Ġ! !
(- )
er kin
h on
Ġrep air
Ġglu ed
Ġprog rade
Ġca i
re al
at ov
Ġsp ark
Ġas ked
Ġz ee
Ġprom ise
Ġ3 16
19 3
Ġpas j
Ġser ved
Ġmas ks
o en
q t
Ġcobord ism
Ġo e
Ġpower law
Ġs ib
Ġz am
Ġhe in
Ġa us
Ġab ra
Ġarm chair
Ġn and
Ġrad on
Ġann als
Ġsk ill
Ġpuls ating
Ġra j
Ġpseudorap idity
05 01
atur ated
Ġbi refring
Ġpo ore
Ġsa ha
Ġv il
Ġq e
Ġcircum f
Ġd aw
Ġg v
Ġcl oning
Ġtoom re
Ġ ero
Ġtrade off
Ġ5 26
Ġpertin ent
b k
Ġastro part
Ġl asso
Ġconstruc ts
comple te
u a
Ġ5 08
Ġ25 8
Ġpeak ing
Ġp x
Ġmet abol
Ġsuper string
Ġpoin ter
Ġray et
uther land
ix ing
Ġle fschetz
Ġfer re
Ġdominant ly
Ġacknowledg ements
Ġbrightness es
Ġc it
Ġh ous
u pp
f ib
Ġmin ing
Ġbath s
Ġdy adic
Ġthurst on
Ġunre li
b il
Ġ5 46
Ġeclip tic
d imension
Ġlength y
b ad
Ġrain bow
Ġexp osition
Ġsur f
Ġexponential s
Ġresc ale
t est
Ġpush ing
n ature
Ġg ould
Ġfur n
Ġk orm
Ġvis its
24 8
Ġs utherland
Ġgal erkin
Ġo tt
Ġpack ages
Ġrecover ing
Ġbax ter
Ġtre m
Ġcl ay
v ard
Ġheav is
Ġdecomp oses
Ġben z
Ġt ut
Ġco ad
end y
Ġ45 1
n or
Ġ4 58
n h
Ġmg ii
Ġcoars ening
Ġet gs
Ġsv d
p read
Ġfriction al
Ġextrem es
Ġcollection s
Ġqc p
Ġsett ling
Ġl anes
ch et
Ġstr atum
Ġchic ago
Ġurb an
f all
Ġz z
Ġsemis imple
Ġdev ised
Ġbh attach
5 66
Ġsl ots
Ġsn o
2 75
Ġimp ressive
Ġtransition al
Ġes r
mod els
Ġreplic as
24 7
Ġcanc ellations
Ġdepin ning
Ġret ard
Ġequ ilateral
Ġact in
Ġsent ence
Ġfol ds
Ġta ut
Ġmess enger
uer re
v t
al c
az aki
s igma
ri e
Ġbi jective
Ġanders en
Ġnu ovo
Ġ35 4
Ġn cs
pl itz
Ġsout he
Ġnanopar ticle
coordin ate
Ġstoch astically
Ġ45 4
deg ree
ig an
Ġcl ick
Ġad ler
Ġ27 6
Ġrub in
Ġschle gel
Ġvi ii
25 9
Ġrever beration
Ġimple ments
Ġign ition
Ġkur tosis
Ġheavis ide
Ġp j
ari us
Ġbc gs
Ġbook s
Ġd ates
Ġj affe
Ġ24 6
Ġskyrm ions
b us
ol in
Ġdep ro
Ġthermod ynamically
roup a
f actors
her tz
Ġq ft
Ġinf l
Ġarg ues
Ġham ming
Ġap m
Ġrelax es
Ġcygn i
Ġbut ter
Ġrich ard
ani ti
Ġkag ome
Ġcoco on
34 2
Ġca pp
) )(
Ġ5 44
que z
Ġ25 4
3 75
Ġpl ant
Ġback reaction
Ġturn off
29 7
Ġran ks
Ġavalanch es
Ġinev itable
Ġcounter terms
Ġfilipp enko
Ġsarg ent
Ġfluctu ates
te in
Ġmg b
Ġref ract
Ġcutoff s
Ġpublish ing
Ġsupplement al
Ġtit an
Ġdiam agnetic
bi otic
Ġsex tractor
Ġcal ci
27 2
Ġcamp bell
t wo
Ġ5 19
Ġrob ots
che z
ene z
Ġmcc l
Ġw ent
Ġcheck er
Ġlu o
b g
Ġ4 63
09 7
9 01
Ġopa que
Ġo il
Ġcole man
Ġconduct ors
Ġboson ization
Ġpassi v
w ick
Ġlept o
Ġoverd amped
Ġbin der
Ġgrib ov
si der
Ġinde b
Ġdes y
Ġros si
Ġin o
Ġnormal izations
34 4
Ġsym p
Ġk roupa
Ġfl rw
dec omp
Ġple ase
Ġp ettini
Ġprevent ing
Ġassoci ates
Ġwil kinson
Ġseism ic
Ġnick el
Ġlegi timate
ure r
Ġgra mm
Ġcal d
Ġdesc ending
Ġalloc ated
z ynski
09 9
Ġse vent
Ġqu art
Ġtab ular
ed en
Ġlack s
Ġfav oured
Ġfried man
Ġbo uch
Ġber keley
im it
Ġ4 90
Ġnon parametric
Ġgra f
Ġ28 4
Ġtor res
ig t
Ġoutper forms
Ġw z
Ġaper iodic
ll a
17 8
Ġcalci um
Ġc im
Ġmesh es
Ġ4 41
h ib
Ġto ut
35 7
Ġoccup ying
34 7
Ġfeed ing
orbit al
Ġma zz
Ġq l
Ġel i
Ġgravit ons
Ġ5 23
Ġsett led
Ġk uz
Ġplas monic
od ic
09 2
Ġpost ulated
sc al
Ġple i
Ġimperf ections
Ġal bert
Ġstir ling
Ġint ention
], .
ig uchi
in ating
Ġk ui
sk ian
Ġladder s
Ġconf ident
rop roduction
25 8
Ġthick er
Ġlm xb
Ġnr qcd
Ġpurs ued
Ġhomogen ous
Ġbist able
Ġ6 67
Ġbehaviour s
Ġa oki
Ġco v
Ġprol ong
h ist
Ġer asure
ious ly
p ower
26 6
Ġeman ating
c ale
Ġ27 4
Ġdeser ves
ip tic
Ġacknowledg ments
Ġ19 55
Ġmu eller
b t
Ġun bin
Ġrend ering
Ġrapid ities
Ġdisf av
h ot
Ġ4 14
Ġfill s
Ġent ered
Ġmi ra
Ġf ang
Ġpe er
Ġ6 44
Ġunivers it
Ġsemicon ducting
Ġunw anted
Ġn ul
Ġsl ave
Ġconver ts
per iod
l op
Ġbra iding
Ġcompac tif
f d
r ig
Ġperi hel
5 29
] :[
Ġqu and
Ġinter active
ing a
Ġmon ey
Ġbor ne
Ġinnov ation
Ġdown load
Ġk ri
Ġsubdi vid
Ġhapp ened
yc le
Ġt edi
Ġn mssm
Ġlag uerre
s ler
Ġmat sum
5 01
b urn
Ġion ised
Ġdens ely
Ġidem potent
Ġc ath
38 8
Ġlf v
Ġrel ational
Ġmark ing
p an
Ġ) ,
Ġun absorbed
en tic
Ġhe w
g ar
Ġab use
ap se
Ġclassif ying
au ti
ir s
Ġk oi
Ġ45 3
Ġss a
im ally
Ġbos s
ip age
08 1
ring er
pro per
Ġd if
Ġ5 48
Ġarri ved
Ġm iz
Ġ6 58
Ġsch re
Ġinterfer ing
Ġinadequ ate
de v
Ġ29 4
Ġpen umb
c at
Ġb rad
Ġhand ful
Ġlac s
ist ine
Ġmodular ity
Ġv it
2 15
Ġf dt
Ġw ak
Ġbul let
Ġinstantaneous ly
00 000
Ġ4 88
Ġsm ail
Ġwa v
Ġstem ming
Ġtack le
Ġunreli able
d isk
Ġopp enheimer
x e
Ġb ost
Ġpolar ised
Ġdel aun
be am
Ġcompan y
Ġmach o
me asure
ed ing
Ġhydroph obic
r at
Ġspecial ized
Ġw itt
Ġod ds
Ġclim ate
Ġstef an
Ġund es
Ġ25 2
Ġsc anned
Ġcons or
sk a
Ġextraordin ary
2 13
Ġ4 02
Ġgro th
Ġlang er
st rong
Ġvog t
Ġ4 62
he im
Ġclean ed
wor ld
Ġdelaun ay
Ġcurv aton
Ġnl te
Ġl ada
Ġund ulator
Ġcomple ments
Ġpredic ate
Ġ10 24
Ġgraph ically
Ġc sp
Ġz inn
Ġpolar imetric
Ġpac ific
Ġquadrup olar
Ġre ich
wa ii
Ġele vation
Ġ5 59
09 1
Ġsweep ing
Ġund ist
Ġaccompl ish
Ġman ual
Ġreconstruc tions
Ġpf aff
kar ni
ac ly
Ġpr istine
Ġ47 3
r l
Ġwave vectors
Ġinten sively
Ġpo si
it ers
Ġl omb
Ġmo vie
qm d
Ġw ij
Ġ5 67
Ġcn ot
Ġarcsec onds
ut z
and ez
Ġref eren
up let
26 7
Ġrib bons
Ġsaf ety
d in
Ġw ides
Ġconceiv able
j ourn
ak ura
Ġge o
Ġpoly dis
Ġround s
29 4
Ġ04 35
Ġtermin ate
Ġkl is
Ġgeor ge
Ġ4 64
Ġal on
Ġind etermin
war a
Ġnn n
g ado
Ġ 000
Ġg mc
Ġ0 10
' [
Ġhun ter
Ġstur m
Ġplasm ons
g eme
27 8
Ġwin ning
Ġacceler ators
Ġcach e
Ġs ac
Ġmulti wavelength
Ġtedi ous
Ġst ab
ple y
Ġ4 16
Ġmeth ane
18 6
3 45
Ġlandau er
Ġmulti scale
Ġsteep est
Ġlig and
ul ty
Ġwr ites
c ategory
Ġnanor ib
Ġguid ance
pp s
ib a
Ġcave at
Ġv as
h av
Ġsubs onic
Ġequival ences
Ġcan tile
Ġpb pb
Ġwa it
nucle i
Ġcrow ding
Ġl il
Ġhol stein
Ġke k
Ġdr ifts
Ġcatal y
Ġsumm ands
29 0
Ġold est
Ġfoot ing
Ġw ro
Ġre w
Ġ0 64
Ġbur gers
n iz
Ġro utes
Ġmet ers
Ġtun g
Ġwides pread
Ġpolar iz
Ġimp rin
Ġtet rad
Ġ4 31
Ġbas ins
Ġbeg elman
Ġflav ours
Ġq h
Ġer ds
Ġprom otion
Ġlanc zos
Ġst ray
Ġreach able
Ġkorm endy
Ġsol vers
c ock
Ġdis charge
Ġk appa
Ġasc ertain
ad ed
24 3
mon ot
Ġcry ogenic
Ġal b
Ġferromagn ets
Ġboost ing
Ġtransc ription
Ġ4 66
Ġsp p
Ġ4 06
Ġpre t
Ġchar ts
Ġri ess
Ġburst ing
g as
Ġan tim
Ġover tone
anal ysis
Ġinter iors
com par
Ġbd g
Ġtum or
Ġco us
Ġy m
Ġban ks
Ġdeutsch e
Ġo am
34 9
acly sm
Ġv k
ie le
Ġa y
ang ent
Ġty cho
Ġh ug
Ġbeam forming
Ġk dv
Ġ5 04
Ġmagn ons
Ġhank el
Ġc ation
ap at
en o
Ġp orts
Ġdress el
Ġsub cluster
Ġ47 9
4 02
Ġre issner
i w
r us
Ġwas p
Ġ6 10
24 1
Ġkui per
Ġaccess ed
) ](
t au
ut in
rop olar
Ġpul ling
Ġtriang ulated
Ġindust rial
amet ri
Ġ5 85
Ġz b
Ġtemp ting
Ġappreci ated
33 7
Ġ5 22
04 04
Ġdeep est
Ġinaccur ate
Ġkul karni
Ġtempor ally
Ġmanip ulate
) ]-
Ġbond ed
100 2
05 02
s olution
'' ''
Ġattenu ated
sin ce
Ġj er
Ġ5 40
Ġscal able
Ġ24 2
Ġheli oseism
process ing
) !
Ġsch we
Ġsch mitt
Ġin eq
v est
Ġsimul ator
25 4
Ġic arus
Ġf j
Ġgeneral isation
m q
Ġl ov
Ġtri ad
Ġthor ne
le in
Ġh os
Ġh ung
Ġ11 00
Ġresem bl
d ual
int ro
Ġquadrup le
Ġins pir
aclysm ic
at to
12 07
Ġdep ression
49 1
Ġconform ational
Ġcar ter
Ġwol fe
Ġsusp ected
Ġparis i
Ġtachy onic
it as
Ġim bh
Ġ4 32
) ),
Ġspin t
Ġstan ley
im ed
Ġany where
Ġ47 1
Ġunderg one
Ġmel t
p es
Ġpolyg onal
tw isted
re ro
Ġmat su
ins chaft
Ġpl ume
36 8
k j
Ġobj ectives
os econd
pl ots
ain en
Ġin wards
Ġper l
Ġkp z
Ġgroup ing
Ġprog ression
Ġparenth eses
Ġappreci ate
Ġele ven
Ġsuff ix
df grs
bound ary
Ġunim odular
w os
Ġreal izes
Ġ45 9
Ġons ager
Ġn er
im ages
Ġpredict or
Ġtm d
Ġb le
ar ts
und efined
Ġ38 8
Ġalign ments
in st
Ġit o
Ġdiff ract
04 05
zys ki
Ġbar th
Ġreconstruc ting
Ġunivers ally
cor rection
Ġover flow
Ġ19 15
Ġfeature less
Ġmell in
el ov
col oring
Ġ5 60
Ġcapac itor
b j
Ġha waii
Ġazimuth ally
Ġpere z
Ġdet ects
l und
Ġ3 64
Ġw ong
Ġin timately
Ġp des
ir g
ogen ous
Ġclump ing
Ġintellig ence
Ġd ong
Ġsp orts
iment o
Ġtexture s
Ġpro hibit
Ġdist rib
Ġaccept or
pa ired
38 0
Ġh oy
26 9
Ġw p
Ġr cs
Ġne on
Ġhomogeneous ly
Ġmet ro
Ġy rs
Ġruss ell
har ov
Ġsh if
Ġstr ata
Ġ5 66
Ġb ower
Ġh us
enc ia
ent e
Ġconf ig
Ġer n
f g
ec o
ri k
rin i
Ġmac rom
Ġpre y
Ġstan ford
Ġenv is
Ġwarp ing
Ġmatth ews
Ġgen zel
Ġnon ex
m v
Ġed itor
Ġphoto electric
Ġsouth west
Ġphot om
Ġgad get
ly te
Ġab b
i op
35 8
Ġcomplement ed
Ġenfor ced
Ġfran x
Ġfasc inating
Ġresemb ling
Ġsol omon
Ġbacter ia
Ġj n
Ġspher oids
)( .
Ġk iss
Ġfin ishes
Ġdal itz
Ġb ess
Ġrun g
Ġdig it
Ġlun ar
up ole
Ġmat hi
Ġimp ing
Ġhe inz
Ġconvention ally
Ġanomalous ly
Ġacceler ations
Ġcommun icate
Ġleg gett
9 00
Ġcoh es
Ġpost p
s elf
Ġse xt
c one
( ))
Ġsub vari
Ġdat um
Ġconsor tium
Ġun ob
Ġz ams
hi re
Ġuncor rected
Ġt uples
39 0
Ġcircum binary
Ġa ven
Ġiv anov
Ġshor thand
t p
Ġsm ectic
lit z
Ġ48 1
Ġoutl ier
m el
an ishi
Ġk z
Ġt eg
Ġch ile
Ġir c
Ġsa ito
Ġparabol a
26 5
Ġsuper fields
Ġhab itable
ac ular
23 01
Ġtransport ation
Ġ6 65
28 5
Ġpresum ed
, ]
Ġn ether
Ġfacilit ates
Ġa di
zw iller
e et
Ġco erc
Ġ4 96
Ġhar rison
Ġradi ate
Ġfill ings
Ġo val
Ġj ung
ex ample
Ġtherm onuclear
Ġplei ades
Ġ14 00
h ill
u per
rib e
Ġcommut ativity
Ġinver t
og le
Ġinteg rator
Ġsv m
Ġph yl
Ġcoh erences
Ġtransp osition
Ġ37 6
t ag
Ġseyfer ts
Ġpup il
Ġcal z
Ġisoph otal
Ġpoore r
Ġcommut ators
Ġpeculi arities
oren stein
Ġar range
Ġ5 58
Ġeng el
Ġbh b
Ġdichot omy
Ġund ers
Ġtra il
Ġlb g
Ġcli ent
Ġcon ges
Ġbeg un
Ġyam amoto
Ġdele tion
Ġwe ier
Ġtr imer
25 1
Ġsk a
bal anced
Ġphotodiss ociation
Ġspect ropolar
Ġund o
Ġg ell
st ad
iv an
Ġper ce
Ġep silon
repres entation
ed ral
Ġdec is
Ġquadrature s
Ġanc illary
Ġunder l
Ġgh osh
Ġnecess it
cont inu
q d
Ġ35 2
Ġquadr ilateral
Ġxx z
Ġfund s
Ġcast ro
Ġinter m
Ġstim ulus
Ġtub ular
on ed
Ġch pt
ard o
ric ted
Ġto e
Ġpd g
Ġvisual ized
Ġsup erex
Ġsp i
Ġr ge
Ġl cc
ins kii
Ġcons el
Ġfi bon
Ġcoinc idences
Ġfren ch
Ġperovsk ite
( ),
k ern
Ġhir sch
ds ky
Ġ12 1212
are v
Ġcar p
Ġmangan ites
Ġredef inition
ure k
29 5
Ġh ob
Ġdel ine
uk a
Ġ5 61
Ġreques ts
aniti ze
1 000
Ġk ou
na ud
Ġpunct ures
Ġcte q
geme inschaft
ure n
28 2
Ġopp os
Ġsummar ised
Ġ16 00
Ġultra relativistic
Ġ4 22
Ġquestion able
Ġleg acy
Ġma h
Ġun paired
Ġv ig
Ġus no
Ġsub pop
ici ous
Ġfo x
Ġasser ts
m eth
Ġ6 37
Ġcondition ally
Ġansw ered
anitize url
Ġp im
Ġpist on
Ġopin ions
Ġ5 43
4 75
sh ift
Ġb ib
ug ra
Ġgut zwiller
ans son
Ġfore cast
Ġa wa
Ġgen nes
Ġh ed
Ġmay er
ol t
Ġcat aclysmic
Ġassess ing
Ġr wa
Ġpass band
Ġfac ing
Ġforschungs gemeinschaft
Ġt ie
Ġr indler
ograph ical
00 07
Ġutil izes
Ġd fs
Ġexplo its
Ġlat in
8 66
Ġ, -
Ġz f
Ġ37 4
Ġis hi
Ġ19 50
Ġna i
k opf
Ġbig gest
Ġpier re
og h
Ġu hl
ji ri
eme ister
Ġtransmit tance
osp ect
c x
Ġperic enter
Ġwe ib
Ġj ain
Ġf ood
Ġ5 64
n j
Ġgil more
v p
Ġm pa
si ded
Ġ48 9
Ġjap anese
Ġamb ipolar
Ġblow n
ot ype
Ġmotiv ations
r ics
in ements
Ġelabor ated
Ġ4 42
Ġlin de
Ġdecomp osing
Ġsk ip
id is
Ġthere of
sec ondo
Ġdan iel
Ġeavesdrop per
rom e
Ġ5 06
ev olution
Ġv d
Ġcomm and
l os
w ork
Ġs ere
Ġl ic
Ġr ac
Ġsub interval
Ġspecific ations
ur g
Ġund etermined
Ġrot ator
Ġnord strm
Ġnether lands
secondo ft
Ġdele ted
Ġ3 92
Ġ5 34
Ġps fs
bib empty
inner bibempty
Ġperihel ion
Ġmatsum oto
Ġsub matrix
45 5
Ġdist ribute
Ġif num
26 3
Ġnorthe ast
Ġc raw
Ġgh is
Ġign ores
Ġfibon acci
Ġstar ob
Ġprol ifer
' ]
we ak
imet re
Ġ121212 1212
45 4
Ġreal ised
Ġce ases
Ġsem ist
Ġenc oder
Ġstock s
Ġto wn
Ġi q
ev ol
Ġg ws
ine z
ach i
10 21
Ġinv ent
ni i
Ġresi ding
r ule
v c
Ġann ounced
Ġbist ability
Ġin going
Ġsubd ominant
Ġtouch ing
Ġn rao
Ġtermin als
Ġasc ension
Ġresembl ance
ir t
Ġrm t
Ġindeb ted
Ġpref erences
Ġre eb
integ rated
y en
Ġslow s
no op
i ant
osen ess
Ġcow ie
Ġp un
ole cules
out h
Ġasy mmetr
Ġdir ty
Ġretri eve
diag ram
Ġordin ate
29 1
ein er
Ġsed iment
tor us
Ġmerr itt
z ik
Ġmis leading
f gl
Ġmosc ow
k x
Ġcompos ites
Ġnarrow ing
s at
Ġmo v
Ġg pe
Ġgriffith s
Ġa kin
h amil
Ġintric ate
Ġcle arer
Ġphot ographic
Ġsl ac
Ġcontras ted
Ġpertain ing
Ġs orting
Ġun ivariate
oph ot
Ġdestro ys
01 01
ro ut
Ġj c
Ġ5 14
Ġadmit ting
um i
Ġal go
Ġsuperex change
Ġspect acular
Ġslic ing
yn es
110 9
Ġ37 8
Ġs os
Ġg og
Ġvisco elastic
c oll
Ġisoph otes
Ġ5 56
Ġhypoth es
Ġif s
; .
26 2
Ġiter ating
Ġsh er
Ġip ac
45 6
t k
Ġm le
Ġap o
8 50
Ġ0 84
and a
Ġcompar t
Ġside bands
Ġl pez
Ġk ill
vol ume
Ġf fs
Ġcap tion
a ire
27 4
til de
su pp
Ġn ous
Ġwas h
y ch
Ġbo uw
Ġ5 54
Ġunc ont
Ġjohn ston
Ġii a
array c
Ġeisen stein
m no
Ġm di
Ġ5 20
empor al
Ġcald well
l uster
Ġk ang
ival ence
Ġenc ryp
28 4
Ġprevent ed
g ram
l ass
av al
Ġgr ism
ring ton
Ġb ai
Ġnor ris
Ġrodrig uez
Ġf ing
Ġfluores cent
Ġscatter s
Ġloss y
Ġdec ode
27 7
Ġwil c
Ġtent atively
Ġab sc
Ġeigen energies
44 0
Ġpolariz abilities
f its
Ġequ iv
34 1
Ġtempor arily
Ġ5 68
Ġer i
Ġbuck ling
Ġm dm
Ġsc ript
Ġdown wards
st ability
end link
34 6
Ġreciproc ity
Ġd ither
Ġd well
start link
wos anitizeurl
secondoft wosanitizeurl
Ġsp ic
bib innerbibempty
Ġj w
Ġlab elling
Ġmatch ings
Ġadv ice
t ons
om agnetic
Ġl ls
Ġb rom
Ġarg uing
Ġconsequ ent
xx x
Ġg av
ex act
adi an
Ġbo ul
an abe
Ġj m
33 9
Ġth row
Ġtrunc ate
112 6
Ġmat t
15 12
ki ewicz
36 4
Ġ5 69
Ġreprocess ed
Ġg ly
Ġhtt ps
ur ally
00 06
Ġfull er
Ġur l
Ġst orm
Ġblow up
Ġlibr aries
if x
Ġnom oto
Ġreal izable
Ġle cs
Ġbro g
Ġsei berg
Ġphyl ogen
Ġ0 22
al g
Ġ38 2
Ġten sile
Ġh ecke
Ġpre l
Ġh amb
Ġpass bands
Ġb ach
ab ove
Ġ38 6
Ġghis ellini
Ġc ensus
Ġsh ield
Ġprof it
Ġv iv
am y
ate gor
35 6
Ġthin ner
Ġste ering
Ġh ts
iss a
Ġdetun ings
bro ck
ace y
Ġsub diff
Ġnois eless
Ġv ign
Ġorder ings
46 9
Ġ( )
Ġincrement al
Ġaster oseism
Ġt is
Ġdiscre teness
l ip
13 02
Ġprom ot
Ġr ass
Ġflu or
Ġib m
Ġpl um
Ġgyr s
ap sed
Ġno vi
Ġsubst ellar
Ġsal ient
Ġsuspension s
Ġr vs
Ġsh oot
Ġgy ration
Ġhetero tic
Ġsee king
Ġqr pa
th rough
Ġweak ened
Ġhq et
cccc cccc
si k
as oro
ase p
Ġanaly zer
Ġend ed
Ġtes la
otz ky
Ġoppos itely
Ġpop ov
Ġ10 68
Ġpr un
Ġinversion s
Ġdocum ents
Ġchecker board
k ol
ch in
Ġbatter y
an en
as o
Ġ5 99
37 0
Ġcow ork
ifx undefined
Ġ25 00
Ġmes onic
Ġrecal cul
Ġt ant
in en
Ġ5 53
Ġgrating s
ain t
Ġ3 94
Ġintr ac
Ġcantile ver
Ġ5 16
Ġsub complex
ag her
Ġcur l
Ġte ams
Ġrank ed
Ġce leb
if iers
Ġmove ments
Ġconst ellation
Ġany ons
Ġescap es
br ight
Ġsublim ation
Ġthin king
Ġattain able
am ma
Ġbeam ed
Ġk d
Ġquanti le
Ġstarob insky
2 14
im il
hom ogeneous
Ġ ich
Ġphotod et
Ġ38 4
Ġdon ors
Ġdepos it
Ġpro hib
com m
Ġhw ang
Ġm pi
Ġdressel haus
Ġsubc ategory
Ġhor od
c in
Ġmat roids
Ġuns atisf
Ġcowork ers
as er
Ġradi on
Ġman ually
Ġperiod ogram
Ġoverden sities
Ġtrem end
Ġmix es
Ġcli ques
Ġharves ting
Ġadhes ion
ul k
Ġbra ids
al f
Ġunc over
Ġwalk ers
Ġwra pped
op oly
Ġari z
Ġpseudopotential s
7 00
Ġray mond
Ġmotion al
Ġtranscend ental
on er
y b
Ġs ds
ill ard
Ġ47 0
Ġbur kert
ul in
]( -
Ġend omorphism
Ġtend ing
Ġinher ited
flow s
Ġk f
Ġk all
Ġk ast
Ġ5 63
'' -
Ġsw iss
Ġnorth west
hal o
Ġwat anabe
orth og
a is
Ġn est
Ġka plan
Ġn ac
se p
Ġbilli ards
ri a
Ġfri end
ad is
ree k
Ġsag itt
Ġcolle ag
z an
Ġcomp osing
Ġtra verse
'' (
36 5
Ġb umps
Ġlin ers
Ġlas ts
13 03
Ġwa ist
Ġpreser vation
Ġreplic ation
Ġf res
Ġla i
r p
y u
Ġa si
Ġbl ood
bel ow
Ġp ill
Ġ5 30
Ġexpon enti
Ġcoinc iding
Ġtransl ating
bary on
Ġsin r
rel ax
Ġgall agher
approxim ation
v v
Ġm end
et ting
Ġv erm
Ġminim ality
Ġun weighted
Ġinter tw
in ally
Ġabsor p
Ġdown link
Ġcounter term
Ġsummar ise
Ġprotot ypical
Ġasynchron ous
h man
Ġsilic ates
Ġperi ph
lev ich
Ġair mass
Ġco ils
pt on
Ġprepar ing
ru h
Ġvo igt
ac tivity
Ġse ason
Ġpolar imetry
Ġdyn kin
ost atic
Ġvir asoro
Ġpunct ure
34 3
kk um
den se
Ġcounterex ample
Ġcor i
v as
Ġexces sive
ut er
Ġmark ers
Ġcrypt ography
Ġimp ression
Ġol iv
Ġo des
Ġy ad
Ġreprocess ing
Ġo lig
Ġdo kkum
Ġsym biotic
Ġengine ers
Ġaddi tivity
b old
Ġb ord
Ġis r
Ġl ake
Ġannihil ations
Ġsha pley
Ġteich mller
Ġv h
ern st
Ġlut z
Ġdeton ation
Ġchab rier
; (
Ġheat s
Ġhierarch ies
35 1
Ġtrack ed
Ġprev ail
Ġhyd ra
Ġgalile an
resh old
t ti
Ġ5 77
Ġpublish ers
Ġwal d
Ġo ster
Ġreg istration
)) .
Ġchur ch
Ġf h
Ġf x
arth y
4 03
Ġsp end
Ġwave lets
Ġmas king
Ġsumm ations
Ġquas ist
Ġfract als
Ġinfinites imally
Ġres um
Ġmcd onald
ev ap
Ġpul led
Ġfos sil
Ġrevis ited
Ġ4 18
Ġconduc tivities
Ġult ral
) )-
Ġbro dsky
Ġbul l
f el
Ġun ac
Ġx rb
Ġste el
ub lic
Ġwebs ite
05 03
Ġhom ologous
Ġchrom odynamics
Ġinter planetary
Ġdeli very
chem ical
Ġtoe plitz
Ġahar onian
Ġ; ,
Ġfunction ality
Ġcn pq
Ġoverwhel ming
le g
Ġn ec
Ġperiph ery
Ġma o
Ġpre image
Ġconjug ates
Ġlabor atories
f k
se g
Ġexpl or
ori entation
Ġadvers ary
f un
Ġgeom agnetic
Ġli ber
Ġbe ars
29 8
t j
Ġs anch
Ġv ox
Ġrel ays
ist a
anc o
Ġcm r
Ġsn chez
39 6
28 1
Ġwhe el
Ġmedi ation
Ġcalz etti
Ġdistribution al
Ġeigen mode
Ġdm c
Ġnn x
Ġshe ath
ell es
Ġoff sp
Ġgold reich
n omial
Ġhydro car
Ġdens est
Ġl irgs
Ġsagitt arius
Ġfibr ations
st e
Ġk ost
Ġdistinct ly
Ġmcc arthy
m aps
Ġover plot
Ġselection s
Ġobsc uring
Ġlinewidth s
Ġcatastro phe
Ġk oster
Ġpre z
45 7
ari o
Ġagre ed
Ġhyp ere
ine q
Ġmagn ified
Ġtail ored
d at
Ġhol der
Ġmed ical
Ġsc ul
Ġsecond aries
Ġn ist
us ch
Ġbl um
Ġrich ter
Ġariz ona
Ġd red
Ġposition ing
Ġflag s
4 04
Ġbr uz
Ġpm ts
rest ricted
Ġjup iters
Ġin as
Ġgood man
Ġb un
Ġolive ira
Ġarcsec ond
Ġsud akov
c ts
h ift
Ġh och
Ġkir ch
b et
Ġnon adiabatic
Ġunc overed
06 01
Ġz aris
arcs ec
c el
u der
Ġp eres
Ġa q
Ġma il
Ġ5 32
Ġpic ard
Ġhorod ecki
Ġc gc
Ġj cm
ces sible
ur vature
Ġu a
Ġbhattach ary
Ġid l
Ġspe ech
Ġcommun ic
Ġworm holes
Ġparsec s
Ġte uk
Ġincorpor ation
Ġup turn
Ġsch ri
tit udes
Ġmagneti zations
ion i
Ġad el
Ġms z
Ġch in
Ġover abund
Ġge h
Ġquasi periodic
Ġ245 5
Ġbro w
28 9
29 2
Ġrenormal ize
Ġmart inez
Ġbruz ual
4 10
Ġk eller
ram i
ig a
Ġan tin
Ġ6 13
Ġbet ti
!! !
Ġ5 81
39 5
Ġmur phy
Ġquasic lassical
Ġd ama
05 08
Ġmas sey
zz le
Ġct ts
Ġ5 95
35 3
an y
str ass
Ġ5 02
Ġlong itudes
Ġhand les
Ġceleb rated
Ġel usive
Ġparticip ant
Ġincompres sibility
Ġyan ag
Ġn ernst
Ġinv as
s ke
w as
Ġhy a
Ġy oshi
Ġ06 35
Ġzaris ki
Ġquantif ication
Ġren zini
Ġcircumf erence
Ġtoler ant
Ġstoichi ometric
Ġunfold ed
Ġclos ures
Ġquench es
prop ag
en na
Ġ5 97
Ġfactor ial
ro d
Ġdefin able
16 01
Ġrev ival
06 03
Ġclark e
Ġun ruh
Ġcer tif
Ġhuch ra
Ġal ters
Ġino ue
Ġiter ates
Ġconduct ances
Ġcontempor ary
Ġfin ished
Ġmach in
Ġoct upole
num ber
Ġsuble vel
w ater
Ġj u
gn er
Ġz u
Ġt ips
Ġms w
Ġg me
Ġsight lines
Ġpron e
Ġcustom ary
Ġthresh olding
Ġ45 6
Ġy ok
Ġhexag ons
Ġpet rov
3 13
ew eg
Ġshe ared
Ġbir ational
Ġhope fully
pp e
Ġj l
Ġsch ott
Ġaff ord
Ġpent a
j c
Ġmain thm
Ġenl arg
Ġh rs
Ġconduc tive
r k
Ġpe ac
cur ves
Ġhab er
reson ant
pix el
Ġref r
Ġgc n
al most
Ġpre heating
29 9
Ġbill ion
me ier
Ġferr ara
Ġ5 41
Ġdo ug
ch ester
Ġemphas izing
Ġpick ing
d ens
Ġ19 53
Ġmon ograph
Ġresonant ly
Ġlongitud inally
Ġrad ar
Ġcatastro phic
Ġweak est
Ġmarsh all
qv ist
2 08
Ġh ors
Ġlo vel
Ġmill en
Ġrout inely
Ġfib ered
c ker
Ġc ra
Ġ5 91
Ġreid emeister
d les
Ġ4 46
Ġvi olet
Ġk lim
Ġalter ing
Ġeh ren
Ġem p
Ġdecoupl es
Ġc ities
Ġy t
Ġhaw ley
it ory
Ġoctahed ra
so ur
33 8
Ġepit axial
Ġsund rum
4 05
d g
is ki
Ġser ial
ly gin
Ġfoot note
Ġmush otzky
Ġc able
us ted
Ġ0 36
Ġcertain ty
Ġst ets
Ġup to
Ġneur onal
Ġdocum ented
i us
Ġl or
Ġdo b
Ġgra vities
Ġtorsion al
Ġt av
Ġj ahn
eff er
00 09
Ġdec iding
Ġinvest ment
Ġground state
Ġphoto evap
t ub
)[ (
Ġconser ves
Ġweier strass
m all
Ġem itt
Ġkind ly
Ġgil bert
te xt
Ġreflect or
Ġig r
Ġencompass es
Ġt ies
Ġis co
) ][
os ome
Ġ08 35
Ġhistor ically
Ġg ork
00 12
Ġ5 80
ga as
Ġpolyhed ra
Ġadvoc ated
Ġcharacter ise
Ġuv ot
burg h
3 20
Ġn ad
Ġ6 55
Ġspati ot
Ġ) -
Ġat ca
Ġ19 56
Ġquar tz
Ġconvolution al
Ġv ent
Ġclos es
Ġjo bs
i pl
Ġ6 60
Ġabsor ptions
Ġbur ied
ri de
Ġcalcul able
Ġinsp ecting
Ġreflect ance
Ġwe aver
Ġcom etary
Ġsh eth
Ġcond ense
cent er
Ġerup tions
Ġcomb es
the y
6 04
Ġfact ory
lo gy
Ġpn icti
Ġfirm ly
Ġabra ham
Ġens uing
Ġsun spots
actor ily
Ġ5 52
Ġn in
Ġband gap
ampl ed
3 22
duc ibility
ach e
tr ue
Ġregul atory
Ġam d
Ġdecor ated
l ambda
Ġ ries
Ġm sp
Ġmsz ros
j ak
Ġevalu ates
Ġcori olis
Ġteuk olsky
Ġ6 57
Ġcomplic ate
Ġgrb ner
Ġn omin
Ġg orenstein
Ġchap lygin
Ġfl or
Ġbor row
o ints
Ġph r
Ġy our
Ġit alian
Ġk x
Ġidentif iable
Ġhur witz
ech n
Ġtransfer ring
Ġkra v
Ġcor nell
3 11
Ġb cd
ud f
Ġiner t
3 15
ag awa
Ġ5 21
Ġstets on
03 01
Ġhb t
Ġsupercool ed
Ġl ope
Ġencl osing
Ġmonol ayers
char ges
Ġnovi kov
Ġrod rg
Ġcry ostat
Ġc et
op en
Ġlinesh ape
im ation
ow sky
Ġarg u
Ġ48 3
Ġbroad en
Ġmil nor
Ġi in
Ġsul fur
Ġt ape
f lat
af e
Ġwilli am
Ġtravers ing
Ġisoc urvature
6 25
v et
Ġb matrix
Ġl ined
Ġyoun gest
Ġsouthe ast
b oux
Ġy n
Ġup grade
Ġver b
Ġ6 47
Ġ6 59
6 01
c are
m j
Ġref inements
Ġdisper sal
Ġasser tions
Ġbost on
Ġcard inal
Ġwilc zek
4 33
Ġwe ig
Ġsc f
Ġconf ron
Ġbin d
Ġhay ashi
Ġkir k
Ġtransist or
Ġrodrg uez
as ym
Ġsin ks
elect rics
aps es
se en
Ġsne utrino
t an
Ġ5 93
Ġeng ines
ontinu ous
Ġberg h
Ġinter l
Ġweak ening
Ġel apsed
Ġphysi k
Ġsatisf actorily
Ġimm une
Ġretard ation
Ġvirtual ity
Ġexception ally
ub ic
Ġke ys
stand ard
Ġmachin ery
pt or
44 3
Ġc itation
Ġu eda
Ġinitial ize
Ġ45 2
Ġ5 86
Ġ6 43
spect rum
Ġto w
kp atrick
Ġhn c
Ġpeac ock
8 01
Ġo sm
Ġk ly
Ġar tin
ib bo
Ġshrink age
3 09
Ġq a
Ġgi ac
op ad
Ġpseud oc
Ġadop ts
Ġmemory less
Ġj on
Ġ5 31
Ġadiabatic ity
Ġp sp
id en
Ġspeed up
Ġc ree
Ġd in
an as
Ġrel ied
Ġdr ug
Ġt ai
Ġo ught
Ġf ell
ig o
Ġellipso ids
Ġs ons
Ġcl in
Ġpiezo electric
Ġale ph
Ġa romatic
Ġag s
Ġlocal ize
Ġte o
Ġben j
sc ured
Ġl lo
Ġon board
umin ous
3 35
Ġobserv ability
Ġunder way
18 01
Ġsph al
Ġcongru ent
Ġx l
Ġround ed
y ll
Ġw k
Ġsc ene
Ġqu in
low ski
04 06
27 1
Ġms ugra
ken stein
Ġkir kpatrick
Ġcab ibbo
Ġlope z
Ġt ick
Ġc umm
si er
se v
Ġstriking ly
ar ticle
Ġtail ed
Ġdiscrimin ating
Ġ6 01
Ġ6 07
Ġfo il
analy tic
ec e
Ġk ong
ax y
Ġquas im
r un
Ġherm es
Ġric c
l ong
qu ation
Ġ5 28
Ġz s
Ġ7 20
Ġoff line
Ġcp a
Ġchakrabar ti
f unc
Ġcollabor ative
Ġhetero structure
c er
Ġex its
Ġlat ency
Ġsymmetri zation
Ġqu est
ott om
Ġ6 000
Ġphas ediag
th etic
Ġinf erences
bur y
y al
Ġth re
Ġb x
ab c
sy mmetri
Ġjo ins
const rain
Ġm am
Ġdun lop
Ġunob scured
Ġ6 15
Ġun ve
Ġcounter ions
Ġpost doc
2 06
Ġr rab
Ġcor por
Ġgener ous
Ġbas al
Ġmig rate
Ġorgan ised
Ġpin k
vers y
Ġprom ote
Ġunre ason
Ġextinction s
Ġla e
Ġenc aps
Ġinduct ance
l on
Ġdich ro
t b
Ġst u
Ġv in
Ġmet z
Ġid s
Ġ ics
Ġn au
el in
Ġcontro versy
Ġinsight ful
Ġcr it
Ġoverden se
Ġunivers itt
Ġdimin ished
Ġciv ita
Ġener g
Ġ6 45
Ġstrength en
Ġtr s
19 97
Ġls nd
Ġl op
ut s
Ġcalib rators
Ġvers ati
Ġdar boux
00 08
Ġrecip es
Ġgu ides
Ġfoli ations
Ġzen o
y y
Ġk ic
Ġy ao
Ġsuper field
Ġjul ia
Ġanch or
f ort
Ġmin er
326 9
4 12
b ling
Ġw b
Ġdo zen
Ġbreak out
Ġprecess ing
Ġdanger ous
Ġcomp ass
Ġd jor
Ġdecis ive
Ġcorrel ating
Ġreal m
isc id
Ġkauff man
Ġsh aw
Ġge bh
26 1
comp onents
Ġapproxim ants
g ens
Ġw ik
Ġb ous
Ġunid irectional
Ġt ong
Ġl ma
Ġ6 30
39 8
Ġv z
ir m
Ġ13 00
hy dro
Ġkoch anek
Ġindust ry
Ġsd p
Ġg zk
Ġsolen oid
p res
Ġl ump
l j
Ġc un
Ġbe auti
Ġim fs
Ġsak ai
Ġmex ico
i tively
Ġrecall ed
Ġpick s
Ġdele te
Ġdescend ants
Ġz ol
const ant
Ġbut ler
Ġfer ra
Ġch ie
Ġ19 54
Ġmagneti sation
Ġdimer ization
46 0
Ġs ers
Ġn ie
sol id
Ġmas on
Ġef imov
Ġborder s
Ġcompress ing
Ġv ec
Ġsc ov
Ġcoal esc
Ġan ode
Ġdim ming
Ġphilosoph y
Ġpfaff ian
Ġqu tr
Ġx ia
Ġsf b
Ġexceed ed
Ġsach s
Ġmin ipage
Ġvul ner
Ġ5 70
Ġser vers
rr r
Ġcust omers
Ġtw itter
35 2
Ġavoid ance
Ġbimod ality
Ġrep orting
Ġdisapp eared
g ic
Ġe z
o j
38 5
Ġsevent h
h art
Ġdiffus ing
Ġacceler ates
Ġs st
av y
Ġdjor gov
Ġpolar ons
Ġab d
Ġmul ler
Ġhol m
Ġoverl ay
Ġposed ness
Ġcous ins
n ucl
Ġ6 11
Ġign or
Ġparametr ically
Ġe ich
Ġint ract
12 01
Ġpan ts
re cent
Ġ4 91
Ġisa ac
Ġr as
Ġfin ance
Ġrenew al
Ġre ass
st ract
Ġch ron
Ġcf l
Ġpark es
pul se
com ings
Ġc age
Ġk oyama
gra v
Ġer c
Ġep ist
Ġi ram
Ġno tices
Ġbrog lie
i ol
i ber
Ġb ial
Ġpr ingle
Ġbary ogenesis
yc k
Ġshib ata
Ġch eval
Ġcolleag ues
or r
Ġj p
Ġbo u
ash berg
48 5
Ġco valent
Ġsee beck
Ġrefr iger
Ġ0 16
Ġme xt
ch ild
Ġshort comings
Ġmac roscop
Ġemphas izes
n stein
Ġg ong
unc an
h p
Ġper ot
Ġlynd en
m z
Ġp pt
Ġspatiot emporal
Ġf ores
Ġexp an
neighb or
Ġfac ed
3 03
d q
Ġby pass
Ġinv iscid
Ġgre ene
ull ivan
Ġte lec
Ġcheval ier
u el
di es
Ġhot spot
Ġstein hardt
Ġh ing
Ġ5 98
Ġsr c
Ġrenew ed
2 19
Ġsuper part
Ġconserv atively
abs orption
Ġocc uring
Ġorgan isms
Ġls r
Ġha z
Ġtransmit s
Ġin vers
Ġm erm
Ġz ip
pect ra
Ġy un
Ġrelax ations
Ġ47 8
Ġcontroll ability
g man
od a
Ġminim ax
er ni
Ġdisc ipl
Ġtranslation ally
Ġoctahed ral
Ġstand ardi
4 36
[ ,
Ġt ame
Ġdist ribut
Ġchi ang
t el
Ġbi ophys
prof ile
Ġisotrop ically
Ġpassiv ely
apat ra
n etwork
x m
Ġz ar
Ġ6 95
Ġstair case
Ġerrone ous
Ġreinfor ce
id o
Ġrepar ametri
p aces
st atis
27 6
Ġ48 6
Ġdjorgov ski
Ġa ql
Ġreal isation
Ġb ip
ch ev
Ġtherm ostat
Ġcontext ual
Ġang el
Ġcycl ically
45 1
os ystem
t uples
Ġco eff
Ġcal tech
Ġeas iest
Ġdim opoulos
Ġport ra
d ac
Ġm all
ver sed
ore g
Ġprop oses
Ġmer cur
Ġg cm
Ġde kel
Ġk c
Ġha as
Ġar te
Ġbr st
Ġex isted
06 02
st acks
Ġac ids
Ġske in
Ġs leptons
Ġ6 33
Ġasy m
Ġshort cut
Ġd uncan
is able
Ġn ol
Ġkn ight
Ġspik ing
Ġtrough s
Ġscov ille
12 11
Ġn im
Ġfor tran
Ġ6 49
Ġsucceed ed
Ġscr utin
r it
Ġ47 6
spect ra
Ġhom ological
al k
ign e
Ġquas in
Ġlar sen
Ġ6 06
Ġl ud
cross ing
an elli
Ġasympt ote
Ġfres nel
Ġle ith
Ġ7 10
Ġf us
Ġan th
Ġannihil ated
erni ble
electron ic
Ġmulti band
Ġrul ing
Ġunobser ved
4 07
Ġm ast
Ġgra de
Ġeucl id
Ġfavour able
Ġn ess
:[ [
Ġl on
Ġrob in
Ġd ella
de w
Ġ6 40
ath an
Ġstra ined
Ġauth entic
Ġcover ings
opad hy
un o
Ġhoff man
Ġem bod
Ġstream er
Ġv cc
Ġconstant ly
Ġch at
ulti pl
te e
Ġmin ors
ll l
Ġcot angent
Ġpro d
Ġenv ision
c avity
Ġ6 97
Ġtri valent
Ġloss less
Ġdisag ree
44 7
al ph
od ule
up per
Ġhor ne
Ġdi a
Ġconst ancy
Ġsuper vised
turb ul
bs ch
Ġgeorg i
Ġabsorp tive
s j
Ġko e
Ġalfvn ic
co h
Ġwant ed
ad d
Ġq pt
Ġs ze
Ġ0 46
l ings
Ġn og
Ġconsum ed
z ak
Ġ6 04
Ġclassif iers
Ġlandsc apes
Ġhoy le
Ġllo yd
sch eme
Ġschedul ed
Ġmathi eu
ug g
Ġstruct urally
Ġobey ed
iz u
Ġcree p
Ġunder ground
Ġinterf erences
ategor ies
Ġpa w
Ġtrans action
Ġ6 35
Ġhc p
Ġtr gb
Ġfrag ile
Ġle b
Ġ6 41
Ġref lective
Ġg ned
ron ics
utter ing
Ġt ides
Ġsdss j
Ġunac cept
st a
Ġrobust ly
Ġ57 1
ori ented
Ġeigenfrequ encies
Ġal arm
Ġdegener ated
Ġdavid son
Ġblo om
Ġoffsp ring
Ġlar kin
Ġx iao
st yle
Ġbr ush
cy clic
Ġ4 94
Ġno jiri
Ġbl ends
49 5
Ġ47 4
11 12
Ġaccep ting
( )]
ag in
Ġunc om
",,,, ,",
Ġp rand
38 3
Ġf az
Ġh ann
Ġde em
Ġam er
Ġmk n
Ġjud ge
Ġrelativistic ally
Ġem ulsion
Ġnormal ity
ni um
Ġseem ed
Ġcooper ators
Ġcc f
Ġre ion
Ġel vis
Ġ4 92
ft y
Ġt res
Ġdisc l
Ġeli ashberg
Ġnormal izable
Ġchrist ensen
od ers
Ġmo ti
Ġy ee
Ġaff inity
Ġsa pp
Ġtempor ary
Ġrk ky
Ġschott ky
Ġpl un
eg o
Ġrun time
Ġdeconv olved
ac ing
Ġsuff ered
k f
Ġap s
line width
Ġconsel ice
Ġdef oc
Ġpol i
Ġf elt
Ġch lor
Ġco poly
Ġ6 36
int o
ars ec
m en
r ish
Ġd ess
ge e
Ġc gs
Ġd ered
az ov
Ġmis aligned
Ġpatch y
Ġrecon cil
Ġenj oy
03 05
s em
Ġv essel
th ick
Ġt dd
Ġch un
Ġet al
Ġtransmit ters
Ġv ander
Ġbo h
hol omorphic
z p
in ce
Ġrandom ization
Ġmath is
Ġoxid ation
Ġuncondition al
se q
Ġrearrang ing
Ġwh im
05 05
57 6
Ġbreath ers
ag on
Ġrec tif
Ġsubs urface
Ġbi ol
Ġ48 2
Ġh ouse
Ġmas lov
Ġel ast
Ġuhec rs
Ġfug acity
out burst
Ġcomplic ates
flu id
Ġplastic ity
Ġf og
Ġd st
def ined
Ġmart n
Ġrus sia
Ġkas pi
label ed
Ġpo res
Ġrecept or
Ġd ing
tr ack
Ġ00 2
Ġflag ged
Ġphotom ultipl
Ġsp lines
ll iptic
Ġpolyn om
Ġwol ff
Ġcor p
Ġfer land
Ġaer og
Ġd uc
Ġform an
Ġent ail
Ġdoub les
Ġsp oil
Ġspin ons
Ġsd o
Ġovershoot ing
Ġcath ode
Ġe il
Ġco ales
100 1
Ġdew itt
di v
erm ions
Ġiniti ative
Ġprel imin
Ġst ev
Ġdifferenti ally
Ġmoun tain
Ġmuk h
Ġuns aturated
Ġny quist
Ġexcursion s
Ġlo ads
Ġannihil ates
g ray
um dar
Ġbu y
Ġham ed
Ġgrassmann ian
g ate
nd ip
Ġbes ide
Ġff lo
Ġreflex ive
Ġinterchang ing
im os
Ġpert ur
Ġj ong
Ġax ps
35 4
Ġwar mer
kb einer
Ġsf e
Ġhost ed
Ġdub bed
Ġco uch
Ġint el
Ġmb ar
mu ir
Ġl uk
03 03
Ġc sc
Ġu he
Ġstr aton
hand le
ar de
Ġfr g
Ġcall ing
ele ments
Ġber tsch
pe ak
stra nd
Ġhyperc ube
Ġfin kbeiner
Ġlink age
icy clic
Ġequip ment
Ġhx r
Ġwro te
Ġm fs
02 01
val ence
44 9
Ġbandpass es
Ġs ari
Ġd erm
Ġfor s
Ġ6 05
Ġadop tion
Ġnan of
att ered
ck el
Ġpush es
br anch
Ġcomplement arity
Ġsupercluster s
Ġ6 31
Ġchar les
no ise
Ġ6 71
Ġste pping
Ġreform ulated
Ġcre di
Ġsc her
ret ta
Ġinac cessible
Ġcampaign s
Ġfuch s
om ain
me an
station ary
Ġteg mark
Ġc ts
Ġexempl ified
Ġglitch es
5 12
44 4
Ġ6 21
Ġsemigroup s
Ġs ier
Ġc ef
Ġpayoff s
Ġdeploy ed
Ġmoh apatra
Ġyanag ida
Ġn ij
Ġsf hs
Ġh bl
Ġco ok
Ġac qu
38 9
Ġroll s
Ġhalper n
Ġgebh ardt
Ġbin o
45 9
Ġweb b
Ġc ations
Ġlang muir
Ġpetro sian
er gs
Ġlum o
Ġg one
Ġph ased
se lection
Ġcycl ing
compar ison
Ġsere ndip
Ġc ib
ash ima
) )]
Ġb ona
Ġ5 88
Ġdeb ated
Ġbarycent ric
Ġro se
ari a
Ġmart nez
Ġl anz
68 0
Ġgaug es
exc itation
Ġbirefring ence
38 7
Ġcollision ally
Ġrevers es
4 32
Ġbar rel
Ġaccur acies
Ġk ud
ub s
Ġw ess
Ġe ev
100 6
Ġcount ably
Ġnav ig
Ġdiscard ing
Ġmul tin
Ġmanifest ations
Ġhome omorphisms
us z
Ġtri partite
Ġfem tos
Ġargu ably
Ġst sci
Ġ7 57
Ġsem il
Ġs sm
Ġsy nd
Ġinter le
Ġper ron
Ġb ing
Ġgu ill
Ġkn ock
Ġmicro structure
Ġball oon
Ġm go
Ġq ian
Ġtrain s
bre ak
); (
Ġdistill ation
Ġantip odal
Ġd une
Ġimp rint
Ġhy ades
as is
Ġg reek
Ġastronom ers
Ġspec ular
Ġun ra
Ġeconom ics
coupl ing
k z
Ġh oh
Ġconf lu
Ġbrane world
Ġch ords
Ġdel gado
Ġintra band
Ġare c
Ġsh ir
Ġcl ue
Ġs iv
Ġand r
Ġexp elled
Ġgned in
Ġrev ision
Ġbu ff
Ġte ach
Ġdeceler ated
Ġmercur y
quis ite
4 06
Ġnarrow band
Ġt ale
ro y
Ġre entr
Ġboost s
Ġark ani
t d
Ġass ets
Ġ9 99
rop ri
Ġdd o
Ġuns olved
Ġschem a
Ġtex as
Ġshiel ded
Ġprogres sive
Ġreform ulation
y mmetry
Ġan r
em ura
Ġdimin ish
Ġsh in
Ġnucle oti
j ima
19 96
Ġprogress es
ospect ral
Ġent rain
y k
Ġfocus sed
Ġbert ol
Ġp cs
Ġh atched
Ġl x
Ġ5 51
Ġ6 66
Ġsen der
cl assif
Ġenumer ate
v l
rm ann
Ġcolumn ar
Ġpref actors
Ġmi rab
Ġls da
Ġpm n
Ġkp no
Ġcont ra
Ġtag s
Ġtra versed
Ġinsp ected
Ġhv cs
Ġobli qu
Ġpentag on
Ġelect roproduction
Ġhi j
e o
Ġx b
und s
Ġfr ances
Ġcode book
Ġiniti ate
Ġcen tim
Ġal titudes
Ġso ho
Ġq f
Ġprovid ence
Ġheter oclinic
Ġoccul tation
Ġn ets
Ġg os
Ġres ampling
adi um
Ġbunch es
Ġalon so
Ġelect romagn
its ch
Ġengine ered
r ank
Ġover look
Ġinde finite
Ġblow ing
n is
Ġsc s
p v
Ġv idal
Ġat h
man y
Ġi ps
def inition
Ġp rad
Ġexec ute
Ġunim odal
Ġchim era
hamil tonian
so v
Ġstrength ened
Ġz no
Ġtransl ocation
Ġd ps
et to
Ġmulti l
Ġimpro per
Ġcave ats
Ġk itt
Ġ6 99
38 6
Ġ6 17
Ġcam eron
Ġvog el
Ġ0 23
radi us
Ġpati ents
Ġco ag
Ġoverd oped
Ġl od
Ġmay or
Ġsd b
Ġadjust ments
Ġpe tit
Ġkoster litz
Ġno ble
os o
Ġfl am
Ġrv b
on ential
36 7
Ġinterch anged
Ġswim ming
Ġst oring
con vex
enb eck
Ġcumm ings
Ġcr ash
Ġ7 77
Ġundo ub
are z
Ġter levich
Ġhomogen ization
Ġpostdoc toral
c oc
Ġp z
Ġvi ability
37 8
Ġfa de
sim pl
Ġa udi
Ġvector ial
Ġtermin ating
Ġt ier
Ġe jections
Ġbil ayers
Ġsit ting
Ġbald win
Ġst all
Ġoptim isation
Ġdrawback s
Ġferra rese
v f
tens or
Ġf ese
Ġleith erer
Ġsim bad
Ġsuper outburst
05 07
Ġd og
Ġy ba
Ġhyper nuclei
Ġultra fast
Ġsharp ness
chl ore
at ton
Ġtang les
Ġm rs
Ġgam ow
Ġmultip olar
Ġtess ellation
Ġm ms
vi i
Ġkro lik
Ġspectrophot ometric
ab er
ser ies
Ġperiod icities
Ġfron ti
ibo one
h g
w ald
Ġd val
Ġal ors
Ġi id
Ġsem if
36 6
th reshold
22 12
Ġca ii
Ġfragment ed
Ġplanck ian
Ġk ats
Ġminim izers
Ġsal v
alc ogen
ad ze
Ġinde fin
Ġbur ke
ints ov
Ġhypere lliptic
j u
agn et
Ġiv ison
Ġmari e
Ġsp all
ex change
Ġantine utrinos
Ġp id
Ġso us
Ġkick ed
Ġinter conn
q k
Ġkn ig
110 2
Ġcircul ating
Ġpertur ber
ra pid
Ġlb v
Ġmillen nium
4 35
Ġnow ak
Ġsa h
Ġsubdivid ed
h tein
Ġhe ads
ra ti
s pherical
Ġu ves
Ġshiel ds
x r
ch eme
l k
Ġv bs
03 07
Ġzak harov
ole y
7 01
Ġch ow
02 05
Ġmark er
Ġattr act
Ġar rh
Ġsanch ez
Ġstochastic ity
Ġpo g
normal ized
Ġm other
Ġries z
k og
Ġr ath
Ġz ener
parti tion
Ġm ish
Ġele ction
ov al
Ġplum mer
ac in
Ġsh ull
Ġass ist
Ġ10 20
Ġmoti fs
Ġat p
atur al
Ġfoot print
or us
Ġinteg rates
Ġsb c
Ġwes ley
Ġmus ic
3 28
Ġw als
Ġl acey
Ġnumer ic
Ġstraton ovich
08 01
49 7
err or
Ġrm k
Ġkol b
Ġling u
Ġphylogen etic
Ġa ic
Ġg ian
Ġhemis pheres
Ġdisreg arded
Ġalam os
Ġr on
Ġfactor izable
umm ary
Ġsg rs
Ġlaz arian
w t
ag lia
01 06
Ġin jectivity
Ġdec ent
Ġloc c
Ġcol der
Ġcharacter isation
49 8
Ġ00 4
Ġmill ions
Ġworld line
Ġaccommod ated
Ġtec n
Ġg ang
Ġtr u
Ġ5 83
01 02
Ġgp ds
ryst als
Ġto da
Ġtetra quark
Ġg ur
Ġst a
00 11
Ġoccup ations
Ġvanishing ly
en ov
Ġinter lo
Ġow en
c over
p u
ar ri
Ġout look
zy me
48 8
Ġ57 6
Ġb ild
Ġnow here
Ġst ably
Ġfe at
Ġdop ita
Ġch ond
Ġ6 23
Ġrs g
Ġcris is
Ġhv c
Ġspr ings
Ġicosahed ral
Ġquasin ormal
Ġ6 87
Ġpyro chlore
s ar
Ġinst r
44 6
Ġtrunc ating
Ġcr ank
47 9
f o
Ġon site
pl as
Ġtrans duc
Ġsch e
Ġgl imp
Ġreques ted
qu are
37 9
Ġod intsov
Ġunderestim ation
Ġinterpol ates
Ġemitt ance
Ġprecurs ors
Ġ5 62
45 2
Ġeconom y
4 11
Ġpar adi
Ġdec oded
Ġpre processing
Ġoff s
Ġstrip ed
x a
Ġst rm
Ġac k
oun ted
Ġcost ly
Ġstream lines
Ġphotod iod
3 06
12 03
Ġmicro tub
Ġuran us
Ġs au
Ġc ig
Ġse q
Ġpam ela
f igur
l ist
Ġp fe
om a
Ġ0 26
Ġwal king
z ers
Ġj ing
Ġsupercon formal
Ġcoroll aries
Ġyam aguchi
Ġoverestim ation
Ġdval i
Ġn ust
Ġmagnet oc
eff ective
Ġalex and
Ġinc ur
Ġampl ify
Ġoh m
Ġhal ves
Ġhol len
Ġexcell ence
Ġsett les
Ġmcl a
bond ing
Ġadatom s
Ġbar ab
app ropri
Ġpb c
Ġ, (
Ġcompens ates
as awa
Ġsch l
Ġ57 9
Ġzer op
Ġundet ect
Ġcr uz
Ġadv ected
min imal
Ġappe al
Ġpain lev
Ġancest or
h b
Ġc is
Ġpair ings
Ġrec tification
g k
ur rent
Ġliv io
Ġre bin
ill an
Ġlock man
Ġdict ates
Ġprand tl
Ġtex ts
Ġbe kenstein
Ġmor ita
Ġ6 98
dsh eet
Ġlamb d
Ġs ap
Ġ6 19
,, ,
Ġprot ect
Ġbutter fly
Ġh ul
Ġsur rog
reg ions
Ġdrag ging
Ġhandle body
Ġl rg
Ġexperi encing
- )(
Ġan osov
Ġelliptic ities
Ġunit aries
b ank
Ġ6 29
Ġannihil ating
Ġsh ah
Ġpyth on
es ium
Ġfl op
Ġstra uss
Ġrob otic
Ġfulfill ing
Ġt ank
Ġ; ;
Ġproportion ally
Ġcoun try
ograph ically
orthog onal
or ic
Ġg dr
Ġwe y
Ġpredict able
Ġclean ing
Ġspectrom eters
Ġmultiplex ing
Ġsp dc
Ġme h
vi an
int ock
Ġphotometr ically
Ġdigiti zed
Ġcred it
Ġsub ordin
Ġbos ch
Ġadap ting
v ir
Ġrec eding
Ġsl ide
Ġupl ink
re ra
Ġsub rout
Ġsuper lattices
Ġflat s
Ġpor osity
( ,)
Ġ0 53
Ġass ure
Ġinf ecti
Ġspecial ize
kern el
le an
Ġsp a
Ġch sh
ell ular
Ġlo ew
p j
Ġc res
bound ed
Ġab and
Ġdi atomic
Ġx ie
Ġexper t
Ġ48 4
k man
Ġheuristic s
Ġc iao
or io
Ġ( [
Ġ6 73
Ġent angling
Ġ00 5
Ġbra ided
Ġcasc ading
Ġdup lex
Ġdi lemma
Ġglimp se
p olarized
36 1
Ġtuc ker
un it
Ġpopular ity
v r
Ġcommit tee
Ġtransvers ality
Ġa ips
Ġtim ed
Ġu j
Ġple asure
Ġbus iness
Ġeigens pace
Ġar rest
Ġem c
Ġ57 3
Ġpoll ution
Ġm ous
ug ita
Ġtm r
d os
Ġl av
Ġresol ves
Ġto ur
00 10
Ġx rd
Ġmich el
Ġcoales ce
Ġch op
Ġ7 01
Ġsb f
Ġrelay ing
ell s
Ġlocal isation
ensur ability
aul ay
Ġg sc
st ab
Ġprecip it
Ġmimick ing
en et
09 03
Ġun restricted
Ġarrh enius
Ġbi axial
Ġcontamin ants
Ġmar coni
Ġperc enti
Ġp ss
Ġal v
Ġsubvari ety
Ġsapp hire
Ġ0 73
Ġpic tor
orbit s
Ġbouw ens
Ġinfecti ous
w es
Ġallow able
Ġglob ule
Ġplen um
Ġarec ibo
Ġgr ig
Ġmetamaterial s
tic ular
47 2
Ġneb ul
Ġuncont roll
Ġto ken
Ġg arch
Ġind isp
co o
Ġsuperh umps
ian a
37 3
Ġt iel
Ġw m
Ġpred ator
rec ently
Ġmain ten
Ġfix ation
Ġbar otropic
Ġparadi js
Ġtent h
Ġinc ome
Ġcar illi
Ġfuk ugita
Ġon c
pp en
con j
37 4
yl ene
Ġq k
Ġed dies
Ġwor ry
Ġenc irc
Ġmor an
Ġt rot
04 07
Ġanharmonic ity
Ġw dm
au ge
Ġtensor ial
endi eck
Ġantenna e
Ġimm un
order ing
Ġmagnetohydro dynamic
Ġmacroscop ically
az awa
Ġv ag
Ġrel abel
Ġwas hed
w icz
Ġin appropri
as ka
Ġmar z
Ġdraw s
Ġbelt rami
Ġtheor ists
Ġthr ust
Ġtremend ous
Ġd angling
Ġloc ating
Ġcharacter izations
Ġutil ization
Ġwes ter
Ġnomin ally
Ġw ino
Ġ6 77
Ġmonth ly
Ġmccl intock
w m
Ġper dew
Ġdr ifting
Ġforeground s
j d
ar ithm
Ġ6 09
Ġelectro chemical
Ġsight line
Ġabst raction
poly nomial
Ġabsc issa
Ġintract able
Ġformal isms
Ġwar r
Ġequ i
Ġoverplot ted
Ġg q
39 1
Ġze il
Ġkam land
Ġh edge
Ġj ast
Ġsupp osing
19 95
bound s
,,,, ,,,,
Ġadd ison
Ġrevers als
p x
ov sky
Ġnan om
Ġfor bes
Ġar naud
Ġmac aulay
inter p
Ġw ron
08 10
Ġ17 00
Ġbenj amin
Ġq j
Ġconc ret
Ġresist ances
Ġgme z
Ġr pm
Ġz urek
Ġden is
Ġri ver
Ġr ating
Ġgen eva
Ġrepe ats
Ġtouch es
Ġsp ear
Ġbl ok
Ġspec im
Ġthir ty
Ġelse vier
Ġmetro logy
Ġg ust
Ġcir ac
Ġg oto
Ġinterch ain
Ġbenchmark s
Ġtc p
Ġjay nes
Ġare al
Ġmem ories
Ġ00 3
Ġpref ers
Ġcolour ing
Ġplaus ibly
Ġgroth endieck
Ġferr aro
cl ose
Ġpenetr ating
2 17
Ġ6 80
Ġn ser
haus er
Ġm um
Ġcl are
Ġpoint like
Ġgraph ics
Ġmcla ughlin
Ġk iv
Ġrep ublic
Ġmulti phase
ri ed
Ġnond ec
Ġv j
Ġsch m
equ ivalent
sch itz
gr an
r or
ith e
enc l
cc o
assi um
Ġvot ing
Ġmonoton ously
Ġ6 53
Ġproduc tions
Ġsimpl istic
47 8
Ġmc k
Ġsax on
ti ker
Ġb ish
Ġmo ff
38 1
Ġsemimet al
in duced
Ġh amp
Ġv x
ag ement
ple ts
Ġsur fact
Ġdop ant
Ġab normal
Ġdesc ript
12 02
Ġconc avity
Ġwor they
Ġcar s
Ġs ont
Ġeng land
Ġmultim ode
ut ron
e igen
er i
Ġor nstein
Ġk ok
Ġch ung
Ġbc ds
Ġis oper
Ġv ish
100 5
Ġser ving
il ic
Ġle ts
Ġampl ifiers
Ġpattern ed
Ġham mer
Ġpolynom ially
Ġinterm olecular
an ian
Ġk ah
Ġcalib rating
ent hal
Ġdetach ment
Ġdo ver
Ġman chester
Ġts uj
i en
Ġs ly
ic ture
Ġfin sler
Ġcons pic
Ġdem agneti
he avy
Ġuhl enbeck
q a
w ijk
el mann
Ġbe rez
Ġ5 42
44 2
ss en
Ġdred ge
Ġfl ick
Ġplan s
Ġsolv ability
Ġc ps
Ġassoci ating
Ġgir ardi
Ġs its
Ġj pl
Ġmodul ator
Ġram ond
Ġbeauti ful
Ġdeterminant al
Ġneu ro
Ġinher its
Ġaber ration
ens able
Ġz fc
Ġpot assium
ans ki
Ġpre re
Ġstr at
bi as
Ġro gers
Ġhab it
Ġmitig ate
99 8
Ġsz ab
03 02
09 04
Ġvac c
39 4
e j
ad os
Ġmath ews
39 3
Ġlingu istic
n uclear
][ (
Ġmor rison
Ġgib son
v ili
Ġs ki
or ous
Ġsh an
Ġco u
Ġ19 00
Ġ0 52
Ġ6 68
small matrix
Ġgraph ic
Ġcomplex ities
Ġphysi que
ting s
Ġnser c
5 02
n g
Ġhyper charge
Ġregion al
Ġwi en
49 6
Ġhi ro
Ġcovari ates
Ġsar ma
Ġdise ases
Ġattribut able
ren ormal
Ġaggreg ated
Ġkom atsu
Ġev acu
Ġ6 52
Ġu x
Ġferr im
Ġcd fs
rand om
Ġsuperbub ble
Ġinvers es
3 05
Ġdef lected
ho e
Ġghost s
b ridge
Ġ) (
Ġspectrograph s
Ġlil ly
Ġb rin
Ġq ws
Ġkrav tsov
Ġconcret ely
Ġ- ,
12 05
one y
44 8
65 8
opadhy ay
ti k
Ġrec ycl
Ġbr ans
07 10
Ġgu idel
Ġg ent
Ġnet zer
Ġi o
110 6
Ġls st
Ġry an
Ġhun t
Ġg eller
tern al
Ġs ip
is ters
Ġfavor ing
Ġcit ations
47 0
Ġdual s
Ġ19 52
Ġgr atton
cl usive
Ġmand atory
Ġresist or
Ġsh akura
01 04
Ġcataly tic
Ġ0 66
Ġ6 20
09 02
ott a
Ġconflic ting
i ance
x on
off el
Ġba ugh
Ġl ris
th en
Ġelect rom
Ġjcm t
; [
Ġper ry
Ġrec ap
Ġscul ptor
2 18
Ġpret ty
Ġof dm
Ġ6 85
sc re
Ġgm rt
Ġholograph y
r j
Ġ6 42
Ġfall back
Ġrr c
prin ts
Ġre organ
ol umin
Ġ6 03
Ġorb ifolds
Ġw er
Ġd cs
orph ism
Ġcm c
Ġmanip ulating
Ġc emp
Ġcoll o
99 5
Ġconstit uting
Ġnich ol
ig s
110 5
Ġschol ars
Ġwar ren
Ġhen ning
Ġst agn
Ġr ss
Ġsm ol
Ġcompens ating
Ġchord al
Ġv az
Ġso it
urb ed
39 2
Ġcovari ances
: (
Ġk op
Ġ6 27
37 1
49 0
Ġdescend ant
37 6
Ġw g
Ġst am
th est
Ġre e
Ġ7 05
46 8
Ġc cm
Ġtrig onal
Ġsucces sion
Ġtt f
Ġjast row
Ġp ess
Ġg lo
Ġvis iting
Ġdu ff
Ġoverla pped
Ġnsf c
06 07
3 04
Ġr z
Ġbacter ial
Ġhors es
neighbor hood
Ġun balanced
ad j
ud ice
Ġmin iboone
Ġdr aco
t ail
Ġph oen
Ġch amp
Ġelectro lyte
Ġbe ating
Ġk amp
Ġ6 70
08 03
f ors
Ġcf a
Ġprincip ally
Ġcharg inos
uw en
Ġco bal
Ġj ak
Ġp pp
Ġspec ul
Ġjump ing
Ġur qmd
Ġchar lie
Ġprec oding
Ġparallel ism
Ġstrate gic
Ġls d
rapid ity
Ġp bs
st am
Ġmis id
exc iton
Ġinhibit ory
ar n
07 05
48 2
Ġbetween ness
Ġhu ber
Ġrup ture
n ic
Ġc ccc
es si
ain ed
Ġgro ver
Ġantiferromagn ets
Ġwe is
110 4
Ġc ui
Ġnon monot
Ġaw gn
Ġh ass
ay e
v ec
Ġba er
Ġlatit ud
Ġundetect able
Ġ5 96
Ġdri p
t em
Ġcl oseness
Ġheav iest
Ġrf i
Ġunexpl ored
z in
Ġan ion
tal igned
Ġsp uttering
Ġschul z
Ġcompactif ications
at ers
Ġh ou
Ġfactor ize
05 04
Ġdiscreti ze
Ġgenu inely
Ġc vn
Ġp ud
agn etism
Ġland olt
Ġmonol ith
Ġin it
Ġmo tif
Ġjoh ns
es se
tit ution
Ġbre gman
Ġram ification
Ġdimer ized
Ġz inc
Ġimp rac
Ġdegener ation
46 2
lim ited
Ġrepeti tions
Ġclay ton
Ġ7 25
po sitive
Ġthree fold
36 9
Ġundist urbed
an off
Ġdiscrep ant
iment al
Ġsp ends
Ġsatisf action
Ġ204 8
Ġf om
Ġintegrand s
Ġtiel ens
Ġo em
pro duction
Ġsimul ates
Ġsplit ters
for ce
Ġuniver sid
Ġtow ers
Ġf ender
Ġfidel ities
Ġcontradict ory
Ġ0 93
Ġbi j
38 2
Ġmos s
Ġfoot points
iss en
Ġforecas ting
c g
Ġd ith
Ġcon ti
Ġcop ula
k hz
Ġdiver g
hol z
s q
02 04
ox ide
Ġindefin itely
Ġs se
Ġmc ga
Ġpap ad
k aya
Ġq ss
Ġer b
Ġmulti photon
Ġher wig
3 14
Ġhere d
Ġden g
Ġfaz io
Ġ7 16
Ġreal isations
Ġm sc
Ġweak en
Ġcategor ical
Ġundoub tedly
Ġsn s
Ġs ge
Ġ0 32
Ġanch oring
Ġwals h
Ġ7 03
3 27
Ġs ark
Ġfacilit ated
Ġanch ored
Ġnust ar
Ġquand le
electron s
Ġsupercomput er
ult ural
Ġindisp ensable
Ġf ide
Ġtight ness
Ġm ds
Ġhow ard
3 24
l g
ar ted
Ġv y
Ġbene ath
Ġtw e
Ġhas inger
Ġmon og
Ġenl arge
46 4
b im
r ut
radi al
cr it
Ġheli osphere
lan l
d yn
Ġsp ire
Ġsub optimal
Ġflat tens
Ġreview ing
5 47
en y
Ġma eda
war t
se lected
Ġhar vard
Ġmcga ugh
Ġcur ious
Ġber tin
Ġjam med
Ġantipro tons
Ġmec s
en es
un nel
Ġreg ulate
Ġgb t
Ġetch ing
Ġdef lag
08 06
Ġenfor cing
Ġcaus ally
st o
Ġli ver
Ġze h
re ys
Ġwar ner
Ġy as
Ġdisc ernible
Ġstrength ening
Ġhum ans
Ġimm ob
Ġsupersc ripts
Ġmonoton ous
i ak
ann o
Ġpicture d
Ġham ann
Ġf igh
Ġy in
08 09
Ġrh y
x c
Ġa qu
Ġaccre tes
Ġauc tion
ur th
37 2
Ġex o
Ġbandwidth s
Ġa ided
Ġch ev
Ġ6 28
Ġdes ire
Ġinappropri ate
pl ing
Ġfield ing
46 7
Ġround ing
Ġbow en
Ġoutper form
et ts
36 2
4 20
Ġ0 56
Ġunobser vable
Ġbirkh off
Ġisobar ic
Ġrecycl ing
Ġg oss
ies e
meas urable
Ġw ound
Ġan tiv
ub ini
reson ance
Ġh mm
Ġas pherical
ess ler
Ġcolor ings
Ġsolv ation
Ġc tr
Ġad ver
mut ter
t win
Ġk et
Ġpal ma
Ġwra pping
Ġricc ati
nd er
Ġdecomp osable
Ġma rel
Ġfeat uring
Ġc in
ad joint
Ġ5 89
Ġobtain able
Ġl qc
Ġcent ro
Ġpred omin
Ġhar bor
Ġch oles
65 6
Ġsuperradi ant
3 23
qu anti
Ġco e
Ġpresent ations
we b
Ġinh ib
Ġpolyt rop
x l
Ġmanip ulated
c v
er jee
que ous
Ġinfer ring
Ġoffer ing
Ġmoun t
hi ro
Ġbis ector
Ġp ach
Ġcor n
Ġ8 91
Ġsubs ub
Ġaf ric
Ġansw ering
Ġw ax
ar am
Ġhe ff
Ġconc ise
75 6
Ġgramm ar
Ġk sec
Ġoctahed ron
f ixed
z ewski
fer ro
Ġobsc ure
z io
Ġ ices
Ġrel ics
08 07
Ġdy e
Ġnic ol
gra w
Ġtension s
Ġeg g
Ġquart et
s plit
Ġhel icities
Ġsent ences
Ġadel berger
Ġpseud od
Ġorgan ize
Ġstic king
Ġraref action
Ġre ed
Ġq gs
Ġaff irm
bl ack
Ġs ot
equ ivalence
anni hil
Ġdoug las
Ġa ud
ari as
Ġfren kel
elect ro
Ġlsc o
Ġn ll
Ġat han
Ġtarget ing
Ġiss ued
Ġhapp ening
rot ational
char acter
Ġisg ur
Ġbroad cas
Ġcohes ive
aval isco
re ve
Ġmon ic
Ġsug ra
Ġdaw son
Ġfing ers
Ġt era
Ġma ple
Ġkaw asaki
gaus sian
Ġo conn
Ġgra zing
Ġ6 12
Ġ6 48
Ġinteg ro
)- [
Ġ57 4
abel ian
Ġtol man
Ġworl ds
Ġm df
Ġinf eld
Ġphoton ics
omp onent
d ays
Ġwave bands
47 7
Ġcomp ose
Ġccccc cccc
q e
Ġl it
Ġpro spect
Ġgi avalisco
Ġ47 2
Ġevapor ated
Ġvesic le
in elli
Ġmagn esium
Ġabsor bs
Ġblue ward
rik osov
ri en
Ġcol on
Ġpeculi arity
Ġtung sten
05 06
Ġle ap
11 10
Ġresid ence
b auer
pp i
Ġdo or
Ġstir ring
Ġm ature
Ġe ber
Ġre im
Ġ6 18
Ġfound ed
Ġc ma
09 07
Ġeps rc
Ġo set
Ġ6 61
Ġdistrib utive
Ġconf ront
02 07
Ġanti symmetri
Ġgd el
4 08
Ġexpl ode
44 1
az in
ame le
st s
ot ypes
iz on
Ġbas ics
Ġdifferenti ated
Ġt ps
Ġj our
Ġpl ag
Ġpati ent
Ġvot er
w y
01 05
][ ]
Ġsi egel
Ġlaunch ing
Ġincorrect ly
Ġconges tion
Ġ6 63
Ġchar bon
Ġcons ult
Ġinv alu
), .
Ġworl dsheet
d on
Ġconversion s
Ġlatitud inal
Ġinvalu able
Ġ6 69
Ġnl sp
Ġb ress
Ġscal ability
Ġgre ves
c ode
w aves
Ġs age
Ġha ynes
Ġ7 58
Ġextin ct
Ġfra il
Ġfemtos econd
w ide
z s
Ġs iii
Ġg ated
01 03
Ġser re
Ġassem ble
im ura
Ġwh itt
ir ac
Ġpe b
07 12
Ġha iman
19 87
omorph ically
Ġken yon
Ġb enson
Ġfactor isation
Ġdecay ed
ok u
07 07
Ġk us
Ġmarginal ized
Ġcontamin ating
Ġsubdwar fs
m ul
Ġmer ges
Ġinhib ition
it ant
Ġfact ored
Ġadv ective
Ġunexpected ly
Ġmicron s
g ood
Ġn ils
Ġcal c
Ġden o
Ġpolar imeter
Ġleib niz
4 30
5 11
Ġco prime
Ġfactor izations
Ġps ych
Ġvast ly
Ġlever age
Ġposi tives
Ġreferen ced
Ġab rikosov
Ġrepresent able
Ġbuoy ant
Ġpro ch
Ġag asa
, ;
z ul
ch ini
Ġhot spots
Ġur sa
Ġa rose
Ġis omer
Ġmon oclinic
Ġqud it
f ermion
Ġinter cal
Ġinf n
exp onential
Ġn ave
Ġg ren
Ġstim uli
Ġschro dinger
Ġgreves se
Ġch amele
ik in
Ġtechn ic
Ġb nl
Ġra f
Ġdet erior
ci ence
Ġanti particle
Ġiniti ation
Ġflash es
asy mpt
Ġperl mutter
4 66
t ot
Ġre b
pl ed
Ġlikelihood s
Ġimping ing
p ress
ak ami
oun ce
09 05
Ġmc graw
Ġ36 00
Ġda ophot
Ġcorona e
Ġreform ulate
j es
p ip
w c
Ġdi photon
Ġregular ize
Ġpac zyski
Ġandre ws
Ġoem ler
Ġwe gner
Ġst oc
Ġz m
Ġconcent rating
Ġnu is
Ġbluesh ift
h of
Ġs ri
Ġsign ifies
Ġsuper f
97 8
Ġscre w
Ġsr tio
Ġredd y
Ġero sion
Ġj oy
Ġy y
Ġcle bsch
Ġmargin als
Ġchrist offel
t ane
07 06
nucle us
Ġphotoelectron s
d istance
Ġsu pr
Ġthird ly
Ġconstit uted
Ġseas onal
v k
Ġsub jective
)- -
Ġdq d
Ġmirab el
Ġc uc
Ġd ow
st y
Ġhar b
Ġcour ant
Ġwitness es
ti de
Ġarm ed
Ġpad ova
am atsu
Ġapproxim ant
olumin escence
j ek
Ġa hm
Ġis ol
Ġpoin care
Ġfair ness
Ġgb m
Ġperce ived
Ġ5 94
Ġbi o
Ġp elle
Ġcon way
rot ating
Ġmatte o
Ġs ullivan
Ġl isting
Ġsc et
Ġli b
Ġinst ants
Ġsch ae
Ġbal ances
Ġss b
Ġv iral
Ġsh ut
iff er
Ġam al
Ġbar low
Ġirreg ularities
f oli
Ġparen thesis
u on
Ġinform ations
Ġhin ode
Ġbreak through
Ġal cock
Ġund efined
02 06
Ġantic orrelation
Ġagu ilar
Ġh urst
Ġk und
Ġen zyme
Ġ6 22
Ġsa o
Ġ! !!!!
Ġcircumst ance
Ġrid ges
Ġtrot ter
Ġd umm
Ġha hn
Ġnot or
Ġlam ination
spec ified
01 07
Ġany on
08 04
Ġk ant
path s
Ġswar m
Ġbe ers
Ġgo e
03 12
Ġion ize
Ġburst ein
Ġr ation
Ġfl ights
ha vi
Ġimprac tical
Ġm olar
Ġnon resonant
Ġsuperflu ids
Ġmal dac
Ġmacrom olecules
ome z
ger ing
Ġdev ise
Ġmig dal
Ġmaldac ena
Ġg ating
Ġsw ed
Ġer ased
Ġdra ke
h ock
Ġadsorb ate
g upta
id ium
Ġ6 91
Ġpion ic
Ġsatur ating
Ġhyperbol icity
09 01
group s
Ġaltern ately
Ġgir th
Ġb ends
Ġh fs
Ġfl aw
Ġgold man
Ġcz ech
Ġfsr qs
g io
Ġp ak
Ġpl umes
alle y
Ġg elfand
ne au
Ġmid rapidity
Ġbrid ging
Ġbish op
Ġde vel
Ġco up
Ġso kol
ash ed
Ġbroad ens
Ġkod ama
Ġindex ing
Ġlub ric
Ġf pt
Ġd ud
Ġhelp ing
in ch
our se
Ġcir rus
18 02
Ġopp osing
array cc
Ġregener ation
Ġd ah
48 7
Ġhc g
Ġjeff erson
ang les
Ġ6 14
Ġprop ortions
sch er
Ġl rs
Ġpar axial
Ġ5 92
ok s
udh uri
h j
Ġf ubini
Ġn ay
Ġ6 56
Ġpm f
Ġnuis ance
Ġ19 51
par c
Ġspec ulated
Ġamm onia
in tu
ati o
Ġa pt
Ġo o
Ġsem id
Ġinconsist encies
47 4
Ġqi u
Ġnav al
Ġaugment ation
Ġb afe
Ġg es
Ġg si
Ġfactor ies
ac al
ol lo
rom eda
Ġprim ack
Ġtom ographic
j hep
Ġsubt rees
Ġshoot ing
Ġv ains
Ġun sh
Ġreg isters
Ġq g
100 3
Ġ7 13
Ġwat ers
uni versal
t ler
Ġpar ities
Ġk ry
Ġse lectively
Ġtest able
Ġlittle wood
Ġpsp icture
Ġb ot
ir d
Ġnucle ated
Ġspecial ization
Ġfried el
Ġtransvers ally
Ġstau ffer
Ġfab b
Ġfried rich
Ġsphal eron
Ġpred ecess
Ġmori ya
Ġnondec reasing
e ur
Ġeigen basis
Ġul irg
gaus s
Ġm ent
ur ance
Ġun ary
Ġen st
08 05
Ġsemic irc
Ġprelimin aries
z m
Ġx a
Ġsw s
Ġsampl er
Ġspint ronics
Ġconc om
48 3
Ġqutr it
6 75
7 02
Ġeff ic
Ġg omez
Ġ0 43
Ġassem bl
meth od
r im
Ġcon vey
Ġ0 21
Ġj ean
Ġsch ramm
Ġintellig ent
Ġundes irable
Ġen light
Ġla or
Ġplat forms
Ġord inal
ade h
Ġbo o
Ġreplac ements
Ġ6 16
Ġ7 49
ball s
t man
k et
Ġst d
Ġslow est
Ġarch imed
Ġswed ish
Ġdel im
Ġembry os
Ġand o
Ġ8 02
Ġbul lock
Ġrad ically
Ġdf a
Ġlcccc cccc
Ġunreason able
si vities
Ġ6 08
Ġhollen bach
f est
ti bility
Ġd zy
ass oci
Ġdegra de
aut y
Ġra uch
Ġentrain ment
Ġu f
Ġrest s
Ġm itch
Ġslow ed
Ġwand ering
Ġunra vel
Ġf used
Ġk ent
Ġass ort
Ġfactor izes
100 4
Ġrefere es
sol iton
Ġschae fer
ni e
Ġsw itzer
Ġepis odic
Ġspall ation
r x
Ġne at
Ġdat ta
Ġvol um
36 3
Ġrub idium
Ġsers ic
ak rish
02 02
b ars
der man
plic ation
Ġdev oid
Ġa queous
Ġde ff
Ġsemist able
k ash
Ġreg ret
to on
Ġg im
Ġsne ia
Ġcomment ed
Ġantiquark s
Ġdimin ishing
Ġisoper imetric
g ets
Ġv mc
Ġcomp et
Ġj ank
Ġmulti particle
Ġcust omer
Ġa ar
Ġl bl
iff erential
06 06
Ġres orting
Ġper ception
Ġshuff le
Ġsy mm
Ġper gam
Ġ6 93
Ġ7 15
Ġmulti level
48 9
Ġwo ot
Ġabbrevi ated
Ġcompart ment
or ate
Ġch ances
Ġprim ed
Ġconnected ness
Ġky oto
conver gence
Ġbr ute
Ġpolar izing
06 05
Ġand romeda
Ġl yr
Ġsilic ene
Ġh ide
03 06
08 12
Ġmagnet ograms
Ġquasic on
Ġfaith fully
Ġphoen ix
Ġd ies
Ġ6 79
Ġseg ue
Ġrigid ly
Ġsel jak
Ġbl ain
Ġgl ast
Ġredef ine
Ġl yn
Ġhar vey
Ġmonolith ic
Ġli bration
Ġmicro quas
Ġburn s
r ans
Ġrip ples
Ġac f
Ġc imento
Ġb ari
ent ropy
Ġab do
Ġpre defined
Ġweak ens
Ġparametr isation
Ġpenta quark
8 02
Ġw ins
98 0
Ġf ps
Ġus eless
bor ne
Ġku hn
Ġk ashi
ton i
Ġep im
al er
Ġd ine
Ġpre valence
Ġcn rs
Ġmainten ance
Ġb pt
sc attered
fr ac
9 02
le e
Ġdel phi
ske leton
3 18
Ġill ing
Ġ26 555
Ġzol ler
Ġf dr
Ġval ve
he at
Ġrealistic ally
Ġencompass ing
6 10
ant ine
ple ctic
oper ators
Ġenfor ces
ul f
08 02
Ġbomb ard
b ase
Ġsh af
Ġsegment ed
Ġreject ing
Ġmyst er
op arsec
4 000
Ġco ar
Ġberger on
Ġa ad
Ġin ability
Ġmate o
Ġfulle rene
Ġn ath
geb ra
Ġg ss
Ġz ah
Ġstruc k
Ġwat ts
Ġa ti
Ġst fc
Ġproceed ed
Ġlip atov
Ġton ry
Ġneu ros
Ġantiferromagn etism
Ġd rin
Ġlo ve
Ġhub s
Ġdiscover ing
Ġsuper space
12 06
Ġ! !!
do uble
Ġnanorib bons
ori ent
Ġnand ra
Ġass ures
Ġgr asp
Ġembed s
Ġ7 07
Ġ13 99
16 55
66 7
r ard
Ġs ik
ear ing
pid al
Ġkel ly
Ġpnicti des
4 21
ol f
Ġcorre cts
Ġswitzer land
Ġp bh
Ġn ap
atch ing
Ġkirch hoff
c oun
Ġcor tical
Ġforest s
Ġmats uda
Ġpanc ake
Ġearthqu ake
Ġor t
Ġrepl en
Ġv w
atic s
Ġcosm ologically
Ġion ising
4 22
Ġa ub
se k
Ġdark er
Ġquadr ants
ver t
oy a
Ġkil oparsec
Ġhamb urg
Ġn ato
Ġintr uder
Ġnetwork ing
99 6
repres ent
Ġkly pin
Ġc bs
Ġgog ny
Ġis p
Ġ6 89
Ġok ada
Ġ7 14
ars ch
47 3
ot ov
Ġsyn apses
Ġkur amoto
Ġ6 32
Ġcn m
Ġirrever sibility
Ġinst ructions
u yama
Ġm ie
Ġn ach
Ġdist ort
Ġrh essi
Ġun seen
Ġ6 96
Ġconf id
Ġbohm ian
Ġrefract ory
Ġb se
Ġv g
Ġmass ach
44 44
er b
Ġ7 80
75 5
Ġknot ted
Ġsandwich ed
Ġilling worth
Ġuch ida
Ġhew ett
Ġsur pass
Ġobliqu ity
Ġcoag ulation
Ġcm br
Ġoverlook ed
c am
Ġgo ogle
Ġcorrobor ated
Ġc fs
qu ench
Ġtr usted
Ġbl anton
f olding
ed e
Ġla id
Ġcondens ations
47 1
Ġcatal yst
Ġhm xbs
Ġdeser ve
Ġvains htein
d j
Ġanti bonding
Ġnanot echn
Ġf ow
Ġeq m
Ġam az
Ġnag a
Ġcobal t
Ġunit arily
Ġbol ometer
Ġt and
05 12
Ġc nd
Ġb ch
Ġas king
Ġsc l
Ġtake uchi
c ke
Ġco pe
ro l
Ġbeam line
Ġm und
Ġsubc ase
Ġsuperh ump
Ġconspic uous
u vel
om put
id t
Ġ00 7
Ġkal man
Ġaer os
Ġlexic ographic
on o
Ġ] -
Ġup graded
Ġjoh ansson
lu ded
Ġchern off
h urst
Ġus able
Ġver itas
48 6
Ġak ari
lumin ous
Ġpyram id
Ġmassach us
Ġsim pson
Ġgre ens
c j
Ġat oll
Ġaerog el
Ġp ager
Ġpro tr
Ġred ward
Ġth uan
Ġstar less
Ġmorph ologically
Ġdissip ate
110 7
Ġgrant ed
Ġw ors
ch uk
Ġhom oth
Ġincident ally
Ġjul ian
Ġconflu ent
Ġnils son
ling er
Ġsubg iant
sch e
weight ing
Ġc ite
nd t
Ġto urn
Ġ6 34
Ġbehavior al
101 2
isper se
Ġpergam on
i av
is ks
Ġunbin ding
Ġcn n
Ġcast ell
Ġwin ner
4 14
b ot
05 09
Ġprot og
Ġsteep ness
Ġforecas ts
Ġinter medi
ap ed
Ġhur ley
Ġ5 82
Ġ6 39
Ġ6 94
12 04
Ġhol t
Ġinterven tion
ro u
Ġh iv
ci ent
Ġspac er
Ġkoz ai
r itz
Ġn is
110 8
Ġkim ura
Ġhighlight ing
Ġdeploy ment
g row
al osh
Ġm ine
Ġ5 90
Ġcr ater
Ġmm se
Ġdrop out
Ġlev ine
g x
Ġthe t
Ġw ied
Ġre cher
Ġt ian
Ġ4 151
ev itch
Ġher al
Ġkog ut
Ġpass ages
Ġhyp ered
Ġkas ner
Ġhash imoto
Ġfr chet
Ġrele ases
Ġconcom itant
9 11
u ve
Ġl st
Ġconc re
Ġultral uminous
ment ation
Ġover s
Ġcomposition al
Ġcarl son
Ġb sm
Ġma eder
Ġ7 09
hi k
Ġoh ta
kl app
Ġresi li
Ġt ate
Ġst ores
Ġfocus sing
Ġdeem ed
i ticity
03 04
Ġir rotational
Ġthem e
Ġexplo res
Ġfeld man
f v
Ġf oun
Ġcl t
Ġsurrog ate
Ġmyster ious
Ġ6 81
Ġmetabol ic
Ġmw c
Ġbas u
Ġsuccess es
Ġallevi ate
Ġe ren
erm al
Ġz imm
., [
Ġprolifer ation
Ġst s
op ing
atur ation
Ġself cons
f unct
Ġbress an
Ġb ds
om i
Ġf ts
Ġinter connected
Ġq os
Ġheter odyne
Ġbt tiker
Ġinject ing
Ġoster brock
Ġzeil inger
Ġproch aska
Ġf ond
Ġmicro cavity
Ġconfron ted
Ġl ich
de q
Ġdi abatic
Ġmin ister
Ġsn ake
bre cht
Ġmandel stam
Ġb ure
iol ino
Ġdered dened
d fs
f oil
Ġb kt
Ġun al
Ġy ale
99 7
Ġtransm is
Ġkr ish
Ġcenta urus
Ġsynd rome
Ġx d
Ġpad man
Ġmyst ery
Ġwax man
Ġem ail
Ġ8 000
75 1
Ġpenal ized
tsev ich
",,,,,, ",
Ġis w
Ġtr is
Ġz t
ura ev
Ġconvol ving
u o
Ġ6 38
Ġinvolution s
Ġdisfav ored
Ġspecul ative
and ro
Ġcar di
15 02
osc ill
Ġkore an
Ġma iolino
03 09
Ġbunch ing
Ġreduc tive
Ġj lab
ud in
Ġconcl usively
Ġwe igh
Ġmer lin
Ġse idel
Ġoccup ancies
Ġorgan izers
Ġgib bons
Ġcalor imeters
Ġmassachus etts
Ġberg mann
Ġven us
Ġcoar ser
Ġbo er
Ġsn eden
Ġd ant
Ġchir ally
pl itter
Ġpa rents
Ġss f
Ġcontribut or
Ġalf red
Ġbe auty
Ġan imal
Ġbrand enberger
Ġmin kow
Ġmultiplic ations
Ġredd est
Ġsom er
Ġkos zul
Ġpager ank
Ġquark onia
i tions
Ġpen n
Ġmeaning less
Ġcent ric
Ġperm ission
Ġtd hf
Ġheli ospheric
Ġped ag
sif ication
Ġal ert
Ġtw a
Ġli pp
Ġhus imi
Ġp ig
ff in
Ġmul t
Ġelectric ity
Ġcraw ford
l arge
ol ly
Ġcl over
Ġunav ail
um ar
Ġ6 02
Ġpos ets
r v
Ġre iter
Ġl sm
son ian
Ġmes a
Ġmis ner
Ġquas ip
47 6
xx xx
Ġdzy alosh
Ġferre ira
Ġdownload ed
ol ess
Ġschri effer
z able
Ġsuccess or
Ġd ul
Ġ- )
Ġcoupl er
Ġstretch es
Ġnut ri
Ġdec ides
om s
tt p
Ġms x
kh lin
Ġmultic h
Ġneu bert
Ġw ir
Ġd yck
Ġ- ]
Ġcentral ized
Ġquantif ier
Ġhaz ard
encl ature
Ġx ue
phys reve
Ġ6 51
Ġross by
Ġmatte ucci
Ġtextbook s
ar iness
pl in
ren s
Ġpredict ability
trans form
Ġcor o
Ġnon stationary
Ġintro duct
oh edral
Ġmi ri
Ġalf ven
mo tion
en k
Ġb sc
12 10
Ġmar qu
Ġmyr s
Ġuk irt
Ġencl oses
07 01
land er
Ġss d
frequ ency
Ġsh el
Ġminim ise
Ġasymmetr ical
Ġt yc
gr b
Ġram os
sur face
Ġsar azin
Ġpreclu de
Ġlou is
h ko
Ġe mm
Ġtheir s
09 11
Ġnom enclature
Ġpre valent
Ġ6 26
Ġ6 90
con tr
ars ky
pr im
Ġleh ner
Ġbr yan
Ġinst ruction
Ġcm f
46 3
Ġpolar izer
unnel ing
Ġb als
ess ential
09 09
Ġlovel ock
Ġcou ette
Ġk ow
Ġtr il
", ",
Ġinher it
Ġintroduct ory
Ġis t
Ġfe i
Ġ7 63
Ġstr as
ext ension
Ġalt arelli
deriv ative
Ġencryp tion
or ial
Ġ100 9
Ġscar ce
Ġeq a
Ġhe iles
Ġn si
Ġmath ur
Ġchamele on
Ġmark evitch
Ġvisco sities
Ġas as
ter ra
Ġx f
99 0
org doi
g rams
i ot
Ġo oster
Ġhe aling
Ġcor tex
Ġprop eller
04 08
Ġbott le
Ġann u
Ġhypergraph s
Ġsubclass es
Ġfoun tain
end en
Ġfe ig
Ġmicro turbul
Ġsmith sonian
Ġl au
Ġ9 73
16 02
75 7
Ġca hn
Ġmart ins
Ġsant a
Ġnac ional
Ġversati le
Ġmerm in
Ġsp o
ys cale
Ġsc oring
Ġ6 24
Ġquestion ed
Ġehren fest
Ġt ts
Ġh ig
Ġnatural ness
Ġ, [
Ġvolati le
Ġunve il
Ġinform ed
Ġis i
Ġsub algebras
Ġmagnet ometer
Ġmultic ast
Ġmis classif
Ġrecoil s
Ġstro ke
ver tices
Ġmean ings
Ġconcent rates
Ġep icyclic
Ġpur cell
Ġib ata
Ġum klapp
Ġlq g
an ova
Ġta o
Ġbad ly
Ġnonclassical ity
o zzi
Ġ7 06
Ġho ppings
Ġkr us
Ġsediment ation
Ġreentr ant
Ġh ase
Ġsl s
Ġblow s
v ations
Ġis olating
Ġh udf
Ġco product
Ġun labeled
Ġsub module
tr ace
Ġd addi
Ġh ats
lu on
Ġperc olating
Ġstrm gren
q z
Ġsign alling
Ġrem edy
55 55
bold t
ir re
ch io
ub o
49 4
Ġtimest eps
Ġre ip
ac i
Ġsm e
Ġpol and
Ġu u
57 0
Ġfoot point
Ġb ron
Ġkon tsevich
Ġhalper in
Ġeck art
Ġsomer ville
en kin
em ble
Ġelectromagn etism
Ġat titude
Ġdeceler ating
Ġv ote
Ġrepro ducible
Ġaccumul ating
bro ok
dimension s
Ġh ind
ab han
Ġb ren
Ġsuper operator
Ġst uck
Ġ15 50
Ġmm t
Ġ00 8
Ġcach ing
Ġq b
lo f
]( )
en burg
og ical
Ġmi h
Ġinnov ative
Ġunal tered
Ġincon clusive
j r
ere tic
di e
Ġx lf
Ġlinear izing
Ġneutrin oless
Ġtan iguchi
m eter
de formed
Ġaccumul ates
Ġsubprocess es
Ġsublevel s
Ġtai wan
Ġeren kov
es tim
Ġreg ulating
Ġfri i
Ġconvolution s
Ġbib li
Ġpredict ors
Ġdepolar izing
Ġpreclu des
Ġshif man
5 03
Ġthir ring
101 1
sec ond
Ġr df
with standing
Ġsegreg ated
Ġdeli ber
proper ties
ul as
49 2
al t
co effici
Ġkam ion
Ġspic ules
z l
Ġse lectivity
ch es
Ġ7 33
Ġcons ol
Ġprom oted
Ġxu v
7 10
a per
Ġb att
01 09
Ġparallel s
Ġgiov ann
Ġk lo
101 0
Ġz odi
Ġclear ing
Ġsup plies
Ġre y
Ġher rero
Ġconvol uted
Ġoconn ell
Ġq fi
Ġhum boldt
01 08
Ġlumin escence
Ġbrink mann
3 08
Ġme yn
Ġasympt otes
Ġestablish ment
c q
on de
Ġmulti tude
Ġliter al
Ġud alski
th aus
Ġdri vers
Ġ5 84
Ġcoll ocation
Ġmel ts
Ġnebul osity
58 0
Ġunf avor
Ġdepro jected
Ġaven ue
Ġd az
Ġh ott
el ing
Ġnon standard
Ġsynt ax
Ġgard ner
Ġreconcil ed
Ġexper ts
Ġec ological
Ġlep age
t x
Ġd us
Ġd gp
es sion
Ġstand point
Ġlog s
48 4
14 05
Ġvol terra
08 08
omp act
Ġrem illard
Ġpoly morph
ank ar
true in
Ġop to
Ġadj unction
Ġdir be
Ġrever sibility
Ġspear man
Ġhorses hoe
Ġzeh nder
ide al
Ġexcit es
Ġscintill ators
k as
Ġ7 29
Ġun mod
Ġcol lects
Ġmon oc
Ġmiss es
Ġban erjee
es ch
th s
Ġle ma
Ġ6 46
Ġrearrang ements
Ġphotoevap oration
Ġb oc
ut a
ph ases
Ġnon compact
Ġau bert
pro d
Ġcommission ing
Ġtran sitivity
Ġclin ical
Ġhamp ered
Ġm eng
Ġid le
gl ers
Ġnot withstanding
Ġhard ing
Ġasser t
Ġsm ale
Ġmeas ur
ian ti
rel s
Ġce ase
Ġ7 30
Ġcos ets
Ġneutral s
id ss
00 22
Ġscal o
Ġunit ar
ara jan
Ġisotherm s
Ġaccep ts
4 13
ur in
Ġle win
Ġso ifer
02 12
Ġge od
ire z
Ġparagraph s
Ġpere l
Ġweib ull
Ġt asep
Ġa ce
Ġconver ter
ush ima
Ġgerman ium
coordin ates
Ġgeophys ical
b v
Ġassoci ativity
mod phys
bl ue
Ġdiss olution
Ġholonom ies
Ġf of
ens ch
a it
ast on
Ġ7 67
ini o
Ġque ues
Ġblaz hko
Ġnormal s
75 4
Ġsw ing
Ġr aster
Ġsh o
Ġ7 55
ish ment
07 03
rom ic
14 03
Ġmitch ell
co eff
Ġtransist ors
Ġbe ij
Ġemphas ise
Ġsz al
Ġrend ered
Ġs ara
uc cess
per p
Ġdifferenti ability
Ġxr bs
Ġm bs
Ġx z
sim ple
Ġmich igan
d elt
ak ker
Ġz av
)( )
Ġbarycent er
4 25
Ġ0 63
Ġx p
Ġbl ake
Ġpost s
Ġlen ticular
a q
Ġj rg
ti se
im s
Ġv hs
Ġal ber
und ers
Ġsim m
Ġhr c
Ġenvis aged
Ġp ich
ors ki
Ġfr anz
Ġgu ard
Ġsubsequ ences
rev modphys
Ġjo vian
Ġas ks
Ġconst riction
Ġl cdm
Ġz ur
Ġresp onds
Ġpur ch
Ġsi eg
Ġw iring
Ġl auer
Ġma dd
Ġstring y
Ġo le
Ġe igh
Ġan imals
Ġrespect ing
Ġformul ating
Ġcounter intu
Ġsubtle ties
rrrr rrrr
Ġpadman abhan
p g
04 12
r ules
Ġs fs
Ġre ph
Ġhor owitz
Ġhyst eretic
arde au
pp le
cl osed
Ġcorrect or
Ġbur as
Ġreplic ated
Ġdar win
Ġexp ulsion
Ġshort coming
Ġbal bus
Ġpas qu
3 19
Ġel ias
Ġas pl
Ġter ti
p ow
Ġdec orrelation
9 03
pro j
Ġy o
)( (
eme yer
Ġr ick
Ġdi ego
Ġlim a
Ġru derman
Ġpuzz les
Ġquaternion ic
Ġpenumb ra
Ġdrin feld
ak awa
Ġhe ader
Ġmodul ating
Ġkamion kowski
Ġsp m
Ġz k
Ġen z
Ġparallel ogram
af a
Ġc xb
Ġfac ulty
Ġover comes
Ġcentral ities
a ug
it en
Ġbi ochemical
Ġuc ds
Ġlid dle
b ing
ar p
Ġun ifying
Ġgu est
Ġfow ler
Ġe cs
Ġg ub
Ġmagn us
Ġu z
Ġliter als
eff ect
Ġfem t
Ġst rag
Ġpuls ators
Ġpost ulates
Ġnan od
Ġb ich
Ġl er
Ġex iting
Ġcl one
Ġthank ful
Ġlev it
k ine
u f
Ġ6 82
Ġros ner
Ġsurv ived
Ġl ends
nd on
Ġnan ometer
Ġten uous
Ġst oner
Ġi od
Ġdi xon
Ġbeams plitter
an is
el es
Ġsed ov
Ġuk idss
Ġsolen oidal
Ġsh ang
66 0
Ġreser ve
Ġru ff
4 45
Ġp ont
Ġob rien
Ġun integrated
Ġbl g
Ġfranc is
Ġmicroscop ically
Ġrefriger ator
! [
Ġsp or
ech t
Ġprin ts
Ġmak ino
Ġram irez
o by
Ġc ultural
Ġsuper s
Ġtri diagonal
Ġpt f
Ġtwist or
Ġschre iber
it ously
Ġ6 92
Ġvap our
j ean
Ġthin ning
Ġhu i
aj ima
Ġlop sided
Ġnonmonot onic
4 09
Ġunaccept able
Ġ0 42
hi o
bour g
6 02
q j
Ġinf e
wh en
48 1
100 8
Ġdeflag ration
Ġd ab
Ġsp c
Ġha ged
Ġy j
Ġparti te
sp ort
Ġmagnet os
Ġbase point
ille ux
n gc
Ġis ent
Ġgal e
ma hon
Ġjourn als
Ġt ast
Ġh se
Ġfin esse
Ġspec ulation
ull back
Ġsubstitution al
s v
Ġw edges
Ġp rag
Ġbo yer
Ġpan ag
Ġdisrup t
Ġdv cs
5 50
s pheres
Ġo phi
Ġ6 88
Ġdiag n
13 05
Ġfore ver
Ġprere quisite
Ġhered itary
Ġhyd ration
Ġc em
Ġw j
Ġre orientation
oc line
ach ev
Ġfin der
ip edia
Ġhyper nova
Ġall ard
Ġcorp us
d em
n ier
Ġm ary
Ġwhere ver
Ġstrength ens
65 7
Ġpreced ed
b ec
Ġg z
Ġj os
99 01
Ġ57 2
Ġn ps
Ġag ed
ometr ically
Ġbar r
Ġcn ts
Ġta per
is ler
Ġfor k
Ġmulti set
Ġglu inos
Ġdiss olved
Ġwron skian
Ġsy ner
Ġdec uplet
Ġfrequ entist
Ġbright ened
66 6
Ġwhit more
Ġvil enkin
Ġo j
Ġb iv
Ġinteg r
Ġantiferromagnetic ally
Ġrecogn izing
Ġmad ore
Ġhott est
z ig
Ġth iele
Ġo li
ip ot
Ġcr c
sim plices
Ġreparametri zation
Ġhaged orn
09 06
67 0
Ġbell oni
Ġfinger print
o ij
'' [
Ġstrag glers
Ġev rard
Ġdimension ally
Ġq nd
07 09
77 0
Ġz j
Ġpione er
Ġradi ans
Ġ7 12
Ġimpos sibility
Ġmf pt
Ġry u
Ġpoli tical
Ġpar asi
Ġno zzle
ru o
an onical
Ġh ib
12 08
Ġ00 9
Ġeg ress
Ġmich elson
4 29
f amily
Ġcy tos
Ġbar rett
Ġ57 8
Ġche ung
g w
re qu
ors hip
Ġdestro ying
Ġoverabund ance
8 75
ten sive
Ġmicro states
Ġabram owicz
Ġma una
ain e
Ġhe g
Ġtra versal
Ġ7 000
ann a
Ġmon ad
Ġcontras ting
Ġali asing
4 39
Ġcl ones
Ġnucle onic
19 94
comp are
Ġgy romagnetic
Ġzar itsky
off e
Ġinform ally
Ġcarl berg
t rees
Ġfor tu
ab l
Ġsuper solid
Ġoptim ised
Ġphotomultipl ier
Ġunfavor able
Ġp parc
Ġre weighting
Ġun normalized
asch ke
Ġexplor atory
uch e
Ġve illeux
Ġengine er
Ġts uk
Ġfav ours
Ġcircul ant
fil ter
Ġprun ing
Ġtechnic olor
Ġh ither
ets ch
Ġpost action
Ġrh am
Ġtrunc ations
Ġregge on
Ġbarb ieri
Ġf oster
Ġd ump
Ġd bi
Ġbhattachary a
and o
Ġtang ency
Ġc ash
Ġim bhs
Ġsubst ance
Ġinflu encing
ho fer
Ġdilat ation
Ġk es
oc y
Ġunc ount
Ġexcit atory
pro jection
Ġpier ce
Ġd ell
Ġz l
interp ret
Ġa kh
sc ribed
Ġ24 00
Ġud f
Ġferrim agnetic
Ġsen ior
58 5
Ġjac obs
Ġencour agement
Ġs ass
Ġdet rend
Ġsl d
13 04
15 01
Ġhum ph
Ġmultic omponent
at os
Ġdis m
Ġ19 48
Ġrest frame
Ġhither to
in ney
Ġ6 86
13 07
f olds
Ġbel g
b en
Ġpro s
Ġs aving
Ġb ely
Ġm ys
om ent
ly n
Ġ6 54
Ġcho oz
vari able
Ġ35 00
Ġdesign ate
Ġsupercomput ing
Ġsark ar
Ġn gu
im its
im ori
Ġco eval
Ġrec yc
Ġbar ber
fl uc
Ġphysi ological
Ġdum bb
Ġres titution
se qu
Ġbl itz
Ġval ent
Ġaccre tor
Ġunch arged
Ġanton ucci
Ġprecip itation
til ity
Ġts un
Ġdiss ol
Ġfq h
Ġo ke
Ġsch om
Ġexperimental ists
Ġcatal an
69 0
Ġpiv otal
Ġmort ality
Ġimprin ted
Ġm ft
Ġinter twin
Ġcar retta
Ġcompan ies
Ġmut ant
Ġprom pted
Ġineffici ency
Ġquin tic
se quence
Ġz y
Ġ8 10
04 09
Ġdefini tively
asso ula
Ġneck l
Ġw ob
Ġsp un
Ġund ec
Ġconflic ts
Ġg he
Ġpredic ates
Ġke a
Ġdeterministic ally
Ġbay m
structure d
b cs
Ġv otes
Ġdef ective
03 08
Ġdomin o
Ġell ison
Ġcare er
Ġew sb
Ġmaj umdar
Ġbin arity
Ġbra uer
ata ert
)(- .
Ġaspl und
Ġterti ary
Ġqu ataert
Ġz ald
ross ing
Ġcylind rically
Ġwel ch
Ġvolum etric
Ġconcre teness
ti r
Ġf y
Ġjw st
Ġt ba
Ġse itz
Ġi ve
Ġpre images
Ġge ographical
Ġtop ography
ash ow
Ġworth y
Ġnovel ty
Ġembry o
b az
Ġh ick
if s
14 04
ash ita
46 1
Ġmotiv ating
Ġperpendicular ly
s ig
Ġb tz
Ġx ml
Ġshort en
Ġrf br
tor sion
Ġbeen akker
Ġherm iticity
Ġrr l
Ġathan assoula
Ġcon g
Ġfi er
Ġsubinterval s
' )(
Ġst ella
Ġle c
Ġimp rec
Ġhe uvel
Ġ7 23
Ġinst anti
iz ou
ane y
Ġpatter son
Ġnet o
ti e
res olution
Ġcur ren
ann e
ex per
Ġcar not
Ġsem im
Ġanti ka
Ġmer its
Ġram ified
Ġcard y
Ġstras bourg
: -
Ġk av
Ġhe y
Ġhe us
Ġsf ermion
integ rable
Ġrecon sider
Ġconcaten ated
t ec
al fa
Ġi ked
Ġcar toon
Ġalong side
Ġta ub
ion ic
Ġ100 5
Ġarbitr ariness
fre q
3333 3333
Ġabb ott
Ġdis integration
Ġaxis ymmetry
Ġbur ton
Ġheuristic ally
Ġconvinc ingly
09 12
Ġparallel ization
Ġlas ted
Ġquasist atic
us y
02 03
dec orate
Ġpo v
low er
12 00
Ġmodul ate
Ġdon c
arri aga
Ġcr ud
Ġscholars hip
Ġo ort
Ġp ism
Ġav ec
Ġinfer ior
Ġhe ap
Ġarg ent
a uto
z j
all ic
ast o
Ġinstall ation
Ġhar o
Ġanalog ies
h og
v j
02 08
Ġhol on
Ġwi ret
Ġabbrevi ate
ra j
Ġr pc
Ġor ig
ang ular
14 02
Ġskill man
Ġb och
Ġne f
Ġpl uto
Ġ7 35
Ġmain theorem
iel astic
Ġnan os
Ġgun ion
Ġg ue
am ic
hom ology
Ġvesic les
Ġp omer
ad us
Ġtri on
Ġgp d
ahed ron
Ġpeters en
k ler
Ġk ell
ds en
Ġbous s
Ġfronti ers
Ġimmob ile
y j
z ens
Ġra b
75 8
Ġinstit uto
Ġspars ely
Ġinfl ated
q x
Ġ ers
Ġdi odes
Ġ00 6
Ġpione ered
Ġa al
Ġcar roll
Ġpri eto
ale y
4 65
v ill
un itary
Ġexplicit ely
ks h
uk hov
Ġarch ives
osc ope
Ġ19 49
Ġar s
Ġir is
Ġrun gs
Ġgl ashow
Ġing ress
Ġhe ger
Ġordin ates
Ġori entif
Ġmov ies
Ġstagn ation
Ġiked a
k v
Ġcd ms
Ġanton i
Ġfern ndez
Ġsurfact ant
Ġzald arriaga
Ġun specified
Ġ6 62
om ol
Ġha o
Ġnumber ing
Ġquanti ze
Ġoccas ional
Ġgod d
f u
Ġpal ind
Ġob er
Ġmo uld
Ġmetast ability
am ine
Ġco fib
ff s
ch ains
Ġenumer ated
Ġshed ding
Ġphot oluminescence
vari ant
uds on
Ġpap alo
pers ity
Ġnay ak
Ġo mc
od o
Ġhol onomic
Ġ100 6
Ġfm r
Ġexceeding ly
Ġas cent
Ġj ona
Ġdiscontinu ously
Ġmel nikov
Ġcard elli
Ġemis sivities
Ġgab ri
ruc ted
Ġlo b
Ġtrivial ization
Ġt aus
Ġs gn
os omes
Ġsem bach
sp aces
en de
it ler
Ġdissipation less
Ġmr c
col our
Ġroc ky
Ġrecyc led
si bly
Ġprop osing
Ġvol kov
Ġpath ological
13 12
5 20
ah ara
x f
Ġl yne
Ġfr b
Ġrecon figur
Ġthread ing
Ġalv arez
Ġth mm
Ġdisper se
Ġmanage able
ar wal
Ġmcm illan
Ġv enez
Ġdis ho
Ġor s
Ġdef ectors
Ġk ort
Ġsn ell
Ġinflu ential
g rom
Ġ7 21
Ġang led
Ġsav ed
ryst al
Ġhealth y
Ġhand s
16 04
Ġdem oc
Ġdisent angled
Ġinvent ory
Ġpostaction decorate
Ġp ins
Ġh id
k g
Ġk ras
Ġall an
Ġfr ac
Ġchem ot
Ġcommunic ating
Ġpapalo izou
Ġdet r
Ġdur ham
Ġsynt actic
Ġbess ell
Ġfabb iano
Ġch er
Ġfi ore
Ġ7 70
07 08
Ġlas inio
Ġgl as
Ġsb ottom
adm issible
Ġc so
Ġp ps
Ġneed le
oh ar
Ġka j
Ġagg l
Ġstre et
Ġt all
Ġt rib
Ġle ut
Ġcal der
Ġ6 83
Ġrec oll
Ġnl c
Ġsand p
Ġking dom
k q
Ġh si
Ġne ve
Ġgre gory
Ġescap ed
Ġfuch sian
Ġcritic ism
Ġlepto quark
. )(
Ġcan adian
Ġquas ielastic
Ġcorrug ation
Ġdec imal
Ġdeform ing
dom ain
Ġhypothes ized
Ġdefoc using
Ġdith ered
Ġunavail able
Ġb az
Ġv all
lin ks
Ġcredi ble
Ġs idel
ial igned
bl g
Ġmuk her
n at
Ġgi udice
ines q
Ġtdd ft
k os
Ġsurround s
Ġunp redic
Ġnanop oulos
Ġaward ed
iv als
Ġra z
Ġvi enna
pair s
Ġzodi acal
at in
Ġbl s
Ġ8 70
Ġs ro
Ġan cient
Ġra ff
orm e
Ġcol i
67 3
Ġphon onic
acc eler
Ġdisadvant ages
Ġwiret ap
m etz
th ree
Ġif u
Ġland mark
ato ire
Ġg ig
Ġregular isation
Ġdi b
Ġad ditions
Ġmask awa
Ġerup tive
Ġdegra des
enb rand
Ġhut ch
akrish nan
Ġdis pos
Ġsm g
ros ymmetric
Ġgain ing
Ġmosa ics
4 16
Ġdi jk
Ġper cept
Ġbrazil ian
4 23
9 10
Ġre app
Ġ0 57
Ġ6 76
yl an
Ġfeder al
Ġarchimed ean
neg ie
Ġrecoil ing
Ġstay ing
Ġngu yen
s fr
Ġfraction ation
Ġpn c
err an
Ġ0 96
Ġrs gs
Ġtent hs
Ġsinus oid
hand les
Ġdisho eck
Ġis is
ri o
Ġbl aschke
ha i
Ġneg ation
Ġglueball s
Ġwe iner
Ġpost shock
Ġvic tor
Ġg eg
Ġpar c
Ġsepar ator
Ġew ald
Ġboun ces
block s
Ġleib ler
Ġis bn
Ġ7 40
Ġdu an
Ġabbrevi ation
Ġstoichi ometry
Ġcor rupted
ag onal
Ġdesc ends
Ġs orts
Ġb bh
Ġ7 11
s up
Ġmet ad
Ġdevi ating
Ġhin dered
Ġun ify
Ġmo ody
Ġy outh
Ġz an
ov ani
Ġasy mp
Ġlog ics
87 7
Ġblu est
Ġblur red
Ġtera hertz
Ġdumm y
g rad
g auge
Ġob sid
Ġhard est
Ġbox y
Ġmi ke
wes tern
Ġamal gam
y z
Ġh elfand
Ġsm s
01 12
enc er
Ġgord an
xp ansion
es p
Ġco algebra
Ġantiv ortex
s dss
Ġbe k
Ġk q
Ġorgan izing
Ġpay ne
Ġinhibit ed
Ġintrac avity
Ġgodd ard
Ġst eg
ur faces
Ġv oc
ens or
Ġover t
06 04
Ġdel ivers
Ġcrack s
Ġar cade
Ġlinear ize
Ġmulti ferro
13 67
Ġclo ak
Ġnorm ed
Ġba ade
Ġt ren
Ġe cm
ift een
ob e
Ġarch es
Ġdigraph s
u h
Ġma gs
Ġrear range
uch owski
diag rams
Ġequilib rate
Ġpartners hip
Ġprolong ed
Ġpolydis per
l ap
Ġin effective
Ġwill ing
Ġmagnet on
s ign
Ġf unc
Ġg um
Ġdra ft
Ġsg b
Ġdisregard ing
Ġj ell
Ġsub car
Ġover simpl
08 11
Ġbar n
Ġcoulomb ic
Ġsubpop ulations
f ac
olog ists
13 06
15 09
Ġcot unneling
Ġrew iring
ro ud
ich er
Ġun twisted
asi o
Ġcontribut ors
Ġbiparti tion
Ġsubmill imetre
Ġphasediag ram
l av
omm un
Ġm rad
if i
12 09
Ġpermit ting
Ġwra p
Ġaggl omer
m agn
Ġp etr
Ġd orm
Ġlud wig
l is
ass y
Ġy k
Ġsl im
Ġfundament als
Ġhern andez
Ġzw anz
Ġshim izu
Ġphotoc urrent
Ġey es
Ġfdt d
9 04
Ġcont ing
Ġcalcul ational
Ġbr iggs
09 10
19 93
Ġearthqu akes
8 03
Ġd rum
umin o
Ġdop ants
Ġcategor ized
7 75
ly p
op tic
par se
15 00
Ġneve u
Ġw fs
Ġsad dles
Ġpt b
Ġnat al
Ġgerm s
Ġdiffract ed
Ġmeyn et
8 57
Ġs agn
Ġb ric
Ġover lying
te kar
Ġcapac itive
Ġdisturb ing
Ġpolydis persity
t ors
Ġk end
201 6
4 17
il er
Ġclare ndon
Ġuniversid ad
Ġbouss inesq
05 10
Ġgl a
ans atz
d raw
Ġy ag
ren es
07 11
Ġpuls ational
Ġfranc o
Ġe gs
im ilar
Ġr ut
Ġ7 68
Ġaff leck
Ġn tt
Ġsc iss
Ġ6 64
Ġbar affe
Ġapp a
Ġsuper heavy
Ġwid om
Ġdeflection s
Ġeffic acy
ill en
mod ular
Ġmu oz
oupl ing
Ġport al
Ġhybridi zed
Ġmcl erran
Ġchris tian
Ġderm er
( )[
in us
is che
Ġun super
Ġpolar is
Ġhill enbrand
Ġcoalesc ing
w d
Ġs uto
Ġo cs
Ġj f
ij n
Ġmonod isperse
Ġmillis econds
Ġremember ing
Ġ7 02
nel t
Ġva ugh
Ġiw asawa
Ġaber rations
p ost
ro phy
Ġnon abelian
Ġ7 19
Ġsix teen
Ġinter rupted
end or
Ġdegener ates
Ġthe ra
Ġb ers
Ġpoly log
fin der
Ġkron ig
Ġjud ged
g awa
n ar
Ġgather ing
Ġbenz ene
Ġinterlo pers
. )
Ġe go
Ġv md
Ġ7 37
Ġple th
Ġb ac
Ġv cs
Ġpe le
Ġrational e
Ġclar ifying
Ġtravers es
y ah
qu er
Ġrow an
Ġfern andez
Ġl al
Ġmon oids
Ġkin ney
zz a
Ġswim mer
Ġmo ons
pro c
Ġfq he
Ġjank a
os on
Ġr ys
vi le
Ġbr ass
Ġpile up
Ġa es
Ġwe id
st ars
Ġz c
Ġarcmin utes
Ġmcl ure
Ġscha erer
b x
de k
Ġsubrout ine
4 34
Ġs bh
Ġk cal
ch inski
Ġmet as
Ġ... ........
Ġn ishi
Ġde y
06 12
Ġquad ric
Ġnonlinear ly
99 03
Ġnecessit ates
Ġrecher che
h ttp
Ġk bos
Ġx xx
Ġlin ux
Ġsch ild
Ġmon ge
Ġexcit able
06 09
Ġok amoto
Ġme kal
est e
ang elo
lo ading
Ġel s
Ġcn c
Ġis ospectral
Ġmo vable
Ġjustif ying
Ġtach ocline
Ġtown s
o a
Ġz p
Ġsal es
Ġmultich annel
g ain
y x
Ġoper ads
Ġsatisf iability
Ġpenetr ates
Ġschwe izer
ab a
Ġz ep
Ġcar negie
Ġinvestig ates
Ġoptim izations
Ġrom ero
Ġguess es
enb auer
Ġash tekar
Ġsw an
Ġ500 7
Ġandre w
6 65
as tern
Ġq he
Ġargon ne
l ar
Ġ7 27
po in
Ġcha o
Ġhm i
Ġecho es
Ġunsuper vised
Ġt ll
Ġd it
el ength
ff f
ad ap
hm ayer
bal ance
f ried
Ġund e
Ġhyperbol oid
Ġparasi tic
ur on
Ġconst r
Ġstep wise
d omin
Ġsp d
Ġsh g
Ġtrans onic
75 2
Ġattack er
ra v
Ġnit ride
Ġhm f
Ġs df
Ġis omers
ra ge
Ġtr uj
ting ales
sc an
)[ ][
Ġadv ancing
Ġnak ajima
Ġstein metz
hav en
w k
ed s
Ġz umino
67 6
Ġc ie
ce i
Ġbir d
Ġpav lov
Ġzd zi
ruct ural
Ġauthentic ation
ti que
12 14
Ġlo far
Ġhole vo
Ġosm otic
h ouse
at re
Ġdec idable
Ġ7 04
Ġmar cy
[...]
