{"<s>":0,"<pad>":1,"</s>":2,"<unk>":3,"<mask>":4,"!":5,"\"":6,"#":7,"$":8,"%":9,"&":10,"'":11,"(":12,")":13,"*":14,"+":15,",":16,"-":17,".":18,"/":19,"0":20,"1":21,"2":22,"3":23,"4":24,"5":25,"6":26,"7":27,"8":28,"9":29,":":30,";":31,"<":32,"=":33,">":34,"?":35,"@":36,"A":37,"B":38,"C":39,"D":40,"E":41,"F":42,"G":43,"H":44,"I":45,"J":46,"K":47,"L":48,"M":49,"N":50,"O":51,"P":52,"Q":53,"R":54,"S":55,"T":56,"U":57,"V":58,"W":59,"X":60,"Y":61,"Z":62,"[":63,"\\":64,"]":65,"^":66,"_":67,"`":68,"a":69,"b":70,"c":71,"d":72,"e":73,"f":74,"g":75,"h":76,"i":77,"j":78,"k":79,"l":80,"m":81,"n":82,"o":83,"p":84,"q":85,"r":86,"s":87,"t":88,"u":89,"v":90,"w":91,"x":92,"y":93,"z":94,"{":95,"|":96,"}":97,"~":98,"¡":99,"¢":100,"£":101,"¤":102,"¥":103,"¦":104,"§":105,"¨":106,"©":107,"ª":108,"«":109,"¬":110,"®":111,"¯":112,"°":113,"±":114,"²":115,"³":116,"´":117,"µ":118,"¶":119,"·":120,"¸":121,"¹":122,"º":123,"»":124,"¼":125,"½":126,"¾":127,"¿":128,"À":129,"Á":130,"Â":131,"Ã":132,"Ä":133,"Å":134,"Æ":135,"Ç":136,"È":137,"É":138,"Ê":139,"Ë":140,"Ì":141,"Í":142,"Î":143,"Ï":144,"Ð":145,"Ñ":146,"Ò":147,"Ó":148,"Ô":149,"Õ":150,"Ö":151,"×":152,"Ø":153,"Ù":154,"Ú":155,"Û":156,"Ü":157,"Ý":158,"Þ":159,"ß":160,"à":161,"á":162,"â":163,"ã":164,"ä":165,"å":166,"æ":167,"ç":168,"è":169,"é":170,"ê":171,"ë":172,"ì":173,"í":174,"î":175,"ï":176,"ð":177,"ñ":178,"ò":179,"ó":180,"ô":181,"õ":182,"ö":183,"÷":184,"ø":185,"ù":186,"ú":187,"û":188,"ü":189,"ý":190,"þ":191,"ÿ":192,"Ā":193,"ā":194,"Ă":195,"ă":196,"Ą":197,"ą":198,"Ć":199,"ć":200,"Ĉ":201,"ĉ":202,"Ċ":203,"ċ":204,"Č":205,"č":206,"Ď":207,"ď":208,"Đ":209,"đ":210,"Ē":211,"ē":212,"Ĕ":213,"ĕ":214,"Ė":215,"ė":216,"Ę":217,"ę":218,"Ě":219,"ě":220,"Ĝ":221,"ĝ":222,"Ğ":223,"ğ":224,"Ġ":225,"ġ":226,"Ģ":227,"ģ":228,"Ĥ":229,"ĥ":230,"Ħ":231,"ħ":232,"Ĩ":233,"ĩ":234,"Ī":235,"ī":236,"Ĭ":237,"ĭ":238,"Į":239,"į":240,"İ":241,"ı":242,"Ĳ":243,"ĳ":244,"Ĵ":245,"ĵ":246,"Ķ":247,"ķ":248,"ĸ":249,"Ĺ":250,"ĺ":251,"Ļ":252,"ļ":253,"Ľ":254,"ľ":255,"Ŀ":256,"ŀ":257,"Ł":258,"ł":259,"Ń":260,"Ġt":261,"Ġth":262,"Ġa":263,"Ġthe":264,"in":265,"on":266,"Ġ[":267,"re":268,"Ġs":269,"AT":270,"MAT":271,"MATH":272,"ti":273,"Ġ,":274,"er":275,"Ġo":276,"Ġc":277,"Ġ.":278,"Ġf":279,"en":280,"Ġw":281,"is":282,"al":283,"Ġp":284,"Ġin":285,"Ġof":286,"or":287,"Ġb":288,"tion":289,"at":290,"Ġd":291,"es":292,"ed":293,"it":294,"nd":295,"Ġm":296,"ar":297,"Ġe":298,"an":299,"Ġand":300,"ro":301,"ing":302,"le":303,"ic":304,"Ġto":305,"Ġis":306,"Ġn":307,"as":308,"Ġh":309,"Ġre":310,"Ġ)":311,"Ġl":312,"Ġ(":313,"ation":314,"Ġ-":315,"ec":316,"el":317,"Ġfor":318,"Ġg":319,"ent":320,"et":321,"us":322,"im":323,"ac":324,"om":325,"ul":326,"ig":327,"Ġwe":328,"Ġ]":329,"ly":330,"Ġcon":331,"ow":332,"Ġst":333,"ol":334,"ur":335,"ve":336,"st":337,"ith":338,"Ġthat":339,"Ġv":340,"ot":341,"si":342,"Ġwh":343,"Ġon":344,"ra":345,"Ġwith":346,"ce":347,"Ġas":348,"Ġbe":349,"qu":350,"um":351,"Ġ1":352,"Ġex":353,"Ġal":354,"il":355,"tic":356,"Ġpro":357,"ere":358,"Ġan":359,"un":360,"uc":361,"am":362,"Ġby":363,"if":364,"od":365,"Ġare":366,"ut":367,"ri":368,"ter":369,"ure":370,"ect":371,"ity":372,"Ġ2":373,"Ġthis":374,"os":375,"id":376,"CI":377,"TE":378,"CITE":379,"ver":380,"em":381,"Ġat":382,"Ġsp":383,"per":384,"Ġ:":385,"res":386,"Ġcom":387,"ate":388,"Ġr":389,"rom":390,"ab":391,"ge":392,"ir":393,"th":394,"Ġsh":395,"Ġma":396,"Ġde":397,"pl":398,"Ġdis":399,"Ġfrom":400,"Ġit":401,"Ġor":402,"Ġres":403,"und":404,"Ġpar":405,"Ġk":406,"ations":407,"ts":408,"ore":409,"igh":410,"ich":411,"di":412,"ain":413,"Ġle":414,"Ġph":415,"Ġob":416,"Ġus":417,"Ġcomp":418,"00":419,"Ġha":420,"Ġcan":421,"se":422,"pp":423,"Ġch":424,"Ġsu":425,"Ġmod":426,"Ġco":427,"ener":428,"Ġse":429,"Ġwhich":430,"ction":431,"Ġnot":432,"ant":433,"Ġfig":434,"ated":435,"oc":436,"Ġne":437,"iz":438,"iv":439,"sion":440,"ution":441,"Ġ0":442,"Ġpo":443,"ical":444,"ys":445,"Ġra":446,"Ġsc":447,"Ġint":448,"ds":449,"ati":450,"ff":451,"Ġj":452,"ase":453,"Ġqu":454,"ine":455,"der":456,"erm":457,"Ġhave":458,"ion":459,"ct":460,"Ġsy":461,"ess":462,"all":463,"ence":464,"Ġun":465,"de":466,"ies":467,"low":468,"Ġcont":469,"Ġwhere":470,"Ġmodel":471,"ass":472,"Ġtr":473,"Ġcl":474,"rib":475,"Ġfi":476,"Ġcor":477,"Ġ3":478,"act":479,"Ġequ":480,"Ġim":481,"Ġone":482,"ally":483,"Ġab":484,"orm":485,"iff":486,"ue":487,"Ġsec":488,"Ġshow":489,"Ġtw":490,"ill":491,"ely":492,"ents":493,"eren":494,"Ġapp":495,"Ġsim":496,"Ġdiff":497,"Ġinter":498,"Ġac":499,"Ġme":500,"unction":501,"ell":502,"ens":503,"ak":504,"Ġ19":505,"ag":506,"ron":507,"duc":508,"end":509,"Ġtwo":510,"Ġeq":511,"ble":512,"Ġi":513,"Ġval":514,"Ġso":515,"gy":516,"ers":517,"ach":518,"ary":519,"ight":520,"able":521,"Ġev":522,"ser":523,"Ġ;":524,"Ġfunction":525,"Ġresul":526,"ari":527,"op":528,"Ġthere":529,"ch":530,"up":531,"ates":532,"and":533,"Ġener":534,"uch":535,"Ġtim":536,"Ġform":537,"ad":538,"tain":539,"ple":540,"ted":541,"Ġdist":542,"Ġexp":543,"Ġdet":544,"so":545,"Ġif":546,"ay":547,"lu":548,"Ġtran":549,"ous":550,"ace":551,"Ġthese":552,"Ġdi":553,"ign":554,"ph":555,"tions":556,"etw":557,"stem":558,"Ġhas":559,"Ġobser":560,"Ġfiel":561,"Ġper":562,"ond":563,"Ġrel":564,"Ġ200":565,"tial":566,"Ġsystem":567,"Ġ4":568,"Ġpl":569,"Ġalso":570,"Ġall":571,"Ġnum":572,"Ġinc":573,"ature":574,"Ġour":575,"Ġfin":576,"ound":577,"Ġenergy":578,"Ġmo":579,"Ġdifferen":580,"]-":581,"ties":582,"Ġgiv":583,"Ġmat":584,"vi":585,"ular":586,"Ġdef":587,"Ġar":588,"Ġass":589,"Ġeff":590,"ance":591,"etr":592,"Ġsol":593,"red":594,"Ġsam":595,"Ġpres":596,"Ġsm":597,"ug":598,"Ġthen":599,"tical":600,"Ġobserv":601,"Ġreg":602,"ber":603,"Ġele":604,"Ġmass":605,"Ġtime":606,"tive":607,"Ġlar":608,"ite":609,"ap":610,"uld":611,"oth":612,"og":613,"Ġstar":614,"een":615,"ther":616,"Ġfol":617,"Ġsuch":618,"Ġad":619,"etween":620,"ribution":621,"Ġbetween":622,"ment":623,"ose":624,"ting":625,"ruc":626,"Ġcase":627,"Ġthan":628,"ree":629,"Ġconst":630,"amet":631,"Ġ5":632,"Ġver":633,"Ġno":634,"Ġcol":635,"Ġphys":636,"Ġspect":637,"Ġfollow":638,"Ġnon":639,"gn":640,"Ġhigh":641,"Ġgener":642,"ors":643,"Ġonly":644,"Ġfield":645,"Ġpartic":646,"Ġsub":647,"Ġline":648,"Ġorder":649,"Ġy":650,"est":651,"Ġpoin":652,"mm":653,"Ġz":654,"ugh":655,"Ġparamet":656,"Ġacc":657,"pend":658,"Ġobtain":659,"Ġro":660,"Ġwill":661,"Ġmore":662,"ax":663,"tim":664,"Ġsee":665,"ort":666,"Ġappro":667,"ang":668,"ard":669,"Ġdat":670,"Ġgiven":671,"form":672,"ist":673,"Ġem":674,"Ġ199":675,"ack":676,"01":677,"Ġlow":678,"ined":679,"ome":680,"ensity":681,"ong":682,"Ġdisc":683,"Ġset":684,"Ġscal":685,"Ġgal":686,"Ġcal":687,"Ġpa":688,"Ġmagn":689,"Ġconsi":690,"Ġdec":691,"Ġusing":692,"Ġabo":693,"ces":694,"ative":695,"Ġmeas":696,"Ġet":697,"Ġstate":698,"Ġdo":699,"Ġdata":700,"Ġtrans":701,"Ġwas":702,"ves":703,"Ġhow":704,"Ġfir":705,"Ġrep":706,"Ġradi":707,"ud":708,"esc":709,"Ġresults":710,"ture":711,"Ġout":712,"Ġanal":713,"Ġvari":714,"cul":715,"Ġfirst":716,"Ġ?":717,"Ġcur":718,"Ġterm":719,"Ġgra":720,"aus":721,"xim":722,"les":723,"Ġsmall":724,"tiv":725,"Ġmeasure":726,"Ġeach":727,"ility":728,"vel":729,"Ġother":730,"Ġlet":731,"Ġresp":732,"ust":733,"Ġbut":734,"ues":735,"Ġmet":736,"ould":737,"Ġcorre":738,"Ġext":739,"ange":740,"ork":741,"Ġen":742,"Ġbec":743,"Ġwhen":744,"ral":745,"Ġdensity":746,"Ġimp":747,"Ġfact":748,"Ġpre":749,"Ġop":750,"Ġ'":751,"sition":752,"yp":753,"Ġnumber":754,"Ġits":755,"Ġover":756,"Ġli":757,"resp":758,"Ġsin":759,"Ġ6":760,"Ġelect":761,"Ġcalcul":762,"Ġdifferent":763,"Ġbeen":764,"Ġcorresp":765,"Ġref":766,"Ġassum":767,"age":768,"Ġtem":769,"ren":770,"Ġgro":771,"Ġrec":772,"action":773,"Ġgalax":774,"Ġsince":775,"ory":776,"Ġhe":777,"Ġsign":778,"Ġsur":779,"ile":780,"Ġx":781,"ark":782,"ide":783,"Ġsome":784,"ating":785,"Ġbas":786,"Ġdistribution":787,"Ġup":788,"Ġwa":789,"Ġsection":790,"ension":791,"ding":792,"yn":793,"bit":794,"Ġbound":795,"ever":796,"Ġsame":797,"ici":798,"pt":799,"Ġlarge":800,"Ġfigure":801,"dition":802,"ected":803,"ast":804,"Ġlim":805,"Ġund":806,"ized":807,"Ġchar":808,"Ġregion":809,"Ġfe":810,"ke":811,"ential":812,"eg":813,"ization":814,"our":815,"Ġloc":816,"Ġboth":817,"etic":818,"Ġam":819,"Ġlimit":820,"Ġproc":821,"fore":822,"Ġhowever":823,"ied":824,"Ġvalue":825,"Ġconsider":826,"Ġvalues":827,"Ġprop":828,"Ġtemper":829,"Ġdesc":830,"Ġeffect":831,"Ġtyp":832,"Ġtemperature":833,"Ġpresent":834,"Ġused":835,"Ġmay":836,"Ġphase":837,"ram":838,"Ġinto":839,"te":840,"Ġany":841,"Ġes":842,"ian":843,"enc":844,"ics":845,"gth":846,"ases":847,"ial":848,"Ġinde":849,"Ġtheir":850,"Ġunder":851,"ros":852,"Ġstruc":853,"Ġpoint":854,"Ġthus":855,"Ġequation":856,"Ġdepend":857,"Ġshown":858,"ability":859,"Ġap":860,"Ġbl":861,"ear":862,"Ġfl":863,"Ġpos":864,"Ġwell":865,"Ġspace":866,"Ġspin":867,"her":868,"Ġuse":869,"Ġtak":870,"ynam":871,"Ġsing":872,"Ġhere":873,"Ġ7":874,"imension":875,"Ġsolution":876,"ise":877,"Ġag":878,"olution":879,"Ġ''":880,"ip":881,"ric":882,"plic":883,"ific":884,"Ġden":885,"mmetr":886,"Ġcomple":887,"Ġcorrespond":888,"ons":889,"ments":890,"Ġstructure":891,"Ġlin":892,"Ġinteg":893,"Ġtheore":894,"atter":895,"ject":896,"ail":897,"Ġdire":898,"Ġinf":899,"ator":900,"Ġexper":901,"Ġproper":902,"ev":903,"Ġobtained":904,"Ġsour":905,"Ġdeterm":906,"cc":907,"Ġstates":908,"Ġfollowing":909,"Ġincre":910,"ann":911,"Ġphot":912,"ov":913,"Ġwere":914,"Ġsimul":915,"Ġabove":916,"Ġ10":917,"Ġpot":918,"ual":919,"ep":920,"ize":921,"Ġsimil":922,"ission":923,"Ġcent":924,"upl":925,"Ġmean":926,"ered":927,"Ġrem":928,"Ġexperim":929,"atis":930,"Ġcons":931,"ton":932,"Ġsimilar":933,"Ġmeth":934,"Ġpossi":935,"Ġ8":936,"Ġgeneral":937,"duced":938,"Ġestim":939,"round":940,"Ġprov":941,"Ġdue":942,"Ġmodels":943,"Ġmethod":944,"Ġfre":945,"ger":946,"Ġquant":947,"Ġelectron":948,"itu":949,"Ġdimension":950,"Ġdescrib":951,"Ġobserved":952,"Ġvery":953,"now":954,"Ġthey":955,"Ġsuper":956,"Ġmin":957,"Ġflu":958,"10":959,"12":960,"Ġq":961,"uster":962,"ll":963,"Ġprob":964,"Ġdiscus":965,"Ġexam":966,"Ġder":967,"Ġprocess":968,"Ġtherefore":969,"Ġvi":970,"Ġquantum":971,"ech":972,"Ġpotential":973,"Ġoper":974,"Ġconf":975,"Ġsupp":976,"ub":977,"rin":978,"Ġparameters":979,"Ġmom":980,"Ġwhile":981,"Ġcompon":982,"Ġapproxim":983,"Ġnuc":984,"oun":985,"ms":986,"ane":987,"Ġmagnetic":988,"ational":989,"Ġcoupl":990,"tively":991,"are":992,"Ġcluster":993,"Ġrepres":994,"ption":995,"Ġmost":996,"par":997,"Ġbr":998,"ero":999,"ft":1000,"ish":1001,"Ġresult":1002,"Ġvel":1003,"enti":1004,"Ġfound":1005,"atic":1006,"ause":1007,"Ġfit":1008,"Ġconc":1009,"Ġcomput":1010,"ough":1011,"Ġparameter":1012,"Ġveloc":1013,"ency":1014,"rum":1015,"Ġstron":1016,"av":1017,"Ġwould":1018,"Ġexc":1019,"].":1020,"Ġnote":1021,"Ġer":1022,"ength":1023,"ection":1024,"ically":1025,"Ġcorrel":1026,"Ġsecond":1027,"Ġ9":1028,"ges":1029,"face":1030,"Ġwork":1031,"Ġdynam":1032,"Ġterms":1033,"ector":1034,"Ġgalaxies":1035,"Ġthree":1036,"Ġman":1037,"Ġproble":1038,"Ġtheory":1039,"rix":1040,"sed":1041,"Ġinst":1042,"Ġcorresponding":1043,"Ġmul":1044,"ently":1045,"ole":1046,"Ġed":1047,"Ġbel":1048,"ectively":1049,"Ġcoll":1050,"Ġdefined":1051,"ective":1052,"sc":1053,"ffici":1054,"Ġspec":1055,"Ġanalys":1056,"Ġstars":1057,"Ġini":1058,"Ġsingle":1059,"Ġrange":1060,"Ġbecause":1061,"Ġang":1062,"Ġclass":1063,"Ġind":1064,"Ġlat":1065,"Ġ201":1066,"Ġsch":1067,"Ġnew":1068,"Ġmoment":1069,"lear":1070,"tal":1071,"ormal":1072,"rent":1073,"Ġnow":1074,"Ġemission":1075,"ib":1076,"ord":1077,"rop":1078,"Ġuni":1079,"Ġconstant":1080,"Ġlocal":1081,"Ġpaper":1082,"rough":1083,"Ġreal":1084,"Ġstrong":1085,"idth":1086,"Ġinv":1087,"Ġlo":1088,"Ġlinear":1089,"ty":1090,"istic":1091,"Ġshows":1092,"Ġfrequ":1093,"Ġwave":1094,"Ġmulti":1095,"Ġid":1096,"Ġsymmetr":1097,"Ġmatrix":1098,"Ġinclu":1099,"][":1100,"ha":1101,"Ġabs":1102,"tice":1103,"Ġpow":1104,"Ġgo":1105,"Ġthrough":1106,"Ġrespectively":1107,"ew":1108,"Ġzero":1109,"Ġneut":1110,"Ġknow":1111,"Ġscale":1112,"Ġbased":1113,"Ġstud":1114,"au":1115,"Ġdom":1116,"Ġlevel":1117,"Ġanalysis":1118,"ix":1119,"ross":1120,"Ġvelocity":1121,"ive":1122,"Ġ12":1123,"Ġspectrum":1124,"itude":1125,"Ġlong":1126,"Ġfind":1127,"Ġsum":1128,"Ġstudy":1129,"Ġrepresent":1130,"urb":1131,"Ġfr":1132,"Ġexperiment":1133,"ten":1134,"Ġsystems":1135,"Ġfunctions":1136,"Ġflux":1137,"Ġderiv":1138,"Ġpol":1139,"Ġfactor":1140,"Ġrate":1141,"Ġparticular":1142,"inu":1143,"Ġwithin":1144,"ometr":1145,"Ġindic":1146,"Ġpossible":1147,"Ġeven":1148,"Ġband":1149,"Ġapproach":1150,"Ġfur":1151,"Ġfollows":1152,"fter":1153,"ativ":1154,"Ġaver":1155,"Ġsurface":1156,"qui":1157,"Ġcoupling":1158,"osed":1159,"ving":1160,"Ġsl":1161,"Ġexpres":1162,"lect":1163,"11":1164,"Ġdenot":1165,"Ġrati":1166,"Ġtotal":1167,"vious":1168,"02":1169,"Ġnumer":1170,"Ġproduc":1171,"Ġevolution":1172,"Ġshould":1173,"Ġgroup":1174,"Ġcontribution":1175,"Ġexpl":1176,"Ġproperties":1177,"Ġdiag":1178,"anti":1179,"Ġabout":1180,"val":1181,"Ġdeg":1182,"Ġproblem":1183,"Ġu":1184,"Ġlines":1185,"Ġinitial":1186,"Ġgas":1187,"Ġbeha":1188,"Ġpred":1189,"Ġparticle":1190,"igned":1191,"Ġpower":1192,"ex":1193,"Ġtheorem":1194,"Ġtype":1195,"Ġmain":1196,"Ġnear":1197,"Ġent":1198,"Ġpart":1199,"Ġhy":1200,"Ġequations":1201,"ock":1202,"Ġdoes":1203,"Ġpair":1204,"acter":1205,"Ġaddition":1206,"rm":1207,"Ġfinite":1208,"Ġlower":1209,"ift":1210,"Ġrequi":1211,"Ġlight":1212,"old":1213,"Ġdisk":1214,"Ġexample":1215,"rain":1216,"iod":1217,"Ġcharacter":1218,"oci":1219,"Ġcontinu":1220,"ains":1221,"Ġorbit":1222,"uce":1223,"ays":1224,"Ġmaxim":1225,"Ġimport":1226,"verse":1227,"Ġfix":1228,"formation":1229,"Ġpe":1230,"Ġneg":1231,"aw":1232,"Ġcar":1233,"Ġlike":1234,"Ġpredic":1235,"Ġtransition":1236,"Ġminim":1237,"Ġback":1238,"Ġtri":1239,"Ġstand":1240,"Ġinteraction":1241,"vers":1242,"Ġafter":1243,"Ġallow":1244,"Ġray":1245,"Ġocc":1246,"ertain":1247,"Ġhigher":1248,"ost":1249,"Ġsize":1250,"Ġsignific":1251,"udi":1252,"Ġerr":1253,"Ġbehavi":1254,"sitive":1255,"Ġgraph":1256,"Ġdep":1257,"Ġlarger":1258,"olog":1259,"Ġstudi":1260,"ities":1261,"ful":1262,"Ġquanti":1263,"Ġsubs":1264,"Ġdefin":1265,"Ġperform":1266,"hi":1267,"ps":1268,"Ġpoints":1269,"Ġcondition":1270,"ions":1271,"Ġatom":1272,"Ġperiod":1273,"Ġge":1274,"ved":1275,"Ġfour":1276,"Ġbin":1277,"Ġcompar":1278,"Ġcross":1279,"out":1280,"umin":1281,"ism":1282,"Ġthose":1283,"Ġintro":1284,"ement":1285,"ets":1286,"ellar":1287,"Ġsource":1288,"03":1289,"atisf":1290,"Ġlength":1291,"Ġobservations":1292,"Ġampl":1293,"Ġpr":1294,"lo":1295,"Ġeffects":1296,"Ġanaly":1297,"Ġhence":1298,"Ġsatisf":1299,"Ġhal":1300,"Ġii":1301,"ier":1302,"Ġmon":1303,"Ġsample":1304,"edi":1305,"Ġtra":1306,"Ġnormal":1307,"Ġtop":1308,"ath":1309,"Ġcurrent":1310,"Ġcomm":1311,"Ġscatter":1312,"Ġ198":1313,"Ġconsist":1314,"Ġtherm":1315,"Ġpolar":1316,"Ġhand":1317,"Ġcho":1318,"Ġfree":1319,"Ġdetail":1320,"als":1321,"Ġalong":1322,"ice":1323,"Ġmomentum":1324,"Ġsignificant":1325,"Ġcr":1326,"Ġrot":1327,"Ġassoci":1328,"Ġintere":1329,"Ġindepend":1330,"Ġbelow":1331,"Ġinterest":1332,"Ġdirect":1333,"Ġfrequency":1334,"ators":1335,"Ġful":1336,"ration":1337,"Ġgalaxy":1338,"iel":1339,"Ġeffective":1340,"Ġidenti":1341,"Ġcould":1342,"Ġgr":1343,"duce":1344,"ditions":1345,"ared":1346,"Ġimportant":1347,"dered":1348,"Ġprobability":1349,"Ġboundary":1350,"13":1351,"Ġneed":1352,"05":1353,")(":1354,"Ġconditions":1355,"ists":1356,"15":1357,"Ġparticles":1358,"tu":1359,"](":1360,"Ġir":1361,"Ġappear":1362,"elf":1363,"Ġpeak":1364,"Ġprevious":1365,"Ġrand":1366,"Ġsepar":1367,"Ġratio":1368,"Ġcomb":1369,"Ġcomponent":1370,"ality":1371,"Ġlumin":1372,"Ġright":1373,"ni":1374,"sive":1375,"Ġdirection":1376,"04":1377,"Ġobject":1378,"Ġmuch":1379,"Ġstandard":1380,"ount":1381,"Ġclear":1382,"Ġgre":1383,"Ġdistance":1384,"turb":1385,"Ġknown":1386,"Ġassume":1387,"Ġway":1388,"Ġrandom":1389,"ness":1390,"Ġunit":1391,"Ġsug":1392,"ded":1393,"Ġfields":1394,"gor":1395,"Ġferm":1396,"Ġcir":1397,"igin":1398,"Ġvector":1399,"one":1400,"Ġdescribed":1401,"ately":1402,"Ġeig":1403,"Ġnucle":1404,"Ġorigin":1405,"Ġmany":1406,"Ġprovid":1407,"fer":1408,"ulation":1409,"Ġwr":1410,"Ġoptical":1411,"Ġax":1412,"Ġtable":1413,"quence":1414,"Ġspectra":1415,"Ġunc":1416,"amil":1417,"osition":1418,"Ġcomplex":1419,"Ġlattice":1420,"14":1421,"Ġasy":1422,"anc":1423,"orph":1424,"urn":1425,"Ġconn":1426,"actions":1427,"tivity":1428,"čĊ":1429,"Ġprof":1430,"uring":1431,"Ġconstruc":1432,"Ġweak":1433,"effici":1434,"Ġmatter":1435,"ithm":1436,"very":1437,"asing":1438,"Ġeigen":1439,"Ġfeature":1440,"ven":1441,"war":1442,"Ġfixed":1443,"of":1444,"ination":1445,"ritical":1446,"Ġnumerical":1447,"Ġvol":1448,"Ġlead":1449,"Ġspectral":1450,"Ġexcit":1451,"ind":1452,"Ġformation":1453,"Ġsimple":1454,"Ġaverage":1455,"ival":1456,"Ġscattering":1457,"que":1458,"Ġexpected":1459,"erence":1460,"ode":1461,"Ġcoeffici":1462,"Ġrelation":1463,"ern":1464,"Ġsen":1465,"Ġgrav":1466,"Ġcall":1467,"Ġcirc":1468,"Ġconstrain":1469,"ope":1470,"Ġradius":1471,"Ġimag":1472,"Ġstep":1473,"Ġlemm":1474,"Ġmust":1475,"Ġpoly":1476,"Ġhol":1477,"Ġstellar":1478,"Ġcos":1479,"Ġperturb":1480,"lec":1481,"Ġrest":1482,"echan":1483,"ological":1484,"Ġsymmetry":1485,"Ġsources":1486,"Ġsimulations":1487,"ether":1488,"Ġfurther":1489,"Ġdependence":1490,"Ġcorrelation":1491,"annel":1492,"Ġdimensional":1493,"Ġindependent":1494,"Ġ13":1495,"Ġflow":1496,"ances":1497,"Ġ15":1498,"dsh":1499,"Ġexact":1500,"ogy":1501,"Ġalgor":1502,"Ġassociated":1503,"ables":1504,"Ġdecre":1505,"Ġapproximation":1506,"Ġcases":1507,"Ġbro":1508,"ward":1509,"osity":1510,"22":1511,"usion":1512,"Ġexpression":1513,"Ġcritical":1514,"tig":1515,"tonian":1516,"onds":1517,"Ġoccur":1518,"ick":1519,"Ġredsh":1520,"onal":1521,"Ġconsidered":1522,"ute":1523,"ene":1524,"Ġmechan":1525,"Ġdecay":1526,"ads":1527,"Ġmeasured":1528,"Ġstr":1529,"Ġdynamics":1530,"Ġpop":1531,"ma":1532,"Ġreson":1533,"ground":1534,"Ġaround":1535,"Ġleft":1536,"tern":1537,"Ġquark":1538,"tr":1539,"Ġrelativ":1540,"Ġbehavior":1541,"asi":1542,"Ġtre":1543,"ends":1544,"Ġseen":1545,"Ġabsor":1546,"Ġlemma":1547,"ok":1548,"07":1549,"Ġdomin":1550,"Ġchannel":1551,"tit":1552,"etwork":1553,"Ġblack":1554,"Ġplot":1555,"Ġpositive":1556,"ually":1557,"Ġcoun":1558,"Ġfram":1559,"Ġdetermined":1560,"06":1561,"Ġconsistent":1562,"Ġplane":1563,"Ġhamil":1564,"man":1565,"Ġinformation":1566,"Ġsmaller":1567,"son":1568,"16":1569,"Ġnetwork":1570,"Ġdifference":1571,"Ġrespect":1572,"Ġpul":1573,"Ġast":1574,"atur":1575,"omes":1576,"Ġins":1577,"Ġosc":1578,"Ġsti":1579,"Ġinves":1580,"Ġ14":1581,"Ġcy":1582,"Ġyiel":1583,"con":1584,"Ġinvestig":1585,"Ġregions":1586,"Ġexist":1587,"Ġequival":1588,"Ġconver":1589,"Ġser":1590,"Ġoscill":1591,"ner":1592,"Ġcosm":1593,"Ġgives":1594,"Ġsolutions":1595,"orted":1596,"Ġear":1597,"Ġmas":1598,"Ġdefine":1599,"Ġcalculated":1600,"ology":1601,"Ġexperimental":1602,"Ġfluc":1603,"Ġidentif":1604,"Ġav":1605,"ples":1606,"Ġexpon":1607,"Ġsever":1608,"plies":1609,"Ġfluctu":1610,"Ġtech":1611,"rated":1612,"Ġless":1613,"Ġhamiltonian":1614,"ither":1615,"Ġbeing":1616,"25":1617,"Ġseveral":1618,"Ġplan":1619,"ings":1620,"Ġstatis":1621,"Ġmeasurements":1622,"Ġred":1623,"tically":1624,"Ġdes":1625,"Ġvan":1626,"Ġcomponents":1627,"Ġfraction":1628,"Ġcurve":1629,"Ġevery":1630,"Ġke":1631,"Ġcorrection":1632,"Ġoperator":1633,"Ġwithout":1634,"Ġformul":1635,"Ġwidth":1636,"Ġdiagram":1637,"put":1638,".[":1639,"Ġtimes":1640,"aligned":1641,"Ġoff":1642,"over":1643,"Ġbackground":1644,"Ġpress":1645,"Ġmode":1646,"Ġbo":1647,"Ġbi":1648,"gs":1649,"though":1650,"Ġcalculations":1651,"Ġion":1652,"08":1653,"Ġdefini":1654,"Ġchange":1655,"Ġalthough":1656,"Ġbar":1657,"Ġbecomes":1658,"Ġel":1659,"onic":1660,"Ġprec":1661,"09":1662,"Ġlaw":1663,"onst":1664,"Ġproof":1665,"Ġphysical":1666,"Ġclose":1667,"line":1668,"19":1669,"Ġagain":1670,"Ġdiscussed":1671,"Ġ16":1672,"igur":1673,"Ġintegral":1674,"Ġcentral":1675,"Ġcompared":1676,"Ġmaximum":1677,"ash":1678,"xt":1679,"Ġcm":1680,"gies":1681,"Ġextend":1682,"int":1683,"Ġsn":1684,"aces":1685,"Ġfil":1686,"Ġchang":1687,"17":1688,"Ġduring":1689,"Ġpan":1690,"width":1691,"plied":1692,"Ġconfigur":1693,"Ġestimate":1694,"Ġluminosity":1695,"Ġpresented":1696,"Ġinvari":1697,"Ġrelated":1698,"ky":1699,"Ġnoise":1700,"Ġoptim":1701,"ordin":1702,"led":1703,"18":1704,"Ġupper":1705,"Ġuncertain":1706,"bers":1707,"tices":1708,"fig":1709,"ified":1710,"ime":1711,"Ġcontr":1712,"Ġposition":1713,"Ġmix":1714,"Ġerror":1715,"ansion":1716,"Ġrelative":1717,"Ġbre":1718,"xiv":1719,"odes":1720,"Ġequal":1721,"ead":1722,"och":1723,"Ġphoton":1724,"omp":1725,"Ġmap":1726,"Ġsqu":1727,"Ġhel":1728,"Ġderived":1729,"sitions":1730,"Ġcontain":1731,"ying":1732,"ible":1733,"Ġthermal":1734,"Ġamplitude":1735,"Ġshap":1736,"ording":1737,"Ġfinally":1738,"row":1739,"Ġedge":1740,"oid":1741,"45":1742,"23":1743,"Ġsugges":1744,"vant":1745,"Ġself":1746,"Ġspati":1747,"Ġexpansion":1748,"ilib":1749,"Ġarg":1750,"Ġschem":1751,"Ġclusters":1752,"Ġend":1753,"Ġgeometr":1754,"agn":1755,"Ġalgorithm":1756,"Ġthem":1757,"Ġaut":1758,"Ġcoordin":1759,"sian":1760,"Ġsem":1761,"Ġstill":1762,"Ġgaus":1763,"Ġpanel":1764,"Ġelements":1765,"Ġsignal":1766,"Ġact":1767,"Ġloop":1768,"Ġpath":1769,"Ġaccording":1770,"Ġreas":1771,"Ġ18":1772,"Ġimplies":1773,"Ġmotion":1774,"Ġhad":1775,"Ġcharge":1776,"Ġeither":1777,"duction":1778,"arch":1779,"Ġinteractions":1780,"ress":1781,"Ġangle":1782,"lection":1783,"Ġnext":1784,"itud":1785,"Ġcorresponds":1786,"Ġmodes":1787,"Ġclassical":1788,"velop":1789,"read":1790,"sities":1791,"cop":1792,"Ġ\"":1793,"Ġcalled":1794,"Ġvis":1795,"ci":1796,"Ġground":1797,"Ġleast":1798,"Ġtake":1799,"Ġmagnitude":1800,"Ġtaken":1801,"arg":1802,"side":1803,"Ġgive":1804,"ison":1805,"ather":1806,"Ġprog":1807,"Ġdenote":1808,"Ġbeam":1809,"geb":1810,"Ġfull":1811,"ood":1812,"Ġsumm":1813,"Ġgood":1814,"Ġenergies":1815,"Ġphysics":1816,"Ġaccur":1817,"Ġresolution":1818,"Ġradio":1819,"ants":1820,"Ġneutrin":1821,"ably":1822,"Ġcontro":1823,"rid":1824,"Ġhole":1825,"Ġsequence":1826,"Ġaccount":1827,"own":1828,"ilibri":1829,"Ġhom":1830,"Ġcurves":1831,"plicit":1832,"Ġagre":1833,"Ġobjects":1834,"ropy":1835,"Ġinfin":1836,"Ġangular":1837,"Ġwor":1838,"ision":1839,"Ġshort":1840,"Ġgrow":1841,"pc":1842,"Ġgau":1843,"lying":1844,"Ġexpect":1845,"ule":1846,"cl":1847,"([":1848,"Ġcap":1849,"Ġunderst":1850,"Ġredshift":1851,"Ġdevelop":1852,"Ġdem":1853,"Ġ17":1854,"Ġarxiv":1855,"Ġsolid":1856,"Ġmeans":1857,"less":1858,"other":1859,"Ġinterp":1860,"Ġgauge":1861,"etric":1862,"cs":1863,"astic":1864,"otic":1865,"Ġapplic":1866,"Ġelement":1867,"Ġturn":1868,"Ġmasses":1869,"Ġget":1870,"ilibrium":1871,"35":1872,"Ġpresence":1873,"rength":1874,"Ġlink":1875,"Ġcenter":1876,"Ġdefinition":1877,"Ġstrength":1878,"lected":1879,"Ġlay":1880,"roscop":1881,"cd":1882,"eck":1883,"Ġstudied":1884,"cept":1885,"Ġrather":1886,"bility":1887,"Ġgaussian":1888,"Ġfinal":1889,"Ġeffici":1890,"Ġaxis":1891,"Ġnegative":1892,"iter":1893,"Ġscalar":1894,"ray":1895,"ii":1896,"Ġindeed":1897,"Ġexists":1898,"mpt":1899,"Ġanother":1900,"Ġincreasing":1901,"wh":1902,"Ġaff":1903,"omorph":1904,"Ġtheoretical":1905,"Ġapplied":1906,"Ġaction":1907,"Ġconse":1908,"idence":1909,"alu":1910,"Ġlos":1911,"Ġunivers":1912,"Ġfew":1913,"pping":1914,"Ġleads":1915,"Ġaccre":1916,"Ġcalculation":1917,"Ġside":1918,"ult":1919,"Ġsuffici":1920,"Ġbasis":1921,"gc":1922,"Ġregime":1923,"Ġpropag":1924,"33":1925,"ectors":1926,"Ġvia":1927,"Ġdiscre":1928,"Ġbright":1929,"Ġhep":1930,"Ġcut":1931,"rate":1932,"Ġbefore":1933,"24":1934,"Ġhar":1935,"],":1936,"ecess":1937,"Ġadditional":1938,"Ġgap":1939,"Ġcomparison":1940,"Ġcore":1941,"Ġdark":1942,"Ġdown":1943,"Ġlog":1944,"Ġprovide":1945,"Ġbul":1946,"Ġcell":1947,"Ġfar":1948,"Ġdust":1949,"actic":1950,"Ġrele":1951,"Ġproj":1952,"Ġide":1953,")[":1954,"Ġincrease":1955,"tex":1956,"Ġrelations":1957,"Ġprocesses":1958,"Ġvarious":1959,"Ġmic":1960,"ighb":1961,"Ġequilibrium":1962,"Ġtransform":1963,"Ġincreases":1964,"Ġevalu":1965,"Ġindex":1966,"Ġabsorption":1967,"Ġnecess":1968,"Ġpressure":1969,"Ġnatur":1970,"Ġdependent":1971,"he":1972,"ortion":1973,"Ġdiscussion":1974,"Ġreason":1975,"Ġinteresting":1976,"Ġlik":1977,"urst":1978,"ody":1979,"Ġindi":1980,"Ġopen":1981,"li":1982,"Ġfluctuations":1983,"Ġmeasurement":1984,"Ġvariables":1985,"75":1986,"Ġsci":1987,"Ġneighb":1988,"iform":1989,"Ġgravit":1990,"Ġdistributions":1991,"Ġwhat":1992,"Ġmoreover":1993,"Ġbet":1994,"Ġdepends":1995,"lob":1996,"Ġinvol":1997,"Ġmethods":1998,"Ġprin":1999,"20":2000,"Ġfeatures":2001,"Ġbreak":2002,"Ġstudies":2003,"Ġbos":2004,"Ġdisper":2005,"Ġdel":2006,"Ġill":2007,"omial":2008,"ater":2009,"Ġrun":2010,"Ġequivalent":2011,"Ġexperiments":2012,"ott":2013,"Ġexplicit":2014,"Ġinterval":2015,"ume":2016,"Ġdegree":2017,"medi":2018,"Ġformula":2019,"Ġresulting":2020,"Ġimage":2021,"lit":2022,"Ġasympt":2023,"Ġprim":2024,"Ġsimulation":2025,"Ġspatial":2026,"Ġmolec":2027,"itten":2028,"Ġsimpl":2029,"Ġreach":2030,"Ġanti":2031,"Ġalgeb":2032,"ication":2033,"Ġexplain":2034,"Ġglob":2035,"Ġrev":2036,"Ġradiation":2037,"Ġvertex":2038,"Ġoperators":2039,"Ġmater":2040,"Ġ25":2041,"Ġlab":2042,"Ġngc":2043,"Ġclo":2044,"phys":2045,"26":2046,"Ġcontinuous":2047,"Ġprofile":2048,"Ġsw":2049,"plac":2050,"Ġsymmetric":2051,"Ġcharacteristic":2052,"ooth":2053,"Ġcorrect":2054,"Ġagreement":2055,"Ġscaling":2056,"Ġincluding":2057,"Ġuniform":2058,"Ġbest":2059,"Ġ2000":2060,"Ġcoh":2061,"equ":2062,"Ġcolor":2063,"Ġ1998":2064,"Ġhyper":2065,"Ġmade":2066,"dro":2067,"ning":2068,"Ġscales":2069,"Ġrecent":2070,"ret":2071,"Ġloss":2072,"Ġmaterial":2073,"Ġlast":2074,"Ġ20":2075,"osph":2076,"oint":2077,"Ġvanish":2078,"Ġproced":2079,"abil":2080,"Ġremain":2081,"Ġsurve":2082,"Ġpopulation":2083,"agnetic":2084,"Ġdot":2085,"Ġtechni":2086,"Ġprocedure":2087,"Ġwhose":2088,"Ġhor":2089,"Ġmak":2090,"Ġevent":2091,"Ġmake":2092,"Ġgev":2093,"angle":2094,"Ġperformed":2095,"Ġ100":2096,"Ġclearly":2097,"gest":2098,",,":2099,"Ġassumed":2100,"Ġdiscuss":2101,"Ġcoefficients":2102,"most":2103,"Ġleading":2104,"Ġevents":2105,"Ġimpro":2106,"umn":2107,"Ġproposed":2108,"Ġdetermin":2109,"Ġdetermine":2110,"Ġview":2111,"Ġmedi":2112,"Ġsmooth":2113,"Ġrotation":2114,"Ġapj":2115,"velength":2116,"ribut":2117,")-":2118,"Ġelectrons":2119,"itudes":2120,"lish":2121,"Ġjust":2122,"Ġreduced":2123,"mit":2124,"Ġtens":2125,"28":2126,"Ġ11":2127,"acy":2128,"Ġphen":2129,"Ġdri":2130,"Ġmes":2131,"ars":2132,"gen":2133,"Ġsplit":2134,"Ġinvariant":2135,"Ġminimum":2136,"uble":2137,"ription":2138,"Ġinduced":2139,"Ġhard":2140,"ins":2141,"Ġdynamical":2142,"Ġvolume":2143,"sible":2144,"Ġmer":2145,"icity":2146,"Ġdash":2147,"Ġ1999":2148,"Ġshock":2149,"Ġabund":2150,"Ġwavelength":2151,"Ġhydro":2152,"Ġ2003":2153,"Ġcontributions":2154,"Ġarbit":2155,"Ġcolumn":2156,"Ġsets":2157,"Ġspecific":2158,"br":2159,"aries":2160,"Ġnam":2161,"Ġeqs":2162,"Ġ2001":2163,"Ġshape":2164,"ogene":2165,"Ġcontains":2166,"Ġpolarization":2167,"Ġrestric":2168,"anch":2169,"vid":2170,"ki":2171,"Ġvariable":2172,"Ġtypical":2173,"iral":2174,"ceed":2175,"Ġarbitr":2176,"Ġchem":2177,"Ġmark":2178,"34":2179,"Ġatt":2180,"Ġradial":2181,"Ġproduction":2182,"Ġseries":2183,"Ġdescribe":2184,"Ġneutron":2185,"Ġweight":2186,"Ġori":2187,"Ġprot":2188,"ites":2189,"Ġnature":2190,"Ġdouble":2191,"27":2192,"21":2193,"Ġeigenval":2194,"lin":2195,"resh":2196,"Ġdispersion":2197,"29":2198,"Ġaccretion":2199,"omen":2200,"ext":2201,"Ġconven":2202,"Ġavail":2203,"Ġforce":2204,"Ġscen":2205,"Ġgenerated":2206,"Ġcre":2207,"Ġtest":2208,"yst":2209,"Ġnuclear":2210,"Ġ2004":2211,"Ġscheme":2212,"Ġrespon":2213,"Ġcontinuum":2214,"Ġscenari":2215,"Ġcool":2216,"Ġachi":2217,"Ġimages":2218,"Ġphenomen":2219,"ump":2220,"raph":2221,"Ġrequired":2222,"Ġ2002":2223,"Ġmetall":2224,"Ġtransp":2225,"bed":2226,"jor":2227,"Ġchanges":2228,"Ġdemonst":2229,"Ġatoms":2230,"eler":2231,"Ġindivid":2232,"Ġdetected":2233,"Ġsyn":2234,"ament":2235,"Ġstable":2236,"osen":2237,"Ġquas":2238,"zation":2239,"Ġjet":2240,"Ġ24":2241,"ways":2242,"Ġstrongly":2243,"Ġenough":2244,"Ġassuming":2245,"Ġassumption":2246,"Ġcomplete":2247,"Ġens":2248,"Ġ2006":2249,"Ġgalactic":2250,"tz":2251,"fs":2252,"ia":2253,"Ġpolyn":2254,"Ġtor":2255,"Ġextended":2256,"tics":2257,"entially":2258,"duct":2259,"Ġfund":2260,"Ġalmost":2261,"Ġalgebra":2262,"omb":2263,"gence":2264,"therm":2265,"Ġstructures":2266,"Ġcond":2267,"ides":2268,"Ġsitu":2269,"Ġneutrino":2270,"Ġ2005":2271,"ready":2272,"Ġcalculate":2273,"Ġalready":2274,"Ġell":2275,"Ġfermi":2276,"Ġ197":2277,"Ġavailable":2278,"Ġtaking":2279,"Ġvertices":2280,"Ġastro":2281,"Ġfoc":2282,"Ġpure":2283,"Ġyields":2284,"rem":2285,"Ġspe":2286,"Ġcompact":2287,"Ġsolar":2288,"Ġallows":2289,"Ġmem":2290,"36":2291,"Ġproduct":2292,"Ġchosen":2293,"Ġpolynomial":2294,"ks":2295,"Ġlatter":2296,"Ġtemperatures":2297,"Ġcertain":2298,"Ġbroad":2299,"Ġparti":2300,"Ġdashed":2301,"Ġmight":2302,"Ġchoice":2303,"Ġla":2304,"ories":2305,"99":2306,"Ġwind":2307,"Ġcaus":2308,"Ġtun":2309,"Ġrecently":2310,"ne":2311,"Ġinstead":2312,"Ġrates":2313,"Ġmetric":2314,"eti":2315,"Ġillust":2316,"ein":2317,"aneous":2318,"ences":2319,"Ġ1997":2320,"encies":2321,"Ġthresh":2322,"Ġargum":2323,"Ġflat":2324,"Ġpuls":2325,"Ġmatch":2326,"ased":2327,"50":2328,"Ġmassive":2329,"ss":2330,"Ġalways":2331,"Ġregular":2332,"Ġsignificantly":2333,"Ġwritten":2334,"Ġrequire":2335,"Ġconclu":2336,"Ġunderstand":2337,"Ġdirectly":2338,"wise":2339,"Ġhalf":2340,"Ġhoriz":2341,"Ġobservation":2342,"Ġmajor":2343,"Ġconfiguration":2344,"Ġpatter":2345,"Ġnumbers":2346,"linear":2347,"Ġvac":2348,"sp":2349,"Ġess":2350,"Ġconnected":2351,"Ġquad":2352,"Ġindividual":2353,"ries":2354,"Ġrepresentation":2355,"Ġbody":2356,"zed":2357,"ave":2358,"Ġhalo":2359,"Ġsoft":2360,"Ġblue":2361,"Ġerrors":2362,"38":2363,"ising":2364,"Ġarea":2365,"Ġdetection":2366,"Ġorbital":2367,"Ġdomain":2368,"rag":2369,"Ġ1996":2370,"Ġvalid":2371,"ged":2372,"izing":2373,"duces":2374,"Ġsupercon":2375,"eter":2376,"Ġwhether":2377,"Ġpattern":2378,"pid":2379,"Ġconstraints":2380,"Ġdevi":2381,"37":2382,"Ġorient":2383,"ention":2384,"ply":2385,"Ġslow":2386,"thermore":2387,"Ġconcl":2388,"Ġfurthermore":2389,"bol":2390,"Ġinput":2391,"hibit":2392,"Ġdescription":2393,"Ġlett":2394,"Ġkin":2395,"Ġestimated":2396,"55":2397,"Ġholds":2398,"Ġthough":2399,"Ġtarg":2400,"Ġenh":2401,"Ġsym":2402,"Ġshell":2403,"Ġexch":2404,"izes":2405,"Ġbinary":2406,"Ġbecome":2407,"44":2408,"Ġcontrol":2409,"Ġbranch":2410,"Ġ2007":2411,"alle":2412,"Ġinner":2413,"Ġrelevant":2414,"co":2415,"tt":2416,"Ġprovides":2417,"Ġadop":2418,"Ġsearch":2419,"Ġdifferential":2420,"Ġgravitational":2421,"Ġprove":2422,"bs":2423,"dd":2424,"Ġintern":2425,"Ġuseful":2426,"Ġresonance":2427,"ract":2428,"Ġplas":2429,"Ġappears":2430,"Ġtensor":2431,"Ġfocus":2432,"Ġtrue":2433,"Ġclos":2434,"Ġstra":2435,"Ġdetails":2436,"Ġdensities":2437,"Ġphotometr":2438,"Ġmev":2439,"inc":2440,"Ġmolecular":2441,"Ġextern":2442,"romagnetic":2443,"Ġcommon":2444,"Ġintroduced":2445,"Ġtog":2446,"Ġframe":2447,"Ġcorrections":2448,"Ġprovided":2449,"Ġasymptotic":2450,"til":2451,"Ġexistence":2452,"Ġslight":2453,"Ġdiffic":2454,"Ġaverag":2455,"Ġques":2456,"Ġhorizon":2457,"Ġren":2458,"inal":2459,"-[":2460,"Ġtransfer":2461,"ry":2462,"Ġtogether":2463,"Ġseem":2464,"Ġamong":2465,"Ġentropy":2466,"Ġuniverse":2467,"Ġdiagonal":2468,"Ġcorrelations":2469,"hz":2470,"earch":2471,"Ġconcent":2472,"Ġgu":2473,"ening":2474,"roscopic":2475,"Ġcryst":2476,"vial":2477,"Ġextrem":2478,"Ġnatural":2479,"Ġmath":2480,"des":2481,"Ġstatistical":2482,"Ġresearch":2483,"Ġproportion":2484,"Ġsupport":2485,"Ġlikely":2486,"endi":2487,"Ġrole":2488,"ects":2489,"wn":2490,"inary":2491,"Ġbetter":2492,"Ġmanif":2493,"Ġcoefficient":2494,"Ġinclude":2495,"Ġcheck":2496,"Ġmultiple":2497,"ras":2498,"Ġagn":2499,"Ġ2008":2500,"to":2501,"Ġexternal":2502,"Ġproposition":2503,"Ġedges":2504,"wards":2505,"Ġlag":2506,"Ġellip":2507,"Ġhadron":2508,"oh":2509,"Ġcompare":2510,"30":2511,"Ġsquare":2512,"atively":2513,"rices":2514,"Ġpairs":2515,"Ġsuppose":2516,"Ġkm":2517,"Ġest":2518,".,":2519,"39":2520,"Ġsubst":2521,"Ġrelatively":2522,"Ġphotons":2523,"iles":2524,"Ġadj":2525,"Ġmechanism":2526,"Ġclosed":2527,"iggs":2528,"Ġarbitrary":2529,"its":2530,"Ġthick":2531,"Ġspher":2532,"tif":2533,"allel":2534,"Ġdetailed":2535,"31":2536,"Ġproduced":2537,"Ġep":2538,"ze":2539,"Ġthreshold":2540,"Ġproperty":2541,"Ġnonlinear":2542,"ie":2543,"Ġconser":2544,"Ġexhibit":2545,"Ġglobal":2546,"Ġarray":2547,"Ġacceler":2548,"32":2549,"Ġshall":2550,"Ġquite":2551,"65":2552,"Ġremark":2553,"Ġsingular":2554,"Ġgam":2555,"oy":2556,"ogeneous":2557,"Ġfactors":2558,"endix":2559,"Ġheav":2560,"sh":2561,"Ġinequ":2562,"asily":2563,"Ġobserve":2564,"Ġeasily":2565,"Ġenv":2566,"Ġcomputed":2567,"mediate":2568,"rang":2569,"Ġmodul":2570,"otrop":2571,"Ġsystematic":2572,"000":2573,"Ġcover":2574,"Ġhiggs":2575,"Ġintensity":2576,"Ġappendix":2577,"..":2578,"Ġ2009":2579,"Ġbulk":2580,"ematic":2581,"Ġnecessary":2582,"Ġwrite":2583,"48":2584,"Ġrelax":2585,"Ġgeometry":2586,"Ġdiv":2587,"Ġnode":2588,"Ġcyc":2589,"ifts":2590,"Ġconfir":2591,"Ġsite":2592,"Ġmention":2593,"Ġgreen":2594,"Ġthir":2595,"Ġperiodic":2596,"Ġrapid":2597,"Ġanis":2598,"Ġbott":2599,"Ġexactly":2600,"pped":2601,"ler":2602,"ored":2603,"Ġaltern":2604,".([":2605,"ank":2606,"els":2607,"Ġfluid":2608,"Ġsus":2609,"Ġremains":2610,"Ġchain":2611,"Ġimple":2612,"Ġmedium":2613,"Ġdwar":2614,"Ġdegener":2615,"Ġcondens":2616,"Ġrepro":2617,"Ġyear":2618,"Ġcoupled":2619,"acting":2620,"Ġvary":2621,"Ġtab":2622,"Ġprinci":2623,"Ġlayer":2624,"Ġspecial":2625,"Ġsections":2626,"assi":2627,"Ġthin":2628,"Ġparallel":2629,"by":2630,"know":2631,"Ġcontrast":2632,"49":2633,"iron":2634,"Ġdip":2635,"Ġcat":2636,"Ġfundament":2637,"Ġsamples":2638,"Ġtransverse":2639,"Ġevidence":2640,"Ġreported":2641,"Ġadd":2642,"Ġoccurs":2643,"Ġrefer":2644,"Ġcombin":2645,"erent":2646,"arily":2647,"Ġpur":2648,"Ġoptimal":2649,"Ġdenotes":2650,"Ġquantities":2651,"eq":2652,"Ġsurvey":2653,"Ġextra":2654,"Ġkev":2655,"Ġlater":2656,"Ġmn":2657,"ify":2658,"Ġtransformation":2659,"lation":2660,"por":2661,"Ġheavy":2662,"Ġ1995":2663,"Ġ26":2664,"for":2665,"Ġvacu":2666,"Ġglu":2667,"Ġrelativistic":2668,"Ġhaving":2669,"Ġmaps":2670,"Ġsupported":2671,"Ġspeed":2672,"Ġexchange":2673,"isting":2674,"Ġperturbation":2675,"ld":2676,"Ġopp":2677,"ob":2678,"art":2679,"Ġdiffusion":2680,"Ġimplement":2681,"Ġlas":2682,"Ġmatrices":2683,"Ġcoordinates":2684,"view":2685,"Ġintroduce":2686,"Ġsph":2687,"Ġdecomp":2688,"Ġauth":2689,"Ġenviron":2690,"Ġshift":2691,"Ġsimply":2692,"olved":2693,"Ġwhereas":2694,"Ġinfinite":2695,"off":2696,"taneous":2697,"Ġrepresents":2698,"Ġdone":2699,"Ġphases":2700,"Ġearly":2701,"Ġatomic":2702,"Ġnamely":2703,"isions":2704,"Ġestimates":2705,"Ġoriginal":2706,"Ġplanet":2707,"Ġpic":2708,"Ġcarri":2709,"amp":2710,"Ġsky":2711,"Ġsuc":2712,"Ġcompute":2713,"Ġinside":2714,"hood":2715,"stein":2716,"Ġbounded":2717,"time":2718,"Ġsimilarly":2719,"Ġincl":2720,"Ġchemical":2721,"Ġ28":2722,"Ġeas":2723,"Ġ30":2724,"Ġlimits":2725,"Ġthird":2726,"47":2727,"Ġtransitions":2728,"Ġgl":2729,"Ġuncertainty":2730,"Ġblock":2731,"Ġpri":2732,"mmetric":2733,"ring":2734,"Ġelectric":2735,"uture":2736,"Ġgrowth":2737,"Ġvariation":2738,"Ġapply":2739,"Ġgroups":2740,"Ġ2010":2741,"Ġneighbor":2742,"Ġtransport":2743,"ee":2744,"aled":2745,"Ġcode":2746,"Ġthm":2747,"oration":2748,"Ġprofiles":2749,"Ġcomplet":2750,"66":2751,"osite":2752,"Ġfundamental":2753,"Ġdifferences":2754,"Ġchoose":2755,"40":2756,"Ġ27":2757,"the":2758,"Ġslightly":2759,"Ġpredicted":2760,"Ġmixing":2761,"ices":2762,"Ġvacuum":2763,"berg":2764,"Ġtoo":2765,"Ġenti":2766,"Ġsatisfies":2767,"ressed":2768,"Ġqubit":2769,"ributed":2770,"98":2771,"Ġproblems":2772,"Ġunique":2773,"Ġlevels":2774,"Ġquasi":2775,"Ġproportional":2776,"Ġfitting":2777,"Ġfuture":2778,"Ġenc":2779,"Ġbottom":2780,"Ġcand":2781,"pri":2782,"Ġfrequencies":2783,"Ġscenario":2784,"Ġbu":2785,"Ġintegration":2786,"Ġinters":2787,"Ġderive":2788,"Ġstring":2789,"Ġrecall":2790,"olation":2791,"ta":2792,"we":2793,"go":2794,"Ġtel":2795,"Ġbary":2796,"Ġtarget":2797,"mann":2798,"95":2799,"Ġwaves":2800,"Ġiii":2801,"Ġones":2802,"Ġconclude":2803,"Ġtakes":2804,"Ġrenormal":2805,"ages":2806,"ablish":2807,"Ġca":2808,"Ġapproximately":2809,"ans":2810,"ami":2811,"cess":2812,"Ġappropri":2813,"ots":2814,"Ġestablish":2815,"Ġconsidering":2816,"seud":2817,"ident":2818,"Ġgravity":2819,"Ġrough":2820,"otropic":2821,"Ġmid":2822,"yr":2823,"esis":2824,"Ġtypes":2825,"assif":2826,"Ġkine":2827,"ification":2828,"Ġanalog":2829,"Ġdual":2830,"Ġfill":2831,"Ġbeg":2832,"46":2833,"Ġscience":2834,"Ġdiscrete":2835,"Ġlens":2836,"Ġpass":2837,"Ġstability":2838,"Ġps":2839,"97":2840,"Ġpseud":2841,"Ġgradi":2842,"anced":2843,"Ġinflu":2844,"Ġmm":2845,"Ġdetector":2846,"Ġcollisions":2847,"Ġcosmological":2848,"ove":2849,"Ġrequires":2850,"Ġconfirm":2851,"Ġbal":2852,"Ġsituation":2853,"Ġcoinc":2854,"Ġproduce":2855,"Ġformal":2856,"Ġinfra":2857,"Ġdimensions":2858,"Ġbey":2859,"Ġtelesc":2860,"Ġdiver":2861,"Ġexcitation":2862,"Ġnar":2863,"Ġtraject":2864,"Ġversion":2865,"cep":2866,"Ġgenerally":2867,"ium":2868,"Ġdecreases":2869,"Ġbands":2870,"Ġable":2871,"Ġsufficiently":2872,"Ġbeyond":2873,"Ġcandid":2874,"band":2875,"Ġincluded":2876,"ior":2877,"Ġouter":2878,"Ġdr":2879,"Ġdominated":2880,"sid":2881,"Ġnodes":2882,"Ġnucl":2883,"Ġsf":2884,"Ġintermediate":2885,"ques":2886,"rins":2887,"ale":2888,"Ġconstraint":2889,"atory":2890,"Ġaligned":2891,"Ġmag":2892,"ised":2893,"Ġclassif":2894,"Ġreference":2895,"ework":2896,",-":2897,"Ġidentified":2898,"Ġconsequ":2899,"Ġ2011":2900,"Ġret":2901,"Ġframework":2902,"Ġinstance":2903,"Ġtes":2904,"Ġinfrared":2905,"Ġcurv":2906,"Ġcounter":2907,"Ġresponse":2908,"way":2909,"Ġempl":2910,"Ġorth":2911,"Ġcommun":2912,"Ġindicates":2913,"Ġsphere":2914,"\",":2915,"Ġcloud":2916,"Ġquestion":2917,"itt":2918,"Ġratios":2919,"ially":2920,"Ġcf":2921,"Ġfermion":2922,"Ġinterpret":2923,"Ġdir":2924,"ou":2925,"Ġcalib":2926,"Ġconstruction":2927,"iss":2928,"Ġexpand":2929,"Ġuncertainties":2930,"Ġuv":2931,"Ġneutral":2932,"Ġindicate":2933,"sy":2934,"faces":2935,"Ġhist":2936,"Ġperm":2937,"Ġseparation":2938,"Ġrich":2939,"Ġcoordinate":2940,"Ġplasma":2941,"Ġfunctional":2942,"Ġtrivial":2943,"Ġobvious":2944,"ef":2945,"Ġsay":2946,"Ġextract":2947,"Ġpredictions":2948,"Ġexpressed":2949,"Ġiden":2950,"Ġlook":2951,"Ġinvestigate":2952,"mer":2953,"Ġsa":2954,"Ġreview":2955,"Ġconv":2956,"Ġstraight":2957,"Ġentire":2958,"rees":2959,"67":2960,"Ġexponential":2961,"Ġpost":2962,"Ġqcd":2963,"ging":2964,"arent":2965,"Ġiter":2966,"Ġtree":2967,"Ġcooling":2968,"Ġ1994":2969,"Ġprinciple":2970,"ling":2971,"Ġage":2972,"Ġbasic":2973,"uk":2974,"Ġextension":2975,"Ġdepth":2976,"isms":2977,"rs":2978,"Ġdev":2979,"ections":2980,"Ġmetallicity":2981,"Ġinverse":2982,"Ġ22":2983,"Ġcollap":2984,"Ġnotice":2985,"Ġvectors":2986,"Ġefficiency":2987,"df":2988,"Ġlif":2989,"Ġfer":2990,"Ġkn":2991,"Ġcontext":2992,"Ġlie":2993,"ares":2994,"Ġtreat":2995,"Ġpossibility":2996,"ression":2997,"Ġsense":2998,"Ġhot":2999,"eved":3000,"Ġdistin":3001,"Ġsatisfy":3002,"),":3003,"Ġreve":3004,"68":3005,"Ġnetworks":3006,"Ġkinetic":3007,"Ġharm":3008,"ik":3009,"Ġamplitudes":3010,"abilities":3011,"Ġplay":3012,"Ġcollab":3013,"Ġly":3014,"order":3015,"57":3016,"Ġreplac":3017,"Ġcurvature":3018,"mmetry":3019,"Ġpix":3020,"Ġcollision":3021,"Ġring":3022,"Ġturb":3023,"Ġau":3024,"osphere":3025,"Ġ21":3026,"Ġconstants":3027,"Ġonce":3028,"Ġlem":3029,"Ġmorph":3030,"Ġdispl":3031,"Ġappropriate":3032,"Ġregard":3033,"Ġhyp":3034,"Ġsetting":3035,"Ġnan":3036,"Ġgen":3037,"Ġpicture":3038,"Ġnor":3039,"Ġcosmic":3040,"Ġfully":3041,"bi":3042,"Ġatm":3043,"Ġproton":3044,"Ġselected":3045,"Ġamount":3046,"ises":3047,"Ġfilter":3048,"Ġeqn":3049,"Ġaccuracy":3050,"vari":3051,"Ġmc":3052,"Ġcompletely":3053,"Ġminimal":3054,"Ġintrins":3055,"Ġoverl":3056,"Ġembed":3057,"Ġprac":3058,"Ġdop":3059,"Ġneeded":3060,"ynamic":3061,"Ġirre":3062,"Ġ50":3063,"Ġnever":3064,"Ġtowards":3065,"Ġinternal":3066,"Ġlonger":3067,"Ġparts":3068,"Ġstarting":3069,"Ġsites":3070,"Ġ2012":3071,"Ġdiagrams":3072,"Ġapproaches":3073,"Ġvelocities":3074,"Ġdepending":3075,"60":3076,"Ġconsists":3077,"Ġlimited":3078,"Ġgraphs":3079,"Ġkey":3080,"Ġdetect":3081,"Ġexamples":3082,"Ġtopological":3083,"Ġquantity":3084,"Ġri":3085,"Ġnuclei":3086,"Ġattr":3087,"Ġmagneti":3088,"Ġwhite":3089,"Ġentangle":3090,"Ġturbul":3091,"Ġmetal":3092,"Ġdifficult":3093,"Ġlocated":3094,"Ġformed":3095,"ptions":3096,"Ġeigenvalues":3097,"Ġslope":3098,"Ġabsol":3099,"Ġfast":3100,"Ġexcept":3101,"ca":3102,"itz":3103,"Ġresid":3104,"function":3105,"Ġproceed":3106,"uish":3107,"Ġconsequence":3108,"Ġmentioned":3109,"43":3110,"Ġchannels":3111,"Ġnarrow":3112,"Ġinequality":3113,"Ġtypically":3114,"Ġnm":3115,"quid":3116,"Ġheat":3117,"Ġconvergence":3118,"Ġpartial":3119,"ova":3120,"Ġemit":3121,"omorphism":3122,"Ġpulse":3123,"flow":3124,"amb":3125,"Ġabundance":3126,"Ġiniti":3127,"Ġstation":3128,"Ġcombination":3129,"Ġentanglement":3130,"title":3131,"Ġconfigurations":3132,"Ġliquid":3133,"Ġhighly":3134,"avity":3135,"Ġwide":3136,"Ġdeveloped":3137,"Ġsuggests":3138,"Ġyears":3139,"sitivity":3140,"ild":3141,"Ġenvironment":3142,"Ġdegrees":3143,"Ġoverall":3144,"Ġactive":3145,"rad":3146,"ticle":3147,"Ġfinding":3148,"Ġfits":3149,"Ġmakes":3150,"Ġfreed":3151,"Ġhelp":3152,"Ġvertical":3153,"Ġanalytic":3154,"Ġiss":3155,"Ġlowest":3156,"Ġfourier":3157,"Ġusually":3158,"Ġspherical":3159,"Ġbehaviour":3160,"pec":3161,"Ġwhole":3162,"Ġoften":3163,"Ġusual":3164,"Ġauthors":3165,"Ġpack":3166,"Ġplotted":3167,"omal":3168,"Ġ23":3169,"Ġinteger":3170,"Ġcatal":3171,"Ġhub":3172,"58":3173,"Ġstri":3174,"96":3175,"Ġga":3176,"Ġoscillations":3177,"Ġprogram":3178,"Ġcriter":3179,"Ġ.-":3180,"Ġgeneralized":3181,"plicity":3182,"sip":3183,"Ġchiral":3184,"Ġdecrease":3185,"Ġargument":3186,"Ġvariations":3187,"nel":3188,"Ġexpressions":3189,"Ġtechnique":3190,"Ġoutput":3191,"Ġsuperconduc":3192,"eless":3193,"Ġsummar":3194,"Ġitself":3195,"ino":3196,"uth":3197,"Ġsubstit":3198,"Ġlaser":3199,"Ġbias":3200,"isted":3201,"Ġwall":3202,"Ġselection":3203,"Ġdecays":3204,"Ġdra":3205,"Ġearl":3206,"set":3207,"Ġlept":3208,"Ġallowed":3209,"Ġphon":3210,"Ġsufficient":3211,"Ġpeaks":3212,"Ġderivative":3213,"Ġconstruct":3214,"ledge":3215,"Ġburst":3216,"burst":3217,"ire":3218,"Ġrule":3219,"Ġcomputation":3220,"bert":3221,"Ġ1993":3222,"Ġuniversity":3223,"amily":3224,"Ġrob":3225,"Ġtransm":3226,"Ġreduction":3227,"Ġpub":3228,"Ġseg":3229,"Ġapparent":3230,"Ġthermod":3231,"ights":3232,"Ġcombined":3233,"Ġstart":3234,"pro":3235,"Ġsi":3236,"Ġboson":3237,"Ġorbits":3238,"Ġoccup":3239,"Ġrelaxation":3240,"ley":3241,"Ġsuggest":3242,"Ġplace":3243,"Ġanomal":3244,"Ġcharged":3245,"gan":3246,"Ġimprove":3247,"Ġtechn":3248,"Ġhost":3249,"Ġdm":3250,"Ġodd":3251,"Ġcour":3252,"ety":3253,"Ġvir":3254,"42":3255,"Ġunits":3256,"Ġdistances":3257,"Ġdissip":3258,"Ġqual":3259,"Ġfreedom":3260,"onical":3261,"Ġapplications":3262,"110":3263,"Ġfamily":3264,"Ġmodified":3265,"Ġgreater":3266,"Ġnormalized":3267,"Ġidentical":3268,"Ġexplicitly":3269,"Ġcouplings":3270,"Ġpreviously":3271,"itch":3272,"Ġpositions":3273,"Ġhypoth":3274,"Ġliter":3275,"Ġdeform":3276,"Ġdiffus":3277,"hip":3278,"eric":3279,"Ġnotation":3280,"imensional":3281,"Ġinteracting":3282,"Ġnucleon":3283,"Ġsubse":3284,"Ġseems":3285,"Ġsteps":3286,"Ġans":3287,"Ġcoherent":3288,"Ġcavity":3289,"Ġdenoted":3290,"Ġpartition":3291,"Ġho":3292,"ull":3293,"Ġsensitive":3294,"Ġdistinct":3295,"Ġrise":3296,"Ġeasy":3297,"Ġ35":3298,"be":3299,"Ġrepresented":3300,"Ġgi":3301,"etries":3302,"cent":3303,"Ġaccurate":3304,"Ġstatistics":3305,"Ġadv":3306,"Ġbelong":3307,"ah":3308,"ader":3309,"avor":3310,"Ġelectronic":3311,"]-[":3312,"Ġyoun":3313,"Ġintrinsic":3314,"Ġanalytical":3315,"Ġshar":3316,"Ġavoid":3317,"Ġconduc":3318,"Ġsuit":3319,"Ġinstability":3320,"Ġideal":3321,"Ġstat":3322,"Ġactually":3323,"onstruc":3324,"Ġcycle":3325,"Ġhomogeneous":3326,"Ġastrophys":3327,"Ġpurp":3328,"Ġ38":3329,"Ġdominant":3330,"pr":3331,"Ġearlier":3332,"imin":3333,"lig":3334,"200":3335,"Ġstrate":3336,"Ġnumerically":3337,"Ġabsolute":3338,"Ġapplying":3339,"Ġyield":3340,"Ġstoch":3341,"ker":3342,"rangian":3343,"Ġapproximate":3344,"Ġtelescope":3345,"Ġtransmission":3346,"ours":3347,"Ġreconstruc":3348,"Ġnorm":3349,"Ġpossib":3350,"Ġ37":3351,"Ġmac":3352,"min":3353,"Ġexcited":3354,"Ġprimary":3355,"aim":3356,"ducing":3357,"Ġsemi":3358,"Ġexcess":3359,"Ġinterf":3360,"Ġlagrangian":3361,"den":3362,"Ġfigs":3363,"Ġreaction":3364,"mc":3365,"Ġsymbol":3366,"dle":3367,"Ġqualit":3368,"41":3369,"Ġtriang":3370,"Ġrh":3371,"oren":3372,"Ġgrid":3373,"olated":3374,"po":3375,"Ġpc":3376,"Ġrang":3377,"active":3378,"dimensional":3379,"Ġwal":3380,"Ġfain":3381,"Ġvers":3382,"az":3383,"Ġtechniques":3384,"69":3385,"olar":3386,"Ġber":3387,"Ġstatic":3388,"eli":3389,"Ġthank":3390,"ini":3391,"oll":3392,"Ġconstructed":3393,"na":3394,"Ġnearly":3395,"Ġbreaking":3396,"Ġprior":3397,"Ġinvestigated":3398,"Ġyet":3399,"Ġliterature":3400,"Ġotherwise":3401,"Ġbox":3402,"Ġcas":3403,"sm":3404,"Ġgradient":3405,"Ġsynch":3406,"fect":3407,"vex":3408,"Ġintegrated":3409,"Ġstationary":3410,"elect":3411,"Ġnucleus":3412,"Ġbrightness":3413,"Ġstress":3414,"Ġfac":3415,"Ġcourse":3416,"Ġinfluence":3417,"Ġperformance":3418,"Ġcatalog":3419,"Ġprojection":3420,"Ġexplo":3421,"mod":3422,"Ġsampl":3423,"Ġkeep":3424,"Ġic":3425,"Ġremov":3426,"Ġdisting":3427,"ortex":3428,"Ġrow":3429,"Ġconcern":3430,"Ġfall":3431,"Ġremaining":3432,"Ġland":3433,"Ġevol":3434,"Ġclaim":3435,"Ġwords":3436,"Ġsuccess":3437,"Ġcoul":3438,"Ġdistinguish":3439,"Ġapplication":3440,"Ġmagnet":3441,"Ġensem":3442,"Ġaway":3443,"Ġrece":3444,"Ġcollaboration":3445,"Ġabsence":3446,"ules":3447,"Ġshowed":3448,"Ġpotentials":3449,"Ġdipole":3450,"Ġcontact":3451,"Ġ...":3452,"Ġroughly":3453,"Ġfigures":3454,"Ġunderstanding":3455,"stable":3456,"Ġconserv":3457,"Ġemploy":3458,"Ġhtt":3459,"ribute":3460,"Ġ00":3461,"Ġsuggested":3462,"Ġespec":3463,"Ġstochastic":3464,"Ġproject":3465,"Ġcharacterized":3466,"Ġholes":3467,"Ġdeep":3468,"olds":3469,"Ġgrant":3470,"Ġconveni":3471,"Ġcoulomb":3472,"Ġsensitivity":3473,"Ġcontaining":3474,"Ġonto":3475,"Ġemer":3476,"Ġpp":3477,"Ġtrack":3478,"ued":3479,"Ġkern":3480,"Ġoutside":3481,"Ġespecially":3482,"Ġacross":3483,"Ġsubtr":3484,"Ġasp":3485,"Ġsimultaneous":3486,"Ġdirac":3487,"app":3488,"Ġsplitting":3489,"Ġneglig":3490,"ream":3491,"Ġlogar":3492,"Ġpopul":3493,"Ġein":3494,"Ġkpc":3495,"Ġexplained":3496,"Ġmaximal":3497,"85":3498,"Ġimpact":3499,"Ġ1992":3500,":\",":3501,"Ġcanonical":3502,"Ġsolve":3503,"Ġdriven":3504,"Ġms":3505,"Ġ29":3506,"Ġheight":3507,"Ġlargest":3508,"87":3509,"Ġtail":3510,"Ġdwarf":3511,"Ġvortex":3512,"ski":3513,"Ġpi":3514,"Ġcircular":3515,"Ġ2013":3516,"Ġsubg":3517,"Ġaveraged":3518,"Ġlabel":3519,"Ġcarried":3520,"Ġdesign":3521,"Ġopposite":3522,"Ġtheories":3523,"Ġte":3524,"Ġsequ":3525,"Ġcomparable":3526,"Ġbegin":3527,"Ġpers":3528,"Ġbri":3529,"dss":3530,"Ġ45":3531,"Ġassumptions":3532,"Ġbh":3533,"Ġsat":3534,"back":3535,"Ġmoving":3536,"64":3537,"Ġsubsequ":3538,"Ġupon":3539,"Ġhttp":3540,"Ġ!":3541,"Ġessentially":3542,"Ġcorrelated":3543,"Ġput":3544,"Ġpion":3545,"Ġfa":3546,"bl":3547,"omorphic":3548,"Ġmonte":3549,"Ġmu":3550,"Ġforming":3551,"Ġidentify":3552,"Ġ47":3553,"Ġfive":3554,"Ġconj":3555,"Ġsubset":3556,"Ġexponent":3557,"ired":3558,"Ġdistributed":3559,"Ġradii":3560,"Ġforms":3561,"Ġcp":3562,"Ġextin":3563,"Ġbounds":3564,"Ġcarlo":3565,"Ġsurfaces":3566,"otop":3567,"Ġsatur":3568,"Ġinterface":3569,"Ġharmonic":3570,"otropy":3571,"rup":3572,"Ġloren":3573,"Ġdescribes":3574,"nova":3575,"uds":3576,"Ġcomplic":3577,"Ġtunnel":3578,"Ġconsequently":3579,"Ġmicro":3580,"Ġorthog":3581,"Ġdecreasing":3582,"Ġdirections":3583,"Ġ40":3584,"Ġdotted":3585,"Ġcost":3586,"Ġread":3587,"Ġconvex":3588,"Ġradiative":3589,"Ġinver":3590,"Ġunderlying":3591,"roup":3592,"Ġoutflow":3593,"Ġhydrogen":3594,"Ġul":3595,"Ġgluon":3596,"Ġangles":3597,"Ġconvention":3598,"Ġcrystal":3599,"Ġlife":3600,"Ġlocation":3601,"Ġmeson":3602,"Ġorgan":3603,"Ġfron":3604,"Ġuntil":3605,"Ġobservational":3606,"Ġmnras":3607,"100":3608,"Ġspac":3609,"ithms":3610,"Ġdense":3611,"att":3612,"Ġachieved":3613,"cal":3614,"Ġrank":3615,"Ġpreser":3616,"Ġcomparing":3617,"osing":3618,"Ġkinematic":3619,"Ġnegligible":3620,"Ġcollapse":3621,"Ġcub":3622,"Ġste":3623,"Ġlh":3624,"Ġmove":3625,"Ġconclusion":3626,"Ġextinction":3627,"Ġcircle":3628,"ipar":3629,"Ġdeviation":3630,"Ġsun":3631,"Ġuniversal":3632,"Ġclasses":3633,"Ġox":3634,"Ġeinstein":3635,"90":3636,"Ġpropagation":3637,"Ġphotometric":3638,"Ġperfect":3639,"Ġdecomposition":3640,"Ġstric":3641,"Ġroot":3642,"Ġmoments":3643,"Ġns":3644,"Ġbarri":3645,"Ġinterpretation":3646,"Ġunstable":3647,"Ġdisks":3648,"cules":3649,"Ġionization":3650,"Ġinh":3651,"Ġtev":3652,"Ġsdss":3653,"Ġparticularly":3654,"Ġreflection":3655,"Ġgeneration":3656,"aps":3657,"ken":3658,"abatic":3659,"Ġaa":3660,"Ġna":3661,"ures":3662,"rates":3663,"Ġagainst":3664,"Ġdisorder":3665,"Ġspecies":3666,"Ġsupernova":3667,"Ġperturbations":3668,"88":3669,"Ġaffect":3670,"Ġnoted":3671,"acity":3672,"eady":3673,"Ġmanifold":3674,"ont":3675,"Ġyoung":3676,"Ġfrag":3677,"let":3678,"Ġded":3679,"Ġlogarithm":3680,"com":3681,"Ġincreased":3682,"Ġexclu":3683,"Ġinfer":3684,"Ġtrend":3685,"Ġincludes":3686,"Ġvariance":3687,"forward":3688,"ural":3689,"king":3690,"Ġcha":3691,"ided":3692,"uli":3693,"Ġbrief":3694,"Ġreduces":3695,"isely":3696,"Ġshe":3697,"Ġclouds":3698,"Ġresidual":3699,"Ġinstrum":3700,"Ġindices":3701,"Ġidentity":3702,"Ġdisplay":3703,"Ġprobe":3704,"ema":3705,"Ġmaking":3706,"Ġconnection":3707,"diabatic":3708,"Ġimpur":3709,"Ġvarying":3710,"atives":3711,"Ġatten":3712,"Ġreduce":3713,"rel":3714,"93":3715,"Ġstrict":3716,"Ġelastic":3717,"Ġtriple":3718,"Ġmole":3719,"Ġgamma":3720,"80":3721,"Ġspins":3722,"erences":3723,"Ġquarks":3724,"Ġenhance":3725,"Ġquadra":3726,"])":3727,"53":3728,"Ġelectro":3729,"Ġprecisely":3730,"Ġsteady":3731,"hil":3732,"ospheric":3733,"Ġmill":3734,"where":3735,"54":3736,"Ġann":3737,"Ġbol":3738,"Ġforward":3739,"awa":3740,"Ġprediction":3741,"Ġidea":3742,"Ġvisc":3743,"usions":3744,"Ġconform":3745,"Ġstage":3746,"sch":3747,"Ġsatisfied":3748,"bon":3749,"63":3750,"Ġmainly":3751,"Ġasymmetry":3752,"Ġsatisfying":3753,"Ġhi":3754,"Ġredshifts":3755,"ering":3756,"Ġcontroll":3757,"Ġdegenerate":3758,"Ġrelationship":3759,"ittle":3760,"Ġlorentz":3761,"Ġacknow":3762,"Ġadvant":3763,"ench":3764,"Ġcontained":3765,"Ġmolecules":3766,"Ġefficient":3767,"Ġperturbative":3768,"Ġsubject":3769,"Ġvanishes":3770,"arities":3771,"Ġzh":3772,"Ġshear":3773,"unc":3774,"izations":3775,"Ġstraightforward":3776,"siv":3777,"59":3778,"Ġspecif":3779,"Ġcomes":3780,"Ġhold":3781,"Ġworks":3782,"pa":3783,"Ġorientation":3784,"Ġreasonable":3785,"ancy":3786,"ridge":3787,"Ġacceleration":3788,"Ġformalism":3789,"52":3790,"Ġphonon":3791,"Ġconcentration":3792,"Ġsil":3793,"atch":3794,"Ġorders":3795,"Ġsix":3796,"Ġrays":3797,"Ġcomputational":3798,"Ġmagnitudes":3799,"Ġmagnetization":3800,"Ġadopted":3801,"Ġmotiv":3802,"reg":3803,"77":3804,"Ġtimesc":3805,"isation":3806,"Ġsizes":3807,"Ġindicated":3808,"Ġcommut":3809,"Ġanisotropy":3810,"Ġelectromagnetic":3811,"Ġlittle":3812,"56":3813,"ters":3814,"Ġcovari":3815,"Ġfluxes":3816,"land":3817,"Ġexcitations":3818,"ited":3819,"Ġexpectation":3820,"Ġfeed":3821,"Ġastron":3822,"Ġbond":3823,"iting":3824,"Ġiv":3825,"overed":3826,"Ġmeasures":3827,"Ġensemble":3828,"Ġhorizontal":3829,"Ġrepe":3830,"Ġproved":3831,"Ġanalogous":3832,"Ġlocalized":3833,"Ġsolit":3834,"Ġadiabatic":3835,"Ġeigenvalue":3836,"Ġcontribute":3837,"Ġnoop":3838,"Ġlayers":3839,"Ġgain":3840,"Ġevaluated":3841,"Ġunli":3842,"Ġsk":3843,"ematical":3844,"Ġ1991":3845,"Ġinterference":3846,"Ġalgorithms":3847,"Ġgeometric":3848,"Ġrotating":3849,"Ġspaces":3850,"Ġrig":3851,"Ġexperimentally":3852,"Ġunderstood":3853,"Ġphoto":3854,"Ġinflation":3855,"Ġgenerate":3856,"Ġquadratic":3857,"Ġresonant":3858,"Ġconduct":3859,"jection":3860,"Ġnormalization":3861,"Ġvolt":3862,"Ġsignature":3863,"Ġquantit":3864,"Ġcapture":3865,"Ġhd":3866,"Ġhypothesis":3867,"94":3868,"Ġmar":3869,"Ġcaused":3870,"Ġpen":3871,"Ġsight":3872,"Ġthroughout":3873,"Ġseparated":3874,"Ġdamp":3875,"Ġsimulated":3876,"Ġanni":3877,"Ġcanc":3878,"Ġactivity":3879,"Ġbra":3880,"Ġprecision":3881,"af":3882,"Ġepoch":3883,"Ġphotometry":3884,"Ġorthogonal":3885,"Ġcells":3886,"Ġbase":3887,"51":3888,"theless":3889,"61":3890,"Ġabundances":3891,"62":3892,"Ġnevertheless":3893,"Ġhapp":3894,"Ġreli":3895,"Ġfermions":3896,"rained":3897,"part":3898,"ifted":3899,"Ġhydrod":3900,"Ġannihil":3901,"Ġtrig":3902,"pir":3903,"Ġfail":3904,"Ġmir":3905,"Ġdrop":3906,"Ġkernel":3907,"Ġlies":3908,"Ġrealistic":3909,"Ġcate":3910,"oper":3911,"Ġknowledge":3912,"Ġcold":3913,"Ġmixed":3914,"Ġrenormalization":3915,"isson":3916,"Ġpolarized":3917,"Ġmonot":3918,"Ġversus":3919,"Ġtool":3920,"org":3921,"Ġions":3922,"Ġrobust":3923,"Ġforces":3924,"stellar":3925,"Ġprecise":3926,"Ġswitch":3927,"Ġheating":3928,"ai":3929,"Ġvs":3930,"Ġsolving":3931,"Ġimaging":3932,"ls":3933,"Ġinitially":3934,"raction":3935,"Ġsuperconducting":3936,"Ġtend":3937,"wr":3938,"Ġdisplac":3939,"Ġlate":3940,"Ġalternative":3941,"Ġrefs":3942,"Ġgeneric":3943,"Ġvanishing":3944,"Ġneutrinos":3945,"Ġkind":3946,"Ġult":3947,"pty":3948,"what":3949,"Ġsuitable":3950,"Ġactual":3951,"Ġwar":3952,"Ġtrace":3953,"Ġsomewhat":3954,"Ġsector":3955,"Ġcompan":3956,"Ġisotropic":3957,"Ġgreat":3958,"Ġpredict":3959,"Ġpopulations":3960,"oidal":3961,"(-":3962,"Ġcomputing":3963,"Ġconclusions":3964,"pler":3965,"Ġtang":3966,"Ġvariability":3967,"itor":3968,"Ġdiscussions":3969,"Ġsecondary":3970,"70":3971,"ced":3972,"Ġdynamic":3973,"orts":3974,"icular":3975,"fully":3976,"Ġspiral":3977,"idal":3978,"Ġaim":3979,"Ġcd":3980,"Ġtreatment":3981,"Ġreturn":3982,"ensive":3983,"Ġparam":3984,"rot":3985,"Ġpoisson":3986,"Ġhighest":3987,"Ġincor":3988,"Ġintegrals":3989,"Ġmomenta":3990,"Ġtempor":3991,"mmetries":3992,"Ġmax":3993,"rev":3994,"Ġdelay":3995,"Ġcount":3996,"Ġcalibration":3997,"Ġsolved":3998,"Ġexceed":3999,"scaled":4000,"Ġmut":4001,"Ġattem":4002,"Ġarc":4003,"Ġachie":4004,"Ġsimplicity":4005,"--":4006,"Ġsed":4007,"Ġenhanced":4008,"Ġcrossing":4009,"Ġunitary":4010,"Ġcutoff":4011,"Ġball":4012,")]":4013,"Ġbaryon":4014,"Ġsemic":4015,"Ġfitted":4016,"Ġ48":4017,"Ġconjug":4018,"arest":4019,"Ġbinding":4020,"Ġadap":4021,"Ġ32":4022,"Ġspacetime":4023,"Ġeng":4024,"pendicular":4025,"Ġquality":4026,"Ġmapping":4027,"Ġoverlap":4028,"Ġimaginary":4029,"Ġresolved":4030,"ned":4031,"Ġperpendicular":4032,"Ġwin":4033,"Ġwater":4034,"Ġghz":4035,",[":4036,"Ġdid":4037,"Ġinterpre":4038,"Ġvor":4039,"Ġdemonstrated":4040,"Ġwid":4041,"ameter":4042,"Ġshowing":4043,"Ġrecur":4044,"Ġtunneling":4045,"gr":4046,"Ġ2014":4047,"Ġdemonstrate":4048,"Ġzone":4049,"Ġvariety":4050,"Ġjets":4051,"Ġincom":4052,"Ġsubsp":4053,"Ġsignals":4054,"itely":4055,"Ġturns":4056,"Ġcruc":4057,"rating":4058,"Ġsuff":4059,"Ġresonances":4060,"phas":4061,"Ġdetermination":4062,"Ġpoor":4063,"Ġtransl":4064,"Ġarguments":4065,"scaledwidth":4066,"Ġarri":4067,"Ġerg":4068,"Ġearth":4069,"Ġrules":4070,"ometric":4071,"pe":4072,"Ġessential":4073,"fe":4074,"zz":4075,"Ġimply":4076,"Ġspread":4077,"Ġher":4078,"92":4079,"electric":4080,"Ġ60":4081,"Ġadded":4082,"Ġstrategy":4083,"Ġempir":4084,"Ġworld":4085,"Ġordered":4086,"Ġfaint":4087,"Ġlack":4088,"ns":4089,"Ġsurround":4090,"Ġestimation":4091,"Ġcomposition":4092,"Ġatmosphere":4093,"Ġmaterials":4094,"91":4095,"Ġprobabilities":4096,"Ġcomplicated":4097,"Ġconject":4098,"Ġnearest":4099,"Ġcomplexity":4100,"Ġvisible":4101,"Ġhil":4102,"Ġcod":4103,"uting":4104,"Ġcone":4105,"Ġ1990":4106,"Ġinvolving":4107,"Ġspectroscopic":4108,"Ġsatell":4109,"Ġstronger":4110,"Ġthermodynamic":4111,"Ġdim":4112,"Ġpanels":4113,"Ġsuppressed":4114,"Ġoperation":4115,"ij":4116,"Ġcare":4117,"Ġsingularity":4118,"],[":4119,"Ġpossibly":4120,"Ġultra":4121,"Ġarise":4122,"Ġspectroscop":4123,"Ġcontrad":4124,"Ġbarrier":4125,"Ġfore":4126,"Ġinstant":4127,"Ġgrb":4128,"Ġsynth":4129,"Ġtransmit":4130,"Ġdur":4131,"Ġanalyzed":4132,"Ġimproved":4133,"Ġcoroll":4134,"Ġphenomena":4135,"Ġderivatives":4136,"Ġobservables":4137,"cm":4138,"Ġthickness":4139,"Ġpurpose":4140,"zing":4141,"Ġwil":4142,"Ġcontradic":4143,"Ġvl":4144,"Ġoscillation":4145,"Ġimportance":4146,"Ġign":4147,"lecting":4148,"Ġcircles":4149,"Ġfront":4150,"Ġplanets":4151,"Ġcharacteristics":4152,"Ġneeds":4153,"Ġtoward":4154,"Ġpaths":4155,"da":4156,"oses":4157,"Ġextremely":4158,"Ġeigenst":4159,"atz":4160,"Ġreferences":4161,"Ġrg":4162,"Ġrapidly":4163,"Ġanalyze":4164,"ape":4165,"Ġtas":4166,"Ġmeaning":4167,"Ġpixel":4168,"Ġillustrated":4169,"ured":4170,"cepti":4171,"Ġdest":4172,"place":4173,"Ġgraphene":4174,"lective":4175,"times":4176,"Ġlocally":4177,"Ġgeodes":4178,"Ġextracted":4179,"Ġdescribing":4180,"Ġhier":4181,"Ġtrajectories":4182,"mat":4183,"Ġwavelengths":4184,"osp":4185,"Ġestablished":4186,"Ġaffected":4187,"Ġmach":4188,"Ġrewr":4189,"Ġunity":4190,"Ġlist":4191,"Ġcolors":4192,"Ġgiant":4193,"Ġloops":4194,"Ġmann":4195,"Ġrotational":4196,"Ġhierarch":4197,"ograph":4198,"eness":4199,"Ġuniformly":4200,"Ġbig":4201,"iding":4202,"Ġweighted":4203,"Ġupd":4204,"Ġunknow":4205,"Ġmodeling":4206,"Ġissue":4207,"bo":4208,"Ġflows":4209,"onn":4210,"Ġconfirmed":4211,"opes":4212,"Ġseparate":4213,"Ġevaluate":4214,"Ġsuscepti":4215,"Ġlongitud":4216,"Ġss":4217,"Ġconservation":4218,"Ġhis":4219,"Ġweakly":4220,"Ġcandidates":4221,"Ġobservable":4222,"Ġprobably":4223,"Ġstream":4224,"Ġemphas":4225,"Ġcondensate":4226,"Ġbuil":4227,"ba":4228,"Ġnull":4229,"Ġplus":4230,"io":4231,"Ġcle":4232,"point":4233,"Ġcop":4234,"jective":4235,"bles":4236,"ducible":4237,"umul":4238,"Ġba":4239,"Ġrestricted":4240,"Ġarcs":4241,"Ġbosons":4242,"Ġfluctuation":4243,"Ġsampling":4244,"kov":4245,"Ġbund":4246,"Ġtrunc":4247,"Ġspecifically":4248,"aced":4249,"lex":4250,"Ġarises":4251,"igu":4252,"Ġbrown":4253,"Ġplate":4254,"Ġvoltage":4255,"Ġwindow":4256,"Ġlinearly":4257,"Ġconstrained":4258,"Ġisolated":4259,"Ġinser":4260,"Ġwhy":4261,"Ġunf":4262,"Ġmechanisms":4263,"Ġparity":4264,"Ġcorollary":4265,"Ġincident":4266,"Ġcandidate":4267,"Ġmor":4268,"ake":4269,"Ġaccoun":4270,"Ġord":4271,"Ġscaled":4272,"Ġdil":4273,"bh":4274,"Ġchanging":4275,"jected":4276,"Ġexplan":4277,"acts":4278,"Ġtrajectory":4279,"Ġnecessarily":4280,"Ġreads":4281,"Ġreproduce":4282,"Ġbub":4283,"Ġinvolved":4284,"Ġdissipation":4285,"Ġpast":4286,"Ġpatterns":4287,"Ġ57":4288,"Ġ90":4289,"82":4290,"Ġturbulence":4291,"zero":4292,"Ġuses":4293,"Ġadjac":4294,"Ġsimultaneously":4295,"Ġplots":4296,"Ġ05":4297,"Ġlisted":4298,"Ġce":4299,"Ġfeedback":4300,"Ġtopology":4301,"wer":4302,"Ġadvantage":4303,"Ġsal":4304,"Ġmed":4305,"Ġnaturally":4306,"ynamics":4307,"Ġwho":4308,"umps":4309,"omin":4310,"actor":4311,"Ġconventional":4312,"Ġlhc":4313,"Ġalgebraic":4314,"Ġnational":4315,"Ġnearby":4316,"Ġdays":4317,"Ġhubble":4318,"Ġreplaced":4319,"Ġsharp":4320,"Ġmatching":4321,"elihood":4322,"rence":4323,"Ġdimensionless":4324,"Ġastronom":4325,"Ġinsul":4326,"Ġparton":4327,"Ġintegra":4328,"Ġconductivity":4329,"Ġbor":4330,"symmetric":4331,"83":4332,"Ġinterested":4333,"Ġtil":4334,"Ġcounts":4335,"Ġmil":4336,"Ġpairing":4337,"Ġcrucial":4338,"Ġlongitudinal":4339,"Ġsect":4340,"Ġgoes":4341,"Ġutil":4342,"Ġvirt":4343,"ignment":4344,"Ġcorrected":4345,"Ġlang":4346,"Ġcentered":4347,"Ġaper":4348,"Ġmarg":4349,"rr":4350,"Ġreport":4351,"].,":4352,"Ġ1989":4353,"Ġmg":4354,"Ġsurveys":4355,"Ġhilbert":4356,"Ġlikelihood":4357,"mediately":4358,"Ġeu":4359,"Ġprojected":4360,"Ġgiving":4361,"Ġstruct":4362,"Ġcompati":4363,"yl":4364,"Ġinhom":4365,"Ġesc":4366,"Ġetc":4367,"Ġadopt":4368,"Ġdeal":4369,"ortun":4370,"Ġinstrument":4371,"Ġimmediately":4372,"Ġconcept":4373,"inement":4374,"anck":4375,"Ġpump":4376,"lat":4377,"Ġmechanical":4378,"Ġextreme":4379,"ula":4380,"Ġlear":4381,"overy":4382,"anes":4383,"Ġhyperbol":4384,"Ġhalos":4385,"Ġcs":4386,"Ġtemporal":4387,"Ġmathematical":4388,"vent":4389,"Ġcriterion":4390,"Ġconvenient":4391,"Ġve":4392,"har":4393,"Ġpolynomials":4394,"Ġintersection":4395,"idel":4396,"Ġinterpreted":4397,"titute":4398,"Ġembedded":4399,"Ġprotoc":4400,"cccc":4401,"Ġstrictly":4402,"Ġfm":4403,"Ġdepic":4404,"Ġcycl":4405,"Ġcome":4406,"Ġcombining":4407,"Ġaddress":4408,"Ġinterior":4409,"Ġelliptic":4410,"Ġexpos":4411,"Ġanomalous":4412,"ware":4413,"Ġsne":4414,"Ġresponsible":4415,"Ġbinaries":4416,"velope":4417,"Ġunknown":4418,"Ġachieve":4419,"emann":4420,"73":4421,"Ġscre":4422,"Ġsequences":4423,"Ġparametri":4424,"Ġprep":4425,"Ġneb":4426,"sively":4427,"Ġintervals":4428,"Ġordering":4429,"))":4430,"Ġflavor":4431,"Ġcomplement":4432,"kin":4433,"Ġaf":4434,"Ġstabil":4435,"going":4436,"Ġhadronic":4437,"Ġ99":4438,"Ġautom":4439,"Ġenvelope":4440,"ips":4441,"Ġprinc":4442,"Ġdiscrep":4443,"Ġtext":4444,"eres":4445,"Ġboundaries":4446,"Ġpermut":4447,"Ġsuperconduct":4448,"Ġnet":4449,"uit":4450,"Ġinfinity":4451,"Ġtorus":4452,"Ġformulation":4453,"ructure":4454,"Ġlandau":4455,"Ġlimiting":4456,"Ġfollowed":4457,"Ġgenerating":4458,"Ġemployed":4459,"Ġinvariance":4460,"ining":4461,"Ġfragment":4462,"ko":4463,"Ġdiameter":4464,"89":4465,"ube":4466,"Ġquantif":4467,"ogram":4468,"Ġsetup":4469,"Ġdiffer":4470,"Ġandor":4471,"Ġexamine":4472,"Ġplanck":4473,"1103":4474,"Ġextrap":4475,"Ġempty":4476,"Ġexplore":4477,"Ġoscillator":4478,"Ġ36":4479,"adi":4480,"ucl":4481,"Ġbroken":4482,"Ġhyb":4483,"Ġindicating":4484,"Ġphenomenon":4485,"84":4486,"Ġincorpor":4487,"ilities":4488,"Ġelliptical":4489,"Ġprotocol":4490,"Ġadding":4491,"Ġclassification":4492,"Ġempirical":4493,"Ġads":4494,"Ġjoint":4495,"Ġintroduction":4496,"Ġcircum":4497,"Ġchall":4498,"Ġpulsar":4499,"Ġhu":4500,"Ġcontent":4501,"entric":4502,"Ġhall":4503,"osities":4504,"Ġimpurity":4505,"Ġpref":4506,"81":4507,"Ġcam":4508,"ww":4509,"Ġsubsection":4510,"Ġsubsequent":4511,"Ġcreated":4512,"Ġruns":4513,"Ġproduces":4514,"Ġexpress":4515,"Ġjunction":4516,"Ġchains":4517,"lim":4518,"pite":4519,"Ġtreated":4520,"Ġspectroscopy":4521,"ines":4522,"Ġmechanics":4523,"Ġgover":4524,"ements":4525,"ga":4526,"usive":4527,"Ġbriefly":4528,"Ġtidal":4529,"Ġpd":4530,"Ġrepul":4531,"ayer":4532,"flu":4533,"Ġconformal":4534,"Ġpublish":4535,"ived":4536,"Ġdetectors":4537,"Ġequivalence":4538,"Ġmirr":4539,"Ġperiods":4540,"rial":4541,"Ġcros":4542,"Ġnonzero":4543,"Ġenhancement":4544,"Ġluminosities":4545,"Ġneighborhood":4546,"Ġsoc":4547,"aster":4548,"gory":4549,"Ġtit":4550,"ush":4551,"Ġderivation":4552,"Ġlogarithmic":4553,"Ġcn":4554,"Ġ34":4555,"Ġfractional":4556,"Ġmiddle":4557,"Ġannihilation":4558,"Ġstatement":4559,"Ġlepton":4560,"Ġextent":4561,"Ġaz":4562,"Ġchallen":4563,"86":4564,"Ġpole":4565,"ata":4566,"Ġreached":4567,"Ġstarburst":4568,"Ġdespite":4569,"icial":4570,"Ġexisting":4571,"Ġdwarfs":4572,"Ġdeviations":4573,"Ġdesired":4574,"Ġsurpr":4575,"Ġconductance":4576,"well":4577,"Ġsinglet":4578,"201":4579,"Ġ70":4580,"yc":4581,"gers":4582,"after":4583,"Ġconsisting":4584,"Ġmembers":4585,"Ġsummary":4586,"ores":4587,"Ġarch":4588,"Ġmemory":4589,"Ġexhibits":4590,"Ġaperture":4591,"Ġdetermines":4592,"Ġinten":4593,"Ġgoing":4594,"rents":4595,"Ġsuperp":4596,"Ġquasars":4597,"Ġneglected":4598,"Ġglass":4599,"Ġattention":4600,"entif":4601,"Ġdiffuse":4602,"me":4603,"Ġsquares":4604,"ui":4605,"ious":4606,"74":4607,"cur":4608,"Ġtransformations":4609,"aves":4610,"Ġcooper":4611,"Ġshifts":4612,"Ġpurely":4613,"Ġtight":4614,"Ġquench":4615,"Ġdefining":4616,"ecting":4617,"Ġoptically":4618,"Ġcarbon":4619,"Ġformer":4620,"Ġgyr":4621,"Ġcoherence":4622,"arse":4623,"Ġka":4624,"Ġinterfer":4625,"Ġfu":4626,"Ġsubgroup":4627,"Ġscatt":4628,"Ġ55":4629,"Ġdamping":4630,"Ġ80":4631,"ids":4632,"atically":4633,"Ġinvestigation":4634,"Ġoptimization":4635,"Ġcomputer":4636,"acted":4637,"Ġold":4638,"Ġviol":4639,"Ġ1987":4640,"72":4641,"Ġpropagator":4642,"Ġpiec":4643,"Ġdevelopment":4644,"Ġlengths":4645,"Ġpartially":4646,"arity":4647,"Ġclustering":4648,"Ġstructural":4649,"Ġshifted":4650,"idden":4651,"Ġshor":4652,"Ġcmb":4653,"Ġabel":4654,"Ġmerger":4655,"Ġapproximations":4656,"uler":4657,"Ġgoal":4658,"ano":4659,"loc":4660,"Ġdeformation":4661,"Ġday":4662,"Ġ33":4663,"Ġuser":4664,"Ġsr":4665,"elves":4666,"ani":4667,"Ġ1988":4668,"rect":4669,"Ġds":4670,"teness":4671,"ularities":4672,"Ġvic":4673,"vs":4674,"Ġpseudo":4675,"Ġmanner":4676,"Ġindependently":4677,"Ġweights":4678,"Ġscenarios":4679,"Ġconfidence":4680,"lic":4681,"Ġbes":4682,"Ġrational":4683,"Ġguar":4684,"Ġmis":4685,"Ġsig":4686,"ana":4687,"Ġobviously":4688,"Ġcontribut":4689,"Ġspring":4690,"rical":4691,"Ġmoves":4692,"Ġanisotropic":4693,"Ġartif":4694,"Ġexponentially":4695,"Ġmodulation":4696,"Ġschemes":4697,"bound":4698,"Ġoct":4699,"Ġdefines":4700,"Ġpin":4701,"Ġinclusion":4702,"Ġinferred":4703,"Ġfoundation":4704,"Ġeffectively":4705,"inear":4706,"eth":4707,"Ġranges":4708,"Ġgate":4709,"Ġproducts":4710,"Ġcontam":4711,"Ġwidths":4712,"Ġfilling":4713,"Ġ31":4714,").":4715,"Ġface":4716,"Ġtrap":4717,"Ġmicroscopic":4718,"Ġadjacent":4719,"Ġdriving":4720,"Ġoth":4721,"joint":4722,"Ġaccept":4723,"Ġtransi":4724,"Ġequality":4725,"Ġquantitative":4726,"ighter":4727,"-(":4728,"Ġzer":4729,"Ġhistory":4730,"Ġelimin":4731,"Ġvaries":4732,"Ġcovering":4733,"Ġintroducing":4734,"uple":4735,"ung":4736,"Ġcommunication":4737,"Ġinvolves":4738,",,,,":4739,"Ġcollective":4740,"Ġsymbols":4741,"owski":4742,"Ġsubspace":4743,"Ġstrain":4744,"Ġprom":4745,"76":4746,"Ġagree":4747,"Ġothers":4748,"Ġasymmetric":4749,"Ġadmit":4750,"Ġhyperbolic":4751,"Ġmi":4752,"Ġmolecule":4753,"ending":4754,"isen":4755,"rations":4756,"Ġallowing":4757,"Ġreaches":4758,"Ġirreducible":4759,"Ġdifferenti":4760,"Ġidentification":4761,"Ġsegment":4762,"ontinu":4763,"ript":4764,"ones":4765,"Ġconjecture":4766,"Ġguarant":4767,"vo":4768,"def":4769,"Ġlinks":4770,"Ġcurrently":4771,"Ġcodes":4772,"Ġhst":4773,"Ġ43":4774,"Ġcause":4775,"icities":4776,"Ġturbulent":4777,"Ġduration":4778,"Ġviscosity":4779,"Ġpropose":4780,"gra":4781,"Ġinsp":4782,"Ġtriangle":4783,"Ġuniqu":4784,"Ġelementary":4785,"Ġexplanation":4786,"Ġspatially":4787,"hd":4788,"quark":4789,"Ġevaluation":4790,"79":4791,"Ġmostly":4792,"rotron":4793,"Ġcurrents":4794,"Ġmarked":4795,"Ġcosmology":4796,"Ġbrane":4797,"hep":4798,"Ġordinary":4799,"Ġta":4800,"Ġproviding":4801,"Ġ06":4802,"Ġvirtual":4803,"Ġmeasuring":4804,"Ġlensing":4805,"Ġoxy":4806,"Ġanalytically":4807,"Ġwant":4808,"Ġillustrate":4809,"Ġdetermining":4810,"Ġimplic":4811,"Ġfair":4812,"Ġcollection":4813,"Ġsimplest":4814,"Ġcompton":4815,"hl":4816,"Ġcompatible":4817,"angled":4818,"Ġways":4819,"Ġlabor":4820,"Ġrepresentations":4821,"Ġmixture":4822,"Ġcapacity":4823,"physrev":4824,"Ġqualitatively":4825,"Ġrunning":4826,"Ġtherein":4827,"Ġreactions":4828,"versal":4829,"vities":4830,"Ġgold":4831,"ura":4832,"Ġriemann":4833,"Ġremoved":4834,"Ġdifficul":4835,"Ġgrains":4836,"come":4837,"Ġrealized":4838,"Ġsmallest":4839,"ened":4840,"78":4841,"!!":4842,"Ġexpanding":4843,"Ġdraw":4844,"Ġtends":4845,"Ġimplementation":4846,"Ġfilled":4847,"Ġsynchrotron":4848,"Ġsusceptibility":4849,"unct":4850,"Ġcores":4851,"Ġoperations":4852,"Ġminor":4853,"Ġcontin":4854,"inity":4855,"Ġtimescale":4856,"Ġbranching":4857,"Ġpulses":4858,"Ġevolutionary":4859,"71":4860,"Ġoriented":4861,"Ġbeh":4862,"Ġacknowled":4863,"Ġdig":4864,"Ġconsideration":4865,"Ġprocessing":4866,"Ġecc":4867,"gent":4868,"Ġrandomly":4869,"Ġpointed":4870,"Ġemitted":4871,"Ġfiber":4872,"Ġspon":4873,"Ġbulge":4874,"Ġherm":4875,"Ġsd":4876,"Ġfaster":4877,"Ġisotop":4878,"Ġia":4879,"Ġeucl":4880,"Ġcontrolled":4881,"Ġworth":4882,"Ġsurprising":4883,"Ġmesons":4884,"Ġ04":4885,"Ġclosely":4886,"Ġtests":4887,"Ġluminous":4888,"ception":4889,"Ġwang":4890,"Ġoxygen":4891,"Ġdoub":4892,"Ġobserving":4893,"Ġeventually":4894,"Ġsilic":4895,"Ġdegeneracy":4896,"Ġmotions":4897,"Ġqubits":4898,"Ġsuppression":4899,"Ġcloser":4900,"Ġbars":4901,"Ġcentre":4902,"Ġspontaneous":4903,"Ġsingularities":4904,"Ġexponents":4905,"Ġpixels":4906,"Ġsymmetries":4907,"graph":4908,"Ġcubic":4909,"istance":4910,"Ġlifetime":4911,"Ġstudying":4912,"Ġ39":4913,"Ġprincip":4914,"Ġls":4915,"Ġze":4916,"Ġabelian":4917,"Ġsubstituting":4918,"Ġinterstellar":4919,"Ġjo":4920,"Ġpas":4921,"wave":4922,"oted":4923,"Ġmedian":4924,"Ġhopping":4925,"Ġtask":4926,"Ġqualitative":4927,"Ġimplemented":4928,"Ġbath":4929,"Ġ300":4930,"Ġdefinitions":4931,"va":4932,"depend":4933,"Ġdatas":4934,"Ġram":4935,"Ġembedding":4936,"Ġchand":4937,"tri":4938,"hed":4939,"Ġprogen":4940,"oto":4941,"matrix":4942,"Ġplanar":4943,"Ġferromagnetic":4944,"imes":4945,"Ġmiss":4946,"Ġ2015":4947,"Ġconverges":4948,"Ġapproximated":4949,"Ġcc":4950,"Ġmoder":4951,"Ġ44":4952,"titu":4953,"Ġfinds":4954,"Ġeigenstates":4955,"Ġtitle":4956,"Ġcompanion":4957,"Ġmess":4958,"()":4959,"Ġknot":4960,"Ġjump":4961,"Ġresol":4962,"Ġib":4963,"functions":4964,"Ġcols":4965,"Ġreliable":4966,"Ġdisjoint":4967,"oi":4968,"atorial":4969,"Ġrestriction":4970,"mass":4971,"Ġeuler":4972,"Ġjus":4973,"Ġobtains":4974,"Ġism":4975,"Ġspecified":4976,"Ġcolour":4977,"Ġpublished":4978,"Ġising":4979,"101":4980,"Ġaveraging":4981,"Ġquasar":4982,"Ġcriteria":4983,"Ġarising":4984,"Ġleg":4985,"Ġcontour":4986,"Ġobe":4987,"Ġmultip":4988,"Ġbif":4989,"oupl":4990,"Ġposs":4991,"Ġ46":4992,"Ġpn":4993,"Ġreferred":4994,"Ġsaturation":4995,"Ġperh":4996,"elastic":4997,"Ġconsistency":4998,"Ġshorter":4999,"Ġpractical":5000,"iti":5001,"Ġperhaps":5002,"Ġsens":5003,"Ġpb":5004,"Ġdirected":5005,"Ġoffset":5006,"Ġlattices":5007,"Ġfamil":5008,"Ġmultiplic":5009,"Ġcalculating":5010,"Ġchaotic":5011,"Ġobserver":5012,"Ġhop":5013,"mon":5014,"Ġoh":5015,"Ġnn":5016,"axis":5017,"Ġcycles":5018,"Ġazim":5019,"Ġpresc":5020,"Ġstarts":5021,"Ġviolation":5022,"Ġ03":5023,"Ġbell":5024,"ama":5025,"Ġseparately":5026,"Ġlocalization":5027,"Ġfo":5028,"Ġmr":5029,"Ġentangled":5030,"Ġregimes":5031,"Ġdiscovered":5032,"idean":5033,"Ġexcell":5034,"Ġwire":5035,"Ġasympto":5036,"Ġacts":5037,"Ġdisplacement":5038,"Ġjustif":5039,"Ġcompound":5040,"Ġazimuth":5041,"Ġarticle":5042,"urc":5043,"Ġreveal":5044,"Ġ42":5045,"Ġprotons":5046,"Ġ54":5047,"Ġdiscontinu":5048,"Ġgets":5049,"Ġsynchron":5050,"Ġeuclidean":5051,"Ġsides":5052,"Ġfab":5053,"Ġbundle":5054,"Ġantifer":5055,"Ġslowly":5056,"Ġbur":5057,"Ġpractice":5058,"Ġsurrounding":5059,"Ġdivided":5060,"Ġorganized":5061,"Ġunlike":5062,"Ġnas":5063,"sk":5064,"eline":5065,"lor":5066,"Ġquasipar":5067,"utes":5068,"body":5069,"ading":5070,"Ġansatz":5071,"ett":5072,"Ġschwar":5073,"Ġdisapp":5074,"Ġdomains":5075,"Ġrare":5076,"Ġrms":5077,"anning":5078,"Ġreader":5079,"Ġhereafter":5080,"ramm":5081,"Ġdro":5082,"Ġcategory":5083,"Ġatmospheric":5084,"Ġmyr":5085,"Ġ1986":5086,"Ġdivergence":5087,"Ġinset":5088,"Ġbare":5089,"oring":5090,"Ġpapers":5091,"Ġintegrating":5092,"era":5093,"Ġrespective":5094,"Ġarrow":5095,"Ġreasons":5096,"Ġsfr":5097,"plane":5098,"Ġpresents":5099,"Ġconfined":5100,"Ġ95":5101,"Ġcreation":5102,"Ġhelium":5103,"Ġmpc":5104,"Ġbins":5105,"ales":5106,"Ġsnr":5107,"001":5108,"Ġfine":5109,"Ġanalyses":5110,"rich":5111,"Ġbursts":5112,"Ġchoosing":5113,"Ġprincipal":5114,"Ġaug":5115,"Ġpec":5116,"Ġquadr":5117,"ints":5118,"Ġboltz":5119,"ulated":5120,"Ġcomposite":5121,"Ġvisual":5122,"ibility":5123,"Ġionized":5124,"Ġgeodesic":5125,"Ġexplosion":5126,"Ġsound":5127,"oles":5128,"lects":5129,"Ġrequirement":5130,"Ġsatellite":5131,"Ġreconstruction":5132,"exp":5133,"Ġaxial":5134,"Ġalone":5135,"Ġengine":5136,"ohn":5137,"Ġphysically":5138,"oti":5139,"Ġda":5140,"Ġnotion":5141,"Ġmathematic":5142,"Ġ53":5143,"ogen":5144,"Ġ65":5145,"Ġgeneralization":5146,"oph":5147,"Ġpowers":5148,"ider":5149,"Ġaspects":5150,"Ġthom":5151,"Ġprefer":5152,"Ġremn":5153,"Ġvalence":5154,"Ġinclination":5155,"Ġmirror":5156,"Ġsteep":5157,"Ġ02":5158,"linder":5159,"Ġrepresenting":5160,"Ġasymptotically":5161,"Ġlaboratory":5162,"Ġrect":5163,"Ġtempl":5164,"Ġgc":5165,"Ġwilson":5166,"Ġoutburst":5167,"Ġ75":5168,"Ġfri":5169,"Ġmaintain":5170,"plan":5171,"Ġstack":5172,"Ġ49":5173,"Ġdiscovery":5174,"Ġcoincides":5175,"Ġcamb":5176,"Ġhappens":5177,"Ġros":5178,"ita":5179,"Ġcoming":5180,"Ġmarkov":5181,"Ġvicinity":5182,"comp":5183,"Ġcounting":5184,"dinger":5185,"Ġscientif":5186,"Ġexcl":5187,"Ġiron":5188,"Ġmuon":5189,"Ġcu":5190,"Ġunion":5191,"Ġsuperflu":5192,"dx":5193,"Ġproceedings":5194,"Ġisomorphism":5195,"Ġyr":5196,"Ġbc":5197,"Ġattractive":5198,"Ġplays":5199,"Ġts":5200,"Ġequivalently":5201,"Ġscattered":5202,"antial":5203,"ili":5204,"Ġdots":5205,"Ġcomposed":5206,"Ġplaced":5207,"Ġschr":5208,"Ġappearance":5209,"Ġextends":5210,"eld":5211,"ade":5212,"Ġsad":5213,"Ġdrift":5214,"Ġverify":5215,"Ġsimplified":5216,"ona":5217,"eron":5218,"Ġboltzmann":5219,"Ġweaker":5220,"ifold":5221,"imeter":5222,"Ġdielectric":5223,"Ġflare":5224,"Ġnebula":5225,"Ġexception":5226,"Ġbifurc":5227,"Ġbalance":5228,"Ġgh":5229,"Ġbelie":5230,"Ġlangu":5231,"Ġeigenv":5232,"Ġmorphology":5233,"Ġbose":5234,"Ġperforming":5235,"Ġ41":5236,"Ġmos":5237,"Ġcylinder":5238,"Ġorbitals":5239,"oul":5240,"Ġshocks":5241,"Ġkh":5242,"ospin":5243,"Ġdelta":5244,"Ġtriplet":5245,"odal":5246,"Ġsummarized":5247,"Ġarm":5248,"Ġinversion":5249,"Ġbeams":5250,"Ġcorrespondence":5251,"ina":5252,"Ġformulas":5253,"inger":5254,"riction":5255,"Ġexcellent":5256,"no":5257,"oding":5258,"Ġsignificance":5259,"Ġvariational":5260,"iii":5261,"Ġsb":5262,"Ġshad":5263,"esian":5264,"Ġjac":5265,"Ġscientific":5266,"Ġni":5267,"Ġgrain":5268,"Ġdepicted":5269,"Ġnorth":5270,"Ġvortices":5271,"Ġdoping":5272,"Ġmodeled":5273,"Ġ1985":5274,"Ġsubstantial":5275,"Ġmart":5276,"height":5277,"ield":5278,"Ġmajority":5279,"Ġair":5280,"Ġrecomb":5281,"Ġ52":5282,"Ġreser":5283,"Ġunless":5284,"Ġol":5285,"Ġcambridge":5286,"Ġdiscrepancy":5287,"Ġ08":5288,"Ġmassless":5289,"Ġacting":5290,"ris":5291,"Ġzhang":5292,"Ġew":5293,"Ġcoverage":5294,"dm":5295,"Ġpossess":5296,"Ġdav":5297,"Ġobservatory":5298,"okes":5299,"err":5300,"radi":5301,"ordered":5302,"Ġbit":5303,"Ġconcerning":5304,"Ġdrawn":5305,"Ġfractions":5306,"Ġ58":5307,"ometer":5308,"Ġbeginning":5309,"Ġiner":5310,"Ġevident":5311,"Ġhydrodynamic":5312,"Ġmel":5313,"Ġstrengths":5314,"Ġcharges":5315,"Ġrepeated":5316,"Ġtrac":5317,"Ġtrapped":5318,"Ġrigid":5319,"abol":5320,"Ġenerge":5321,"fill":5322,"Ġ110":5323,"Ġdisappear":5324,"Ġvalidity":5325,"whm":5326,"stra":5327,"Ġfilm":5328,"Ġequals":5329,"Ġword":5330,"''":5331,"Ġthanks":5332,"Ġcolumns":5333,"mas":5334,"Ġinstitute":5335,"Ġchen":5336,"Ġcombinations":5337,"Ġconversion":5338,"Ġmacroscopic":5339,"0000":5340,"las":5341,"aylor":5342,"itter":5343,"Ġexperi":5344,"Ġfourth":5345,"Ġconsiderably":5346,"Ġensure":5347,"Ġaj":5348,"Ġpm":5349,"Ġsquared":5350,"Ġlabeled":5351,"Ġsup":5352,"Ġ1984":5353,"Ġtet":5354,"Ġrs":5355,"Ġmotivated":5356,"Ġmissing":5357,"eters":5358,"Ġ09":5359,"Ġlee":5360,"Ġgrows":5361,"Ġastrophysical":5362,"Ġfav":5363,"Ġyork":5364,"Ġbubble":5365,"Ġrecog":5366,"Ġplanetary":5367,"Ġescape":5368,"Ġdevice":5369,"Ġ56":5370,"Ġten":5371,"Ġ59":5372,"Ġdominates":5373,"Ġresis":5374,"ologies":5375,"Ġown":5376,"Ġwalk":5377,"Ġbesides":5378,"302":5379,"Ġgrad":5380,"Ġ68":5381,"iver":5382,"Ġapplies":5383,"Ġtested":5384,"Ġthought":5385,"Ġvirial":5386,"Ġchoices":5387,"Ġcrosso":5388,"Ġareas":5389,"la":5390,"Ġnewton":5391,"ka":5392,"Ġrepresentative":5393,"anged":5394,"Ġcreate":5395,"Ġexcluded":5396,"Ġblocks":5397,"Ġcovariance":5398,"Ġhistogram":5399,"ously":5400,"Ġconserved":5401,"Ġfis":5402,"imp":5403,"ada":5404,"Ġsuperfluid":5405,"Ġages":5406,"gu":5407,"Ġiteration":5408,"Ġbil":5409,"Ġphenomenological":5410,"Ġcauses":5411,"Ġcoincide":5412,"Ġpercent":5413,"sec":5414,"Ġinduces":5415,"bard":5416,"Ġaccess":5417,"Ġcontradiction":5418,"Ġled":5419,"Ġkepler":5420,"Ġconditional":5421,"Ġprepar":5422,"Ġstrip":5423,"igm":5424,"alactic":5425,"Ġreplacing":5426,"Ġunfortun":5427,"Ġrecord":5428,"Ġdisplayed":5429,"])-":5430,"Ġ67":5431,"Ġexposure":5432,"Ġanswer":5433,"Ġtriangles":5434,"Ġentries":5435,"Ġvibr":5436,"Ġfal":5437,"algeb":5438,"Ġsummarize":5439,"ystem":5440,"rg":5441,"Ġpt":5442,".(":5443,"Ġomit":5444,"cn":5445,"Ġtaylor":5446,"Ġdiscreti":5447,"Ġcumul":5448,"Ġpredicts":5449,"Ġgenerators":5450,"Ġjhep":5451,"Ġattach":5452,"Ġadditionally":5453,"Ġschwarz":5454,"Ġpointing":5455,"Ġpolymer":5456,"Ġreplace":5457,"Ġtransient":5458,"Ġmhz":5459,"iparti":5460,"Ġschrdinger":5461,"Ġwi":5462,"Ġfwhm":5463,"Ġnl":5464,"Ġmetallic":5465,"Ġsoliton":5466,"Ġapart":5467,"Ġclump":5468,"Ġtrain":5469,"Ġwhenever":5470,"Ġfermionic":5471,"Ġstated":5472,"Ġkinematics":5473,"Ġcomments":5474,"Ġ64":5475,"Ġhz":5476,"Ġcharacterize":5477,"Ġneither":5478,"Ġnontri":5479,"Ġwidely":5480,"Ġshapes":5481,"quee":5482,"Ġ500":5483,"Ġredd":5484,"Ġconference":5485,"Ġmaster":5486,"adily":5487,"Ġcontrary":5488,"Ġcompleteness":5489,"Ġalice":5490,"pts":5491,"ticles":5492,"Ġmodification":5493,"Ġtangent":5494,"Ġquestions":5495,"static":5496,"Ġcuts":5497,"Ġoccupied":5498,"Ġprote":5499,"Ġ07":5500,"assical":5501,"Ġchandra":5502,"jy":5503,"map":5504,"ams":5505,"ira":5506,"Ġeccentric":5507,"Ġquick":5508,"Ġbelongs":5509,"Ġdecoupl":5510,"Ġcrossover":5511,"iring":5512,"brane":5513,"Ġagrees":5514,"Ġinelastic":5515,"Ġtrigger":5516,"Ġbir":5517,"Ġlying":5518,"Ġassign":5519,"Ġben":5520,"Ġends":5521,"Ġestimator":5522,"Ġquadrup":5523,"Ġresour":5524,"ote":5525,"Ġinduction":5526,"Ġunfortunately":5527,"Ġperc":5528,"Ġfragmentation":5529,"Ġske":5530,"Ġtechnical":5531,"Ġsuggesting":5532,"Ġimplications":5533,"ford":5534,"Ġspacing":5535,"ades":5536,"Ġtwist":5537,"Ġsquee":5538,"versely":5539,"Ġhybrid":5540,"Ġtechnology":5541,"Ġrecover":5542,"Ġpsf":5543,"Ġfriction":5544,"Ġintegers":5545,"ype":5546,"Ġelse":5547,"Ġsubstanti":5548,"Ġmicrow":5549,"Ġissues":5550,"Ġhubbard":5551,"unch":5552,"Ġconduction":5553,"Ġvalued":5554,"Ġaccurately":5555,"ifies":5556,"Ġimplicit":5557,"Ġrestrict":5558,"ck":5559,"Ġgenerality":5560,"Ġconjugate":5561,"Ġfs":5562,"Ġrevealed":5563,"Ġflav":5564,"Ġregarding":5565,"Ġdeterministic":5566,"ym":5567,"Ġselect":5568,"Ġchecked":5569,"Ġsubstrate":5570,"Ġconfinement":5571,"Ġdefects":5572,"Ġbrack":5573,"ctic":5574,"istent":5575,"Ġaffine":5576,"Ġneighbour":5577,"Ġslit":5578,"Ġpulsars":5579,"Ġstokes":5580,"Ġroots":5581,"Ġprogress":5582,"Ġpdf":5583,"Ġevolve":5584,"vin":5585,"Ġlf":5586,"bre":5587,"Ġtension":5588,"eps":5589,"Ġremove":5590,"Ġprime":5591,"Ġsoftware":5592,"Ġnontrivial":5593,"Ġham":5594,"Ġmodulus":5595,"Ġnt":5596,"Ġglobular":5597,"eman":5598,"Ġ101":5599,"Ġreflected":5600,"Ġdiscr":5601,"Ġpromin":5602,"Ġpron":5603,"Ġcomputations":5604,"Ġlam":5605,"Ġmultiplicity":5606,"Ġecl":5607,"Ġanten":5608,"Ġrealization":5609,"izable":5610,"Ġtranslation":5611,"Ġisomorphic":5612,"Ġalph":5613,"Ġneighbors":5614,"Ġbosonic":5615,"Ġassess":5616,"Ġbandwidth":5617,"Ġcarry":5618,"Ġmaxwell":5619,"Ġtell":5620,"abs":5621,"Ġdisordered":5622,"Ġgrate":5623,"voir":5624,"Ġargue":5625,"Ġlearning":5626,"Ġimprovement":5627,"Ġ1983":5628,"ital":5629,"Ġdu":5630,"isenberg":5631,"Ġpeculi":5632,"ats":5633,"Ġsouth":5634,"ondo":5635,"Ġmergers":5636,"Ġaxes":5637,"Ġeg":5638,"Ġamoun":5639,"Ġlm":5640,"Ġfavor":5641,"Ġhart":5642,"igner":5643,"Ġreservoir":5644,"Ġgrbs":5645,"Ġcrystall":5646,"Ġadm":5647,"Ġsimilarity":5648,"Ġtravel":5649,"une":5650,"Ġhomotop":5651,"Ġarrang":5652,"Ġusers":5653,"Ġkle":5654,"Ġll":5655,"ara":5656,"Ġtwice":5657,"Ġyuk":5658,"Ġleaves":5659,"dt":5660,"Ġsuperposition":5661,"aff":5662,"Ġproperly":5663,"Ġobtaining":5664,"Ġsaid":5665,"Ġentirely":5666,"Ġinvolve":5667,"Ġyang":5668,"alities":5669,"Ġsymple":5670,"Ġdatab":5671,"Ġbay":5672,"Ġsaddle":5673,"Ġeject":5674,"Ġstrings":5675,"Ġheisenberg":5676,"Ġhf":5677,"Ġviewed":5678,"Ġmicrowave":5679,"Ġrever":5680,"Ġfract":5681,"Ġassumes":5682,"Ġdc":5683,"Ġsubstantially":5684,"Ġlaws":5685,"ek":5686,"Ġonset":5687,"Ġantic":5688,"Ġextensive":5689,"Ġinhomogeneous":5690,"Ġwigner":5691,"Ġcircuit":5692,"Ġdefect":5693,"Ġkeeping":5694,"Ġpowerful":5695,"Ġchanged":5696,"avi":5697,"Ġchrom":5698,"Ġcrystals":5699,"Ġfidel":5700,"Ġargued":5701,"Ġappearing":5702,"Ġmoduli":5703,"vered":5704,"Ġverified":5705,"Ġbehind":5706,"lement":5707,"Ġdiss":5708,"Ġtransformed":5709,"Ġspringer":5710,"ourn":5711,"Ġworking":5712,"Ġfindings":5713,"eta":5714,"Ġrad":5715,"Ġemitting":5716,"Ġsituations":5717,"Ġarcsec":5718,"Ġtermin":5719,"Ġnasa":5720,"Ġrecombination":5721,"Ġtau":5722,"Ġpropagating":5723,"Ġdecoh":5724,"Ġsummation":5725,"Ġfactorization":5726,"Ġsubstitution":5727,"Ġsemicon":5728,"Ġdevices":5729,"ounced":5730,"Ġdon":5731,"Ġconsiderations":5732,"Ġrr":5733,"otherm":5734,"Ġdeple":5735,"Ġfeyn":5736,"Ġthereby":5737,"Ġformally":5738,"Ġimposed":5739,"Ġconnecting":5740,"ifications":5741,"Ġchap":5742,"Ġrequ":5743,"ho":5744,"Ġonline":5745,"Ġminima":5746,"Ġdesigned":5747,"Ġsusy":5748,"Ġbob":5749,"Ġreveals":5750,"Ġdominate":5751,"elling":5752,"Ġpoles":5753,"eak":5754,"Ġamb":5755,"pi":5756,"Ġazimuthal":5757,"Ġneglect":5758,"elli":5759,"Ġhund":5760,"Ġexamined":5761,"Ġmilky":5762,"Ġcontours":5763,"Ġdiffraction":5764,"Ġclean":5765,"Ġamounts":5766,"Ġintui":5767,"Ġti":5768,"Ġyukawa":5769,"Ġ85":5770,"Ġproducing":5771,"retch":5772,"isk":5773,"Ġhelpful":5774,"Ġdistortion":5775,"imal":5776,"Ġfro":5777,"Ġtm":5778,"Ġ77":5779,"Ġrm":5780,"Ġattempt":5781,"ordi":5782,"Ġcus":5783,"dr":5784,"Ġsto":5785,"Ġarbitrarily":5786,"ert":5787,"Ġquoti":5788,"Ġtargets":5789,"Ġdeut":5790,"Ġlmc":5791,"Ġtrees":5792,"Ġalignment":5793,"Ġisospin":5794,"itzer":5795,"Ġapplicable":5796,"Ġgeom":5797,"Ġ66":5798,"Ġlarg":5799,"Ġpermutation":5800,"Ġinternational":5801,"Ġhierarchy":5802,"aton":5803,"Ġconstitu":5804,"ications":5805,"Ġsmith":5806,"Ġrelativity":5807,"Ġjacob":5808,"aki":5809,"Ġparabol":5810,"Ġgeometrical":5811,"Ġlocations":5812,"Ġconsiderable":5813,"Ġinequalities":5814,"Ġdeduce":5815,"Ġdefinite":5816,"Ġpatch":5817,"Ġimf":5818,"Ġabsorbed":5819,"light":5820,"Ġeos":5821,"Ġclassified":5822,"kowski":5823,"eff":5824,"Ġduality":5825,"Ġspan":5826,"Ġgenerator":5827,"Ġsubt":5828,"Ġextending":5829,"Ġcontinuity":5830,"Ġtradition":5831,"Ġtheoretically":5832,"Ġdiam":5833,"Ġwish":5834,"Ġacqui":5835,"Ġbs":5836,"Ġdeterminant":5837,"Ġ01":5838,"Ġ1980":5839,"Ġcompens":5840,"elled":5841,"Ġdiffers":5842,"Ġsuperconductivity":5843,"Ġcyclic":5844,"cr":5845,"Ġacous":5846,"Ġ69":5847,"perturb":5848,"Ġsurv":5849,"hal":5850,"Ġbrighter":5851,"Ġanders":5852,"fit":5853,"Ġmanifolds":5854,"Ġ111":5855,"Ġlanguage":5856,"Ġstretch":5857,"Ġcoex":5858,"ming":5859,"Ġcontamination":5860,"Ġeds":5861,"Ġpick":5862,"Ġremarkable":5863,"Ġhidden":5864,"Ġbelieve":5865,"Ġbroadening":5866,"Ġdistant":5867,"Ġfairly":5868,"Ġmig":5869,"Ġmim":5870,"sur":5871,"Ġpreparation":5872,"timate":5873,"sing":5874,"bes":5875,"emb":5876,"Ġsuccessful":5877,"Ġgame":5878,"Ġantiferromagnetic":5879,"Ġnovel":5880,"Ġcovered":5881,"Ġko":5882,"Ġposit":5883,"Ġreadily":5884,"Ġpassing":5885,"Ġreflect":5886,"Ġ62":5887,"Ġunp":5888,"Ġmoderate":5889,"Ġpolyt":5890,"Ġdex":5891,"Ġlargely":5892,"Ġnoting":5893,"Ġaux":5894,"romagn":5895,"Ġ51":5896,"Ġsubtraction":5897,"Ġprelim":5898,"Ġhex":5899,"ery":5900,"Ġswitching":5901,"Ġdecoherence":5902,"Ġprimarily":5903,"Ġclock":5904,"Ġgaps":5905,"Ġmesh":5906,"Ġpotentially":5907,"Ġiras":5908,"Ġgar":5909,"symmetry":5910,"Ġdetections":5911,"Ġsymplectic":5912,"Ġelectrow":5913,"Ġprimordi":5914,"Ġgradients":5915,"Ġmarginal":5916,"Ġlb":5917,"Ġattributed":5918,"Ġpauli":5919,"Ġ63":5920,"Ġelectroweak":5921,"Ġknots":5922,"mid":5923,"istence":5924,"Ġdos":5925,"Ġsupersymmetric":5926,"Ġgrowing":5927,"kh":5928,"Ġdram":5929,"Ġpric":5930,"lind":5931,"Ġreddening":5932,"Ġburn":5933,"Ġtube":5934,"Ġprimordial":5935,"Ġagns":5936,"Ġfilament":5937,"Ġundergo":5938,"ards":5939,"Ġsometimes":5940,"Ġjohn":5941,"Ġkr":5942,"Ġsucces":5943,"Ġthems":5944,"Ġ115":5945,"Ġpurposes":5946,"Ġexplored":5947,"eee":5948,"Ġspir":5949,"Ġwf":5950,"Ġthemselves":5951,"Ġheavi":5952,"Ġimpos":5953,"Ġ1982":5954,"ame":5955,"hn":5956,"istry":5957,"Ġfidelity":5958,"ologically":5959,"ember":5960,"Ġinjection":5961,"Ġsuppress":5962,"wa":5963,"Ġtriangular":5964,"Ġhb":5965,"Ġfock":5966,"Ġconsequences":5967,"Ġsz":5968,"lett":5969,"Ġrf":5970,"Ġflo":5971,"Ġstages":5972,"Ġround":5973,"Ġfeynman":5974,"Ġfulfill":5975,"itive":5976,"Ġreproduced":5977,"cing":5978,"Ġlosses":5979,"Ġbonds":5980,"Ġieee":5981,"Ġscreening":5982,"omorphisms":5983,"Ġing":5984,"Ġplanes":5985,"Ġretain":5986,"Ġobsc":5987,"Ġaffects":5988,"Ġaccelerated":5989,"Ġanomaly":5990,"Ġresc":5991,"Ġdemand":5992,"Ġpositron":5993,"Ġsubsets":5994,"Ġlati":5995,"Ġequally":5996,"Ġcertainly":5997,"Ġattain":5998,"Ġld":5999,"tor":6000,"Ġambi":6001,"Ġcommonly":6002,"Ġsegments":6003,"Ġours":6004,"Ġaspect":6005,"Ġhum":6006,"Ġmonop":6007,"Ġalternatively":6008,"ica":6009,"Ġaccordingly":6010,"Ġprogramm":6011,"Ġmf":6012,"anned":6013,"car":6014,"Ġintr":6015,"Ġmonitor":6016,"Ġneighboring":6017,"Ġprojective":6018,"field":6019,"Ġquantization":6020,"Ġunch":6021,"Ġassigned":6022,"kely":6023,"Ġejecta":6024,"ille":6025,"Ġconverge":6026,"onically":6027,"Ġimplying":6028,"Ġsubsystem":6029,"mark":6030,"itian":6031,"Ġreversal":6032,"Ġbuilt":6033,"Ġincoming":6034,"Ġom":6035,"erman":6036,"ya":6037,"Ġencoun":6038,"Ġsupernovae":6039,"Ġstands":6040,"Ġmb":6041,"Ġanalogy":6042,"ionization":6043,"Ġ73":6044,"Ġranging":6045,"Ġagg":6046,"Ġdf":6047,"parts":6048,"Ġbranches":6049,"Ġtheorems":6050,"Ġur":6051,"Ġsubtracted":6052,"Ġrenormalized":6053,"Ġinstantaneous":6054,"Ġnone":6055,"Ġlooking":6056,"Ġunlikely":6057,"oli":6058,"Ġwalls":6059,"Ġcounterpart":6060,"002":6061,"Ġresistivity":6062,"Ġwd":6063,"Ġisotherm":6064,"wor":6065,"Ġdisplays":6066,"Ġagb":6067,"Ġgenerates":6068,"range":6069,"Ġbuild":6070,"Ġgenus":6071,"Ġheter":6072,"Ġpreliminary":6073,"Ġdoped":6074,"Ġow":6075,"Ġks":6076,"Ġyielding":6077,"Ġmd":6078,"Ġborn":6079,"Ġweyl":6080,"Ġreconstructed":6081,"Ġinterestingly":6082,"aking":6083,"eared":6084,"Ġabsorb":6085,"rays":6086,"Ġcancel":6087,"Ġenvironments":6088,"Ġemphasize":6089,"Ġrepulsive":6090,"uted":6091,"Ġregarded":6092,"Ġvalu":6093,"Ġevolved":6094,"Ġparent":6095,"Ġguarante":6096,"related":6097,"Ġ1000":6098,"Ġwinds":6099,"Ġhermitian":6100,"sky":6101,"enced":6102,"Ġry":6103,"Ġacknowledge":6104,"hing":6105,"Ġgcs":6106,"Ġsimpler":6107,"Ġrings":6108,"oids":6109,"Ġoccupation":6110,"Ġreco":6111,"Ġspheres":6112,"Ġparticip":6113,"Ġpronounced":6114,"arxiv":6115,"Ġeight":6116,"gered":6117,"ulate":6118,"Ġinstabilities":6119,"Ġfinanc":6120,"ham":6121,"Ġconvection":6122,"Ġframes":6123,"Ġut":6124,"Ġuniquely":6125,"Ġhelicity":6126,"Ġpossibilities":6127,"Ġ72":6128,"Ġcylind":6129,"Ġcompression":6130,"Ġadjus":6131,"Ġdatabase":6132,"Ġrewrite":6133,"ifying":6134,"Ġkondo":6135,"Ġsand":6136,"Ġtables":6137,"Ġquar":6138,"Ġfilters":6139,"ositions":6140,"Ġintegrable":6141,"Ġmhd":6142,"Ġ..":6143,"Ġlu":6144,"Ġdy":6145,"Ġcouple":6146,"Ġhr":6147,"Ġjourn":6148,"Ġnlo":6149,"Ġct":6150,"Ġfp":6151,"Ġsubsequently":6152,"Ġaccom":6153,"Ġachiev":6154,"Ġhadrons":6155,"Ġkim":6156,"Ġsgr":6157,"Ġdimer":6158,"Ġadjoint":6159,"Ġemplo":6160,"Ġalgebras":6161,"Ġmind":6162,"Ġbifurcation":6163,"Ġdoppler":6164,"Ġsuccessfully":6165,"Ġnom":6166,"olet":6167,"Ġbern":6168,"Ġastronomy":6169,"kl":6170,"Ġdeduc":6171,"Ġwarm":6172,"Ġbaryons":6173,"Ġquickly":6174,"Ġinvariants":6175,"Ġrapidity":6176,"ashi":6177,"Ġcompr":6178,"aving":6179,"ball":6180,"lassical":6181,"Ġparametric":6182,"hol":6183,"Ġcovariant":6184,"Ġtuning":6185,"Ġtip":6186,"ended":6187,"Ġdetun":6188,"Ġmajorana":6189,"])-([":6190,"Ġimpossible":6191,"Ġbene":6192,"Ġquies":6193,"rab":6194,"Ġwavefunction":6195,"Ġquasiparticle":6196,"Ġweb":6197,"Ġgm":6198,"Ġrigor":6199,"Ġacknowledges":6200,"ometry":6201,"Ġagents":6202,"Ġcarrier":6203,"Ġintensities":6204,"Ġconsistently":6205,"Ġ74":6206,"Ġagent":6207,"Ġsey":6208,"fr":6209,"Ġhome":6210,"asible":6211,"Ġccd":6212,"Ġ112":6213,"Ġsuperconductors":6214,"Ġcharacterization":6215,"Ġbrownian":6216,"schild":6217,"ws":6218,"Ġstatistically":6219,"Ġ78":6220,"cy":6221,"Ġinsulator":6222,"Ġter":6223,"Ġhanded":6224,"eting":6225,"Ġoverla":6226,"Ġadvanced":6227,"Ġclosure":6228,"Ġsemiconduct":6229,"anov":6230,"Ġinvestigations":6231,"Ġsearches":6232,"Ġquotient":6233,"mers":6234,"Ġsheet":6235,"Ġmerging":6236,"Ġpeculiar":6237,"Ġambient":6238,"omic":6239,"Ġcollected":6240,"Ġcenters":6241,"Ġcart":6242,"Ġplateau":6243,"rection":6244,"Ġacoustic":6245,"Ġyu":6246,"Ġnak":6247,"Ġrecip":6248,"Ġ245":6249,"inter":6250,"Ġdivis":6251,"Ġexciton":6252,"Ġsignatures":6253,"Ġpu":6254,"Ġstop":6255,"ellow":6256,"Ġopacity":6257,"Ġresistance":6258,"Ġprogenitor":6259,"Ġneur":6260,"Ġmodule":6261,"Ġreflects":6262,"Ġ1981":6263,"Ġnewtonian":6264,"Ġpacket":6265,"Ġum":6266,"Ġinduce":6267,"Ġbreaks":6268,"Ġ79":6269,"Ġassociation":6270,"rint":6271,"ean":6272,"cade":6273,"Ġdic":6274,"zi":6275,"Ġ87":6276,"urable":6277,"Ġexceeds":6278,"Ġmy":6279,"Ġgp":6280,"Ġfilms":6281,"Ġsolitons":6282,"Ġstrange":6283,"Ġreceived":6284,"Ġobjective":6285,"Ġbloch":6286,"orting":6287,"Ġ76":6288,"Ġ1979":6289,"Ġci":6290,"Ġdate":6291,"Ġviscous":6292,"Ġcontributes":6293,"Ġzeros":6294,"glow":6295,"Ġcamera":6296,"Ġpy":6297,"algebra":6298,"Ġtrapping":6299,"Ġvaried":6300,"Ġunus":6301,"Ġrecogn":6302,"Ġauthor":6303,"Ġcategor":6304,"Ġ120":6305,"Ġinsight":6306,"Ġfainter":6307,"Ġtruncated":6308,"col":6309,"Ġtimescales":6310,"Ġoptics":6311,"Ġcontinuously":6312,"Ġsuffices":6313,"Ġarrive":6314,"points":6315,"Ġseed":6316,"Ġinfinitely":6317,"Ġseyfer":6318,"Ġcharm":6319,"Ġqs":6320,"Ġadmits":6321,"gl":6322,"Ġsystematically":6323,"Ġqc":6324,"Ġreducing":6325,"zen":6326,"Ġsigma":6327,"Ġflares":6328,"iliary":6329,"Ġsigns":6330,"Ġpropos":6331,"erior":6332,"Ġade":6333,"Ġfamilies":6334,"Ġbb":6335,"Ġcounterparts":6336,"wo":6337,"Ġmal":6338,"quet":6339,"Ġproves":6340,"Ġ82":6341,"uly":6342,"Ġprominent":6343,"day":6344,"Ġdt":6345,"Ġfusion":6346,"Ġexpanded":6347,"Ġlad":6348,"Ġforeground":6349,"Ġboost":6350,"Ġauxiliary":6351,"Ġsupplement":6352,"Ġaddi":6353,"Ġspectro":6354,"Ġfinancial":6355,"essel":6356,"Ġdataset":6357,"Ġconcentrated":6358,"Ġrows":6359,"Ġsums":6360,"osh":6361,"Ġru":6362,"izer":6363,"Ġconvolution":6364,"Ġwol":6365,"Ġartificial":6366,"ives":6367,"Ġfunct":6368,"enko":6369,"Ġideas":6370,"Ġacces":6371,"Ġefficiently":6372,"Ġsuperconductor":6373,"Ġmanifest":6374,"umm":6375,"Ġsoci":6376,"Ġalf":6377,"Ġactiv":6378,"Ġml":6379,"otential":6380,"Ġflex":6381,"Ġ81":6382,"Ġdifficulty":6383,"Ġcondensation":6384,"Ġreverse":6385,"Ġrequirements":6386,"ori":6387,"----":6388,"004":6389,"Ġplaus":6390,"Ġhomology":6391,"Ġenrich":6392,"Ġbiparti":6393,"Ġstrategies":6394,"eb":6395,"Ġec":6396,"Ġpal":6397,"sen":6398,"Ġswe":6399,"Ġtracks":6400,"Ġrecovered":6401,"005":6402,"Ġeccentricity":6403,"cdm":6404,"Ġsimplify":6405,"unov":6406,"Ġ83":6407,"Ġcompeti":6408,"Ġunchanged":6409,"till":6410,"Ġ150":6411,"Ġability":6412,"Ġpublic":6413,"Ġsynthetic":6414,"Ġevolves":6415,"aling":6416,"Ġaccomp":6417,"Ġsampled":6418,"Ġcontract":6419,"Ġresem":6420,")-(":6421,"Ġrx":6422,"bur":6423,"Ġdiscrimin":6424,"003":6425,"Ġdoublet":6426,"Ġoutgoing":6427,"Ġaccompan":6428,"Ġmonotonic":6429,":[":6430,"Ġastrophysics":6431,"Ġcorrectly":6432,"Ġnir":6433,"Ġpush":6434,"uther":6435,"Ġcylindrical":6436,"oscal":6437,"utive":6438,"chi":6439,"Ġkept":6440,"imir":6441,"axial":6442,"Ġmutual":6443,"Ġnucleons":6444,"vn":6445,"Ġafterglow":6446,"Ġ71":6447,"Ġinteract":6448,"Ġ113":6449,"Ġsom":6450,"Ġtesting":6451,"Ġprice":6452,"Ġlabels":6453,"Ġtemplate":6454,"deg":6455,"Ġcorona":6456,"Ġjournal":6457,"Ġdrops":6458,"Ġlost":6459,"Ġoutcome":6460,"Ġadsor":6461,"Ġcontinue":6462,"fin":6463,"Ġpreserving":6464,"aments":6465,"Ġinfall":6466,"yer":6467,"Ġ98":6468,"Ġshaped":6469,"Ġmetals":6470,"ney":6471,"Ġ61":6472,"Ġtiming":6473,"use":6474,"cor":6475,"enn":6476,"Ġexten":6477,"Ġabsent":6478,"cell":6479,"ogeneity":6480,"Ġpriori":6481,"roid":6482,"Ġgran":6483,"Ġdepart":6484,"Ġque":6485,"Ġspot":6486,"Ġcard":6487,"tible":6488,"ectivity":6489,"Ġsparse":6490,"Ġquadrupole":6491,"Ġunderes":6492,"ked":6493,"ition":6494,"Ġflip":6495,"Ġillustrates":6496,"Ġextensions":6497,"Ġtrends":6498,"Ġkl":6499,"Ġsocial":6500,"Ġblow":6501,"Ġoccurrence":6502,"Ġfalls":6503,"Ġdrive":6504,"Ġquantify":6505,"Ġbuilding":6506,"Ġgoverned":6507,"midt":6508,"Ġtot":6509,"Ġportion":6510,"Ġthink":6511,"hr":6512,"Ġdissipative":6513,"Ġwise":6514,"Ġ114":6515,"Ġpay":6516,"Ġice":6517,"ynamical":6518,"Ġtools":6519,"Ġregularization":6520,"Ġgauss":6521,"Ġraman":6522,"Ġpermit":6523,"Ġtag":6524,"arded":6525,"Ġupdate":6526,"hm":6527,"Ġ86":6528,"Ġbaseline":6529,"oft":6530,"Ġklein":6531,"Ġparabolic":6532,"Ġindirect":6533,"doi":6534,"Ġsimulate":6535,"Ġincomp":6536,"])[":6537,"Ġconvective":6538,"tered":6539,"Ġpercolation":6540,"Ġaggreg":6541,"Ġperturbed":6542,"Ġuniversality":6543,"Ġmultipl":6544,"Ġbcs":6545,"ubes":6546,"Ġdiffe":6547,"Ġaccep":6548,"Ġ84":6549,"Ġreplic":6550,"Ġwriting":6551,"Ġminimize":6552,"Ġspitzer":6553,"Ġambigu":6554,"Ġport":6555,"eng":6556,"Ġleave":6557,"Ġrequiring":6558,"Ġisland":6559,"Ġ97":6560,"Ġcoarse":6561,"options":6562,"header":6563,"Ġdemonstrates":6564,"Ġaccessible":6565,"Ġmatched":6566,"Ġpackage":6567,"local":6568,"]]":6569,"Ġvibrational":6570,"Ġxmm":6571,"Ġtraditional":6572,"Ġschwarzschild":6573,"che":6574,"Ġskew":6575,"Ġcasimir":6576,"Ġoriginally":6577,"sub":6578,"Ġtelescopes":6579,"Ġgreatly":6580,"Ġreconn":6581,"ima":6582,"Ġrewritten":6583,"Ġbackward":6584,"Ġfeasible":6585,"Ġmodelling":6586,"Ġcoronal":6587,"Ġfocused":6588,"stream":6589,"ractive":6590,"Ġsubgraph":6591,"Ġjan":6592,"Ġgs":6593,"Ġopt":6594,"Ġoutflows":6595,"Ġasser":6596,"Ġgray":6597,"Ġremnant":6598,"Ġoccurring":6599,"Ġperi":6600,"Ġtransit":6601,"ht":6602,"itors":6603,"Ġsupersymmetry":6604,"Ġkerr":6605,"ox":6606,"Ġnp":6607,"Ġaddressed":6608,"Ġ105":6609,"hs":6610,"Ġevap":6611,"Ġparametrization":6612,"Ġdenomin":6613,"Ġmedia":6614,"Ġliu":6615,"Ġmss":6616,"Ġattenu":6617,"Ġdrag":6618,"Ġsure":6619,"ographic":6620,"nos":6621,"Ġreasonably":6622,"Ġtransforms":6623,"Ġpreferred":6624,"Ġisothermal":6625,"Ġincomple":6626,"manifold":6627,"esh":6628,"ovi":6629,"Ġbeta":6630,"Ġitem":6631,"redi":6632,"Ġpor":6633,"ellation":6634,"Ġvon":6635,"Ġclumps":6636,"Ġensures":6637,"violet":6638,"Ġhii":6639,"Ġmetallicities":6640,"ower":6641,"Ġbrightest":6642,"Ġcovers":6643,"oni":6644,"Ġionizing":6645,"rt":6646,"Ġslopes":6647,"Ġqd":6648,"Ġadaptive":6649,"Ġoutl":6650,"Ġdecaying":6651,"Ġhomotopy":6652,"Ġposterior":6653,"Ġfilaments":6654,"Ġmachine":6655,"Ġformulae":6656,"Ġwest":6657,"Ġconnections":6658,"Ġsemiclassical":6659,"Ġinclusive":6660,"fold":6661,"Ġultraviolet":6662,"-)":6663,"dis":6664,"Ġdetectable":6665,"Ġclar":6666,"oscalar":6667,"Ġchern":6668,"umann":6669,"ivari":6670,"Ġcham":6671,"Ġmw":6672,"Ġroll":6673,"pm":6674,"Ġsubsc":6675,"Ġpreced":6676,"Ġholomorphic":6677,"Ġfinitely":6678,"Ġresiduals":6679,"Ġdft":6680,"Ġiterations":6681,"Ġload":6682,"cession":6683,"Ġincons":6684,"issible":6685,"Ġrefers":6686,"Ġcommunity":6687,"Ġkk":6688,"Ġcollinear":6689,"Ġirreg":6690,"Ġviolating":6691,"Ġblu":6692,"sibility":6693,"fl":6694,"Ġneutrons":6695,"Ġimpurities":6696,"Ġingredi":6697,"Ġintroduces":6698,"Ġergod":6699,"neg":6700,"Ġadjust":6701,"Ġparad":6702,"Ġuncor":6703,"structure":6704,"Ġbore":6705,"Ġroom":6706,"Ġillumin":6707,"Ġaccounts":6708,"ancies":6709,"ato":6710,"Ġcomplementary":6711,"Ġinterpolation":6712,"Ġconservative":6713,"Ġacad":6714,"Ġextraction":6715,"Ġcoding":6716,"Ġeigenvectors":6717,"Ġjose":6718,"Ġperfectly":6719,"iants":6720,"Ġadequ":6721,"Ġcombinatorial":6722,"Ġprinciples":6723,"Ġmanip":6724,"Ġpip":6725,"Ġ400":6726,"vere":6727,"Ġrout":6728,"Ġmot":6729,"112":6730,"Ġcascade":6731,"Ġanderson":6732,"Ġeur":6733,"Ġarrows":6734,"Ġmeasurable":6735,"Ġcrosses":6736,"dec":6737,"ses":6738,"Ġstim":6739,"Ġshells":6740,"Ġtorque":6741,"Ġgrateful":6742,"Ġbipartite":6743,"Ġschmidt":6744,"Ġprevent":6745,"Ġmodify":6746,"ners":6747,"Ġnumerous":6748,"Ġextensively":6749,"Ġfried":6750,"Ġmapped":6751,"Ġproxim":6752,"Ġdestro":6753,"Ġfaces":6754,"Ġbod":6755,"uchi":6756,"ymmetric":6757,"Ġleptons":6758,"isons":6759,"Ġhill":6760,"Ġmembrane":6761,"Ġhierarchical":6762,"Ġdiffusive":6763,"Ġhours":6764,"Ġcombine":6765,"Ġtry":6766,"Ġresolve":6767,"Ġnois":6768,"Ġseyfert":6769,"Ġcohom":6770,"Ġrecorded":6771,"Ġconverted":6772,"Ġgluons":6773,"Ġimmediate":6774,"Ġletter":6775,"Ġtraining":6776,"ipped":6777,"Ġanalyzing":6778,")(-":6779,"Ġreceiver":6780,"Ġrealizations":6781,"win":6782,"Ġcalibrated":6783,"Ġdd":6784,"km":6785,"Ġthor":6786,"Ġinn":6787,"etch":6788,"Ġshare":6789,"xx":6790,"Ġjones":6791,"Ġimpose":6792,"Ġmaxima":6793,"direction":6794,"Ġevolving":6795,"Ġladder":6796,"Ġprocedures":6797,"Ġfalse":6798,"Ġenables":6799,"emic":6800,"Ġoptimized":6801,"Ġpresum":6802,"Ġnsf":6803,"omer":6804,"Ġcapac":6805,"Ġcareful":6806,"Ġremoving":6807,"Ġove":6808,"Ġepochs":6809,"lines":6810,"Ġgib":6811,"Ġhexag":6812,"Ġtransmitted":6813,"Ġrepulsion":6814,"Ġdeduced":6815,"Ġassemb":6816,"Ġaverages":6817,"[(":6818,"akov":6819,"zer":6820,"Ġstor":6821,"su":6822,"lattice":6823,"bc":6824,"Ġtetra":6825,"Ġconvenience":6826,"Ġfisher":6827,"Ġneglecting":6828,"usc":6829,"Ġpolyg":6830,"Ġsole":6831,"Ġleaving":6832,"Ġ88":6833,"Ġnova":6834,"Ġnic":6835,"cher":6836,"Ġ1977":6837,"Ġmultiplication":6838,"Ġlaplace":6839,"Ġquadrature":6840,"dependent":6841,"Ġextrapolation":6842,"uchy":6843,"Ġprescription":6844,"Ġbeli":6845,"Ġdevoted":6846,"Ġjoseph":6847,"Ġseven":6848,"Ġmessage":6849,"Ġdynamically":6850,"Ġrectang":6851,"relation":6852,"Ġtd":6853,"Ġspanning":6854,"Ġremarkably":6855,"Ġapparently":6856,"vity":6857,"Ġexpansions":6858,"Ġpromising":6859,"Ġ96":6860,"particle":6861,"Ġproven":6862,"Ġreaching":6863,"Ġgw":6864,"Ġidentifying":6865,"ecti":6866,"Ġcomparisons":6867,"Ġmott":6868,"Ġoveres":6869,"Ġproofs":6870,"air":6871,"Ġconsec":6872,"phe":6873,"Ġpions":6874,"Ġgeometries":6875,"Ġpeaked":6876,"Ġtruncation":6877,"Ġsees":6878,"reci":6879,"Ġcompounds":6880,"Ġhaw":6881,"Ġrc":6882,"Ġwavegu":6883,"Ġdisrup":6884,"Ġlc":6885,"Ġenter":6886,"elike":6887,"Ġatlas":6888,"Ġsynthesis":6889,"Ġcondensed":6890,"Ġminkowski":6891,"Ġinserting":6892,"Ġbog":6893,"space":6894,"bal":6895,"gp":6896,"Ġburning":6897,"Ġmorphism":6898,"Ġsupports":6899,"Ġhypersur":6900,"Ġmt":6901,"Ġtan":6902,"Ġfractal":6903,"Ġkol":6904,"Ġphonons":6905,"Ġaccord":6906,"Ġchi":6907,"Ġshower":6908,"Ġcollider":6909,"Ġlamb":6910,"Ġemploying":6911,"Ġmk":6912,"Ġactions":6913,"pher":6914,"Ġappreci":6915,"Ġbehaves":6916,"www":6917,"Ġkinds":6918,"oded":6919,"Ġ89":6920,"Ġ1978":6921,"Ġsoon":6922,"Ġpenetr":6923,"phere":6924,"Ġextrag":6925,"Ġplausible":6926,"Ġaccumul":6927,"Ġpac":6928,"urs":6929,"Ġconcerned":6930,"Ġskyrm":6931,"Ġhope":6932,"Ġenergetic":6933,"Ġcontraction":6934,"Ġminimization":6935,"Ġthermodynamics":6936,"Ġil":6937,"Ġabsorbing":6938,"eper":6939,"Ġgrand":6940,"Ġintegrate":6941,"Ġunbound":6942,"Ġforb":6943,"Ġcompres":6944,"Ġbad":6945,"Ġbelonging":6946,"Ġdisturb":6947,"Ġelectrostatic":6948,"ulus":6949,"Ġsolv":6950,"Ġbits":6951,"ominant":6952,"Ġbelieved":6953,"Ġadditive":6954,"Ġdrople":6955,"Ġdepartment":6956,"Ġbd":6957,"])(":6958,"Ġasc":6959,"Ġmodifications":6960,"Ġcamp":6961,"Ġelectrical":6962,"nn":6963,"Ġextragalactic":6964,"process":6965,"Ġquantitatively":6966,"Ġseparable":6967,"Ġcauchy":6968,"Ġ93":6969,"Ġrelate":6970,"cu":6971,"Ġoscillators":6972,"Ġsociety":6973,"Ġregression":6974,"Ġslower":6975,"Ġmonotonically":6976,"Ġharmon":6977,"Ġfixing":6978,"Ġpg":6979,"Ġobey":6980,"Ġprecession":6981,"Ġlyap":6982,"Ġef":6983,"haus":6984,"Ġunres":6985,"Ġoscillatory":6986,"Ġeffort":6987,"oving":6988,"Ġprotost":6989,"ively":6990,"Ġestimating":6991,"Ġdiagnos":6992,"Ġcusp":6993,"Ġexotic":6994,"Ġtails":6995,"Ġsaturated":6996,"Ġopening":6997,"Ġdb":6998,"Ġquenched":6999,"Ġquiescent":7000,"bration":7001,"Ġsevere":7002,"Ġsitter":7003,"Ġmodern":7004,"Ġneumann":7005,"iving":7006,"Ġastronomical":7007,"tivities":7008,"Ġregardless":7009,"Ġwmap":7010,"Ġabst":7011,"Ġmathematics":7012,"Ġlinked":7013,"Ġimplied":7014,"Ġfid":7015,"Ġos":7016,"dington":7017,"ida":7018,"Ġspherically":7019,"ny":7020,"Ġmetr":7021,"Ġcorner":7022,"Ġgates":7023,"Ġmodules":7024,"Ġprotein":7025,"Ġric":7026,"Ġfrust":7027,"Ġpriv":7028,"Ġsatellites":7029,"module":7030,"Ġstarted":7031,"za":7032,"Ġobst":7033,"Ġmatches":7034,"omm":7035,"Ġnotic":7036,"down":7037,"Ġbehaviors":7038,"Ġreconnection":7039,"lag":7040,"Ġdeeper":7041,"Ġevaluating":7042,"pn":7043,"Ġiterative":7044,"iner":7045,"Ġmobility":7046,",(":7047,"vector":7048,"Ġsubsec":7049,"Ġmember":7050,"illi":7051,"Ġirregular":7052,"Ġinterferometer":7053,"Ġlv":7054,"Ġdistinguished":7055,"uck":7056,"Ġeigenfunctions":7057,"Ġclosest":7058,"tude":7059,"Ġtb":7060,"Ġboun":7061,"Ġremainder":7062,"Ġmetast":7063,"Ġalloc":7064,"Ġtorsion":7065,"bach":7066,"Ġpf":7067,"Ġexec":7068,"model":7069,"ermost":7070,"Ġultr":7071,"Ġfocusing":7072,"cyc":7073,"mn":7074,"spec":7075,"Ġsmoothing":7076,"Ġstiff":7077,"007":7078,"Ġcircumstellar":7079,"Ġdna":7080,"Ġdecon":7081,"\",,,,":7082,"Ġzeeman":7083,"Ġ123":7084,"Ġmssm":7085,"Ġexplains":7086,"Ġ116":7087,"Ġunresolved":7088,"Ġenters":7089,"Ġsg":7090,"Ġeast":7091,"ativity":7092,"Ġcatalogue":7093,"Ġdx":7094,"Ġjumps":7095,"Ġseparations":7096,"Ġreally":7097,"Ġirradi":7098,"Ġbiased":7099,"Ġvaluable":7100,"Ġconsecutive":7101,"Ġnonlinearity":7102,"Ġantenna":7103,"dden":7104,"Ġsketch":7105,"pective":7106,"Ġsilicon":7107,"Ġlyapunov":7108,"Ġrelies":7109,"Ġmargin":7110,"Ġhappen":7111,"Ġblaz":7112,"pect":7113,"Ġeverywhere":7114,"erc":7115,"atest":7116,"Ġjosephson":7117,"Ġcomoving":7118,"Ġconstructing":7119,"Ġeurop":7120,"Ġeddington":7121,"Ġnd":7122,"Ġchaos":7123,"Ġcast":7124,"array":7125,"Ġcoincidence":7126,"Ġkur":7127,"qcd":7128,"Ġevid":7129,"Ġtal":7130,"Ġkra":7131,"Ġcommutative":7132,"Ġautomatically":7133,"006":7134,"Ġoscillating":7135,"Ġfails":7136,"athered":7137,"Ġhem":7138,"Ġindication":7139,"Ġcollisional":7140,"eller":7141,"Ġjap":7142,"Ġborel":7143,"ography":7144,"ruction":7145,"Ġrisk":7146,"Ġfg":7147,"Ġnight":7148,"Ġconcentrations":7149,"Ġago":7150,"Ġ92":7151,"Ġarms":7152,"Ġintra":7153,"Ġelsewhere":7154,"Ġff":7155,"Ġfirstly":7156,"Ġsuccessive":7157,"Ġperspective":7158,"Ġoverlapping":7159,"Ġoperated":7160,"Ġnothing":7161,"Ġchir":7162,"oplan":7163,"Ġbis":7164,"Ġformulated":7165,"Ġastrom":7166,"Ġcarr":7167,"Ġprojections":7168,"Ġattached":7169,"Ġexclude":7170,"cepts":7171,"Ġpresentation":7172,"Ġelong":7173,"Ġbaryonic":7174,"Ġrelease":7175,"Ġconsum":7176,"uss":7177,"Ġcomment":7178,"ao":7179,"Ġmission":7180,"Ġuk":7181,"ander":7182,"Ġbessel":7183,"integ":7184,"Ġmjy":7185,"Ġmartin":7186,"Ġinfinites":7187,"rd":7188,"Ġech":7189,"cence":7190,"Ġignored":7191,"Ġrely":7192,"Ġqui":7193,"Ġban":7194,"Ġtom":7195,"tification":7196,"Ġdeformed":7197,"Ġadmissible":7198,"Ġengineering":7199,"Ġowing":7200,"Ġnf":7201,"Ġinsen":7202,"Ġhet":7203,"onom":7204,"Ġarrival":7205,"Ġreproduces":7206,"Ġmetrics":7207,"Ġoutlined":7208,"Ġbases":7209,"Ġspectrom":7210,"Ġbayesian":7211,"Ġproximity":7212,"play":7213,"phasing":7214,"Ġseparating":7215,"Ġharmonics":7216,"lept":7217,"Ġsnap":7218,"111":7219,"Ġserv":7220,"phot":7221,"Ġmonopole":7222,"Ġlogic":7223,"bb":7224,"Ġspinor":7225,"Ġask":7226,"Ġrhic":7227,"Ġnotations":7228,"Ġname":7229,"get":7230,"invari":7231,"Ġstrongest":7232,"Ġintersect":7233,"Ġspecify":7234,"Ġmere":7235,"Ġdepletion":7236,"Ġcopies":7237,"Ġnu":7238,"Ġnag":7239,"Ġdifficulties":7240,"Ġrepeat":7241,"Ġcup":7242,"Ġ2016":7243,"timately":7244,"]([":7245,"Ġperiodicity":7246,"Ġgaug":7247,"iro":7248,"Ġrib":7249,"Ġintegrand":7250,"olating":7251,"Ġrul":7252,"Ġrecoil":7253,"Ġeclip":7254,"Ġdecision":7255,"etti":7256,"stone":7257,"Ġ91":7258,"Ġturned":7259,"Ġrgb":7260,"Ġeliminate":7261,"Ġlegend":7262,"'(":7263,"Ġrotations":7264,"Ġlyman":7265,"Ġminimizing":7266,"Ġdoing":7267,"Ġserve":7268,"ocal":7269,"Ġdetuning":7270,"Ġfb":7271,"Ġregularity":7272,"Ġprepared":7273,"Ġstorage":7274,"Ġaccepted":7275,"Ġcdf":7276,"Ġinterfaces":7277,"Ġdenominator":7278,"Ġ94":7279,"Ġ125":7280,"burg":7281,"Ġple":7282,"Ġtuned":7283,"Ġequatorial":7284,"ister":7285,"rest":7286,"kb":7287,"Ġhandle":7288,"ez":7289,"Ġsciences":7290,"ands":7291,"Ġpet":7292,"Ġeasier":7293,"onormal":7294,"Ġrefere":7295,"Ġdiverges":7296,"Ġtotally":7297,"Ġ117":7298,"010":7299,"char":7300,"gi":7301,"Ġconversely":7302,"Ġseconds":7303,"ished":7304,"Ġhamiltonians":7305,"Ġnes":7306,"Ġwaven":7307,"Ġjustified":7308,"Ġhighlight":7309,";;":7310,"pos":7311,"Ġspeaking":7312,"Ġwavenum":7313,"Ġoffer":7314,"qs":7315,"Ġkink":7316,"Ġbegins":7317,"Ġdigital":7318,"Ġcv":7319,"ample":7320,"Ġstem":7321,"Ġcohomology":7322,"Ġaccreting":7323,"Ġfoot":7324,"like":7325,"Ġscope":7326,"Ġfunctor":7327,"Ġinstrumental":7328,"Ġpairwise":7329,"Ġchallenge":7330,"Ġmultiplied":7331,"Ġpractically":7332,"008":7333,"dependence":7334,"Ġshrin":7335,"Ġdissoci":7336,"Ġbodies":7337,"Ġmorphological":7338,"Ġdens":7339,"Ġmur":7340,"Ġuncorrelated":7341,"Ġtex":7342,"Ġsake":7343,"Ġspur":7344,"Ġdivergent":7345,"Ġnb":7346,"Ġwider":7347,"Ġpropagators":7348,"uz":7349,"ensur":7350,"Ġmol":7351,"Ġturning":7352,"Ġbolometric":7353,"Ġirrele":7354,"Ġchallenging":7355,"Ġfash":7356,"Ġmarch":7357,"Ġmigration":7358,"Ġnonneg":7359,"Ġbehave":7360,"Ġcli":7361,"Ġencl":7362,"Ġmonitoring":7363,"aring":7364,"Ġminus":7365,"Ġqed":7366,"Ġasymmetries":7367,"Ġ1976":7368,"Ġhead":7369,"264":7370,"Ġindividuals":7371,"Ġinertial":7372,"ovian":7373,"Ġquantized":7374,"phi":7375,"Ġfashion":7376,"reh":7377,"Ġstein":7378,"Ġspirals":7379,"Ġqso":7380,"Ġopportun":7381,"ye":7382,"ribed":7383,"ucial":7384,"Ġterminal":7385,"Ġtoday":7386,"Ġresources":7387,"Ġfold":7388,"Ġversions":7389,"Ġnc":7390,"tin":7391,"Ġunusual":7392,"Ġlimitations":7393,"Ġhartree":7394,"bor":7395,"Ġfluids":7396,"Ġvla":7397,"Ġsudden":7398,"Ġseeing":7399,"pot":7400,"edge":7401,"Ġbench":7402,"Ġecon":7403,"Ġstriking":7404,"Ġmonth":7405,"sis":7406,"Ġcube":7407,"Ġattempts":7408,"Ġlond":7409,"Ġkar":7410,"Ġattack":7411,"Ġcomplexes":7412,"Ġwu":7413,"Ġcapable":7414,"Ġgeneralize":7415,"Ġinterplay":7416,"Ġgave":7417,"Ġrigorous":7418,"Ġgy":7419,"Ġbring":7420,"Ġgut":7421,"Ġinsulating":7422,"Ġdecreased":7423,"lens":7424,"Ġigm":7425,"monic":7426,"equilibrium":7427,"Ġbalanced":7428,"prop":7429,"ude":7430,"Ġovercome":7431,"Ġfiducial":7432,"Ġlagrange":7433,"Ġpartly":7434,"Ġorthonormal":7435,"Ġsmc":7436,"Ġprimitive":7437,"inos":7438,"sr":7439,"Ġcontacts":7440,"Ġamplification":7441,"forms":7442,"Ġdivide":7443,"Ġmarkovian":7444,"Ġlobe":7445,"Ġorientations":7446,"Ġexperience":7447,"uary":7448,"Ġmodular":7449,"Ġapr":7450,"Ġattraction":7451,"Ġsent":7452,"Ġtele":7453,"Ġdephasing":7454,"Ġdenoting":7455,"Ġsv":7456,"Ġcausal":7457,"Ġshadow":7458,"Ġadjusted":7459,"Ġadopting":7460,"Ġhen":7461,"ster":7462,"Ġconnectivity":7463,"lab":7464,"ovich":7465,"Ġbending":7466,"Ġirrelevant":7467,"Ġcategories":7468,"Ġcompac":7469,"Ġmotivation":7470,"Ġletters":7471,"Ġextremal":7472,"012":7473,"Ġourselves":7474,"Ġconcentrate":7475,"Ġhopf":7476,"Ġip":7477,"nia":7478,"Ġfailure":7479,"Ġcondensates":7480,"sim":7481,"Ġfragments":7482,"Ġupdated":7483,"Ġtwisted":7484,"Ġjunctions":7485,"ji":7486,"Ġtin":7487,"Ġgb":7488,"Ġaxisymmetric":7489,"Ġappl":7490,"Ġbethe":7491,"Ġbrill":7492,"Ġbat":7493,"Ġyam":7494,"ropic":7495,"pb":7496,"rong":7497,"jet":7498,"Ġmcc":7499,"cil":7500,"irable":7501,"Ġphy":7502,"sivity":7503,"olate":7504,"Ġemergence":7505,"Ġgases":7506,"Ġsolely":7507,"Ġconfirms":7508,"Ġisoch":7509,"Ġak":7510,"Ġphotosphere":7511,"vance":7512,"Ġrend":7513,"Ġreyn":7514,"Ġfibers":7515,"Ġdecoding":7516,"Ġdiscontinuity":7517,"Ġaccounted":7518,"Ġgradually":7519,"Ġpad":7520,"Ġdiscs":7521,"Ġcompletes":7522,"Ġdeb":7523,"fine":7524,"zy":7525,"Ġalter":7526,"Ġpassage":7527,"Ġsubmit":7528,"Ġinherent":7529,"Ġpreserves":7530,"Ġmaximally":7531,"Ġsumming":7532,"nt":7533,"iar":7534,"Ġretri":7535,"Ġacceptance":7536,"Ġmodulo":7537,"Ġlists":7538,"Ġafm":7539,"ffic":7540,"Ġbubbles":7541,"Ġcumulative":7542,"while":7543,"Ġpopular":7544,"Ġheli":7545,"Ġinsensitive":7546,"Ġcms":7547,"rand":7548,"Ġcurved":7549,"Ġcorrelator":7550,"Ġthomas":7551,"Ġcephe":7552,"Ġwein":7553,"Ġprobabil":7554,"Ġxi":7555,"Ġinstruments":7556,"eses":7557,"Ġquoted":7558,"Ġappeared":7559,"Ġlinearized":7560,"Ġjup":7561,"Ġoverd":7562,"Ġrv":7563,"Ġpropagate":7564,"arc":7565,"coming":7566,"Ġhuman":7567,"layer":7568,"Ġconcepts":7569,"Ġfacts":7570,"Ġspectrograph":7571,"dy":7572,"Ġibid":7573,"Ġdeceler":7574,"Ġpreceding":7575,"Ġmarket":7576,"Ġanalogue":7577,"electron":7578,"Ġschw":7579,"Ġconnect":7580,"Ġhomomorphism":7581,"Ġomitted":7582,"Ġinjected":7583,"Ġtracking":7584,"Ġconcluded":7585,"Ġguarantee":7586,"Ġproposal":7587,"Ġmetastable":7588,"Ġsynchronization":7589,"Ġforbidden":7590,"Ġgrating":7591,"Ġgeodesics":7592,"iers":7593,"Ġtraffic":7594,"Ġdetecting":7595,"Ġcrossings":7596,"quist":7597,"Ġbim":7598,"Ġinputs":7599,"Ġscin":7600,"Ġgord":7601,"Ġcontrols":7602,"Ġsaw":7603,"Ġadapted":7604,"Ġinspection":7605,"Ġinterch":7606,"Ġlondon":7607,"Ġuc":7608,"Ġinflationary":7609,"Ġbranes":7610,"Ġalpha":7611,"ml":7612,"Ġsea":7613,"Ġshaded":7614,"Ġshortest":7615,"Ġlect":7616,"Ġlibr":7617,"Ġremarks":7618,"Ġrecipro":7619,"ambigu":7620,"Ġbackgrounds":7621,"onent":7622,"Ġmaser":7623,"Ġlatitude":7624,"ardt":7625,"Ġirac":7626,"Ġsouther":7627,"Ġriemannian":7628,"conn":7629,",.":7630,"link":7631,"Ġeuropean":7632,"Ġnonlocal":7633,"Ġsmoothly":7634,"Ġdp":7635,"physrevlett":7636,"Ġpredominant":7637,"Ġpasses":7638,"nes":7639,"nas":7640,"ilit":7641,"Ġrelay":7642,"Ġdam":7643,"imer":7644,"Ġinform":7645,"Ġscintill":7646,"Ġsched":7647,"Ġdispersions":7648,"xy":7649,"Ġcoexistence":7650,"Ġdepos":7651,"pass":7652,"Ġuniqueness":7653,"Ġexposures":7654,"Ġrelevance":7655,"Ġalternating":7656,"elle":7657,"Ġcarefully":7658,"Ġpla":7659,"Ġcolored":7660,"Ġflag":7661,"Ġdipolar":7662,"Ġsemiconductor":7663,"Ġoperating":7664,"Ġspanned":7665,"umer":7666,"Ġpermutations":7667,"Ġpresumably":7668,"Ġcompreh":7669,"Ġmultiplying":7670,"Ġsouthern":7671,"Ġcoal":7672,"agraph":7673,"')":7674,"Ġdecades":7675,"Ġrom":7676,"Ġnonnegative":7677,"Ġcarriers":7678,"Ġnoisy":7679,"Ġ250":7680,"Ġparamagnetic":7681,"Ġassignment":7682,"type":7683,"Ġhybri":7684,"Ġstee":7685,"riptions":7686,"Ġconsiders":7687,"Ġapproaching":7688,"Ġwat":7689,"Ġlp":7690,"Ġdiscretization":7691,"Ġlange":7692,"Ġindicator":7693,"Ġcorrespondingly":7694,"Ġdecoupling":7695,"Ġhyperfine":7696,"log":7697,"Ġsurprisingly":7698,"Ġmanusc":7699,"gev":7700,"Ġunified":7701,"Ġuns":7702,"Ġholog":7703,"Ġarrays":7704,"Ġattenuation":7705,"Ġdestroy":7706,"ahed":7707,"Ġhh":7708,"Ġbon":7709,"Ġfacilit":7710,"Ġcollabor":7711,"placian":7712,"Ġfan":7713,"Ġnotes":7714,"Ġoption":7715,"Ġnominal":7716,"with":7717,"Ġlabelled":7718,"Ġfluores":7719,"Ġlac":7720,"ault":7721,"diff":7722,"Ġpages":7723,"Ġintense":7724,"bands":7725,"Ġraw":7726,"etry":7727,"Ġscan":7728,"Ġoccurred":7729,"Ġlorentzian":7730,"Ġidentities":7731,"iodic":7732,"Ġacceptable":7733,"comes":7734,"Ġcb":7735,"Ġcancellation":7736,"Ġseds":7737,"106":7738,"Ġalex":7739,"Ġconstit":7740,"Ġstored":7741,"Ġgrants":7742,"015":7743,"ouin":7744,"Ġ119":7745,"ux":7746,"009":7747,"eme":7748,"Ġsmbh":7749,"Ġunitarity":7750,"Ġod":7751,"mut":7752,"Ġgd":7753,"Ġsnapsh":7754,"umes":7755,"Ġfrequently":7756,"Ġanne":7757,"Ġentry":7758,"Ġbenchmark":7759,"Ġcompetition":7760,"Ġhs":7761,"Ġpartitions":7762,"Ġferromagn":7763,"Ġheated":7764,"Ġlot":7765,"gam":7766,"Ġneural":7767,"Ġreynolds":7768,"Ġ104":7769,"Ġiso":7770,"osyn":7771,"ichlet":7772,"Ġking":7773,"Ġcontributing":7774,"Ġaccompanied":7775,"orrelation":7776,"Ġje":7777,"Ġmanuscript":7778,"Ġremoval":7779,"Ġtetrahed":7780,"Ġslab":7781,"Ġdividing":7782,"Ġsqueezing":7783,"Ġcontinuation":7784,"Ġsecondly":7785,"icy":7786,"kn":7787,"226":7788,").,":7789,"Ġpage":7790,"Ġswift":7791,"125":7792,"Ġtransferred":7793,"ulations":7794,"Ġdatasets":7795,"Ġprobabilistic":7796,"Ġrealize":7797,"])([":7798,"Ġergodic":7799,"Ġtensors":7800,"aly":7801,"Ġresonator":7802,"Ġdele":7803,"Ġprompt":7804,"ey":7805,"Ġimportantly":7806,"Ġstatistic":7807,"Ġles":7808,"Ġforcing":7809,"Ġcompanions":7810,"Ġrb":7811,"Ġkir":7812,"Ġalg":7813,"Ġmob":7814,"ipolar":7815,"Ġbrillouin":7816,"Ġva":7817,"ller":7818,"Ġequipped":7819,"Ġtoroidal":7820,"sets":7821,"cont":7822,"ticity":7823,"Ġcolours":7824,"Ġserious":7825,"state":7826,"Ġcaptured":7827,"Ġantisymmetric":7828,"Ġprograms":7829,"):":7830,"Ġjam":7831,"Ġcalor":7832,"Ġ1975":7833,"Ġreality":7834,"Ġdirichlet":7835,"Ġincoh":7836,"Ġachievable":7837,"Ġunderestim":7838,"Ġfiltering":7839,"Ġmonomial":7840,"hy":7841,"Ġmeet":7842,"Ġlips":7843,"Ġexpectations":7844,"Ġrescaled":7845,"ils":7846,"elson":7847,"Ġguide":7848,"Ġvalley":7849,"berger":7850,"Ġtraces":7851,"Ġpumping":7852,"Ġtt":7853,"Ġpiece":7854,"Ġcmd":7855,"Ġmp":7856,"cluster":7857,"Ġnit":7858,"Ġgn":7859,"Ġdecomposed":7860,"Ġgross":7861,"oscop":7862,"Ġsectors":7863,"Ġminutes":7864,"Ġsmoothed":7865,"Ġcartesian":7866,"Ġbridge":7867,"Ġei":7868,"Ġghost":7869,"Ġincompres":7870,"Ġchance":7871,"omers":7872,"Ġdoc":7873,"Ġoutline":7874,"romatic":7875,"Ġwo":7876,"iton":7877,"Ġsubmitted":7878,"Ġoriginate":7879,"shop":7880,"Ġreturns":7881,"Ġnanot":7882,"Ġlooks":7883,"Ġbook":7884,"Ġejected":7885,"tia":7886,"Ġefforts":7887,"Ġadvantages":7888,"Ġannulus":7889,"Ġbasically":7890,"014":7891,"Ġpreserved":7892,"aka":7893,"Ġcontamin":7894,"Ġlaplacian":7895,"ords":7896,"Ġrestrictions":7897,"urity":7898,"versity":7899,"Ġwalker":7900,"invariant":7901,"Ġ103":7902,"Ġhm":7903,"gences":7904,"Ġmich":7905,"Ġchose":7906,"Ġeigenstate":7907,"Ġbow":7908,"Ġrelaxed":7909,"leigh":7910,"Ġ107":7911,"Ġorb":7912,"Ġvar":7913,"Ġhan":7914,"ella":7915,"Ġgiants":7916,"Ġproving":7917,"thesis":7918,"etri":7919,"Ġunambigu":7920,"Ġpreprint":7921,"Ġmeaningful":7922,"Ġkeplerian":7923,"Ġhaloes":7924,"Ġsubstructure":7925,"Ġtrial":7926,"Ġhc":7927,"Ġenable":7928,"Ġkick":7929,"Ġrectangular":7930,"Ġworkshop":7931,"Ġtc":7932,"Ġconstituent":7933,"Ġplates":7934,"Ġdealing":7935,"Ġmediated":7936,"ubov":7937,"Ġpubl":7938,"Ġbarriers":7939,"Ġentering":7940,"Ġsteeper":7941,"Ġprev":7942,"Ġpoincar":7943,"Ġisochron":7944,"Ġwarp":7945,"Ġcarrying":7946,"Ġemerge":7947,"Ġchapter":7948,"Ġgravitation":7949,"Ġolder":7950,"Ġ109":7951,"Ġlep":7952,"Ġemerges":7953,"Ġcen":7954,"Ġneighbourhood":7955,"Ġparametrized":7956,"Ġconstitute":7957,"terior":7958,"iom":7959,"auer":7960,"itect":7961,"Ġcrystalline":7962,"Ġpinning":7963,"Ġboxes":7964,"uri":7965,"ike":7966,"Ġtrivi":7967,"orov":7968,"Ġabstract":7969,"late":7970,"Ġemis":7971,"Ġpassive":7972,"Ġillustration":7973,"Ġunre":7974,"Ġblackbody":7975,"Ġcdm":7976,"Ġrho":7977,"Ġdamped":7978,"hlung":7979,"Ġdoubly":7980,"Ġflatten":7981,"Ġreflecting":7982,"Ġphotospheric":7983,"Ġidentically":7984,"ville":7985,"Ġinconsistent":7986,"Ġys":7987,"Ġ108":7988,"Ġflavour":7989,"Ġsubtle":7990,"Ġ600":7991,"Ġnonequilibrium":7992,"Ġderiving":7993,"Ġparameterized":7994,"Ġforest":7995,"atron":7996,"Ġinfinitesimal":7997,"Ġclaimed":7998,"Ġaccordance":7999,"Ġcharacterizing":8000,"Ġrecon":8001,"Ġmodest":8002,"Ġbrackets":8003,"013":8004,"Ġhit":8005,"Ġtendency":8006,"cap":8007,"Ġcompil":8008,"Ġthresholds":8009,"Ġreferee":8010,"Ġoriginates":8011,"book":8012,"Ġrectangle":8013,"diag":8014,"kev":8015,"Ġfreeze":8016,"Ġnewly":8017,"Ġrescal":8018,"Ġtopic":8019,"Ġslice":8020,"Ġattractor":8021,"actory":8022,"Ġemerging":8023,"Ġlocus":8024,"Ġprobes":8025,"Ġrayleigh":8026,"Ġcontinues":8027,"Ġschematic":8028,"Ġhydrodynamics":8029,"Ġnv":8030,"Ġconducted":8031,"Ġtf":8032,"Ġarchitect":8033,"plot":8034,"Ġ--":8035,"Ġjapan":8036,"illing":8037,"thern":8038,"ewise":8039,"kal":8040,"Ġrober":8041,"Ġspectrometer":8042,"Ġsensor":8043,"sn":8044,"Ġanticip":8045,"rete":8046,"ructive":8047,"Ġisotopes":8048,"Ġmultiplicative":8049,"ola":8050,"Ġincomplete":8051,"Ġguess":8052,"Ġastero":8053,"Ġ1974":8054,"Ġbiological":8055,"Ġignore":8056,"Ġqsos":8057,"Ġheavier":8058,"Ġtook":8059,"Ġ(-":8060,"acle":8061,"etary":8062,"011":8063,"Ġberlin":8064,"Ġholograph":8065,"102":8066,"Ġnucleation":8067,"Ġoffers":8068,"chitz":8069,"ru":8070,"Ġensembles":8071,"Ġgranular":8072,"Ġindependence":8073,"Ġspite":8074,"Ġalfvn":8075,"Ġdisappears":8076,"Ġspeeds":8077,"Ġsimplicial":8078,"Ġhybridi":8079,"Ġautoc":8080,"Ġexterior":8081,"dist":8082,"Ġfellow":8083,"Ġdw":8084,"Ġdeformations":8085,"more":8086,"Ġleaf":8087,"Ġpiecewise":8088,"Ġcompleted":8089,"perturbed":8090,"Ġhundred":8091,"Ġcircul":8092,"Ġlemmas":8093,"Ġ180":8094,",)":8095,"Ġpieces":8096,"2000":8097,"uristic":8098,"Ġlightest":8099,"Ġencounter":8100,"Ġdesirable":8101,"Ġaccounting":8102,"Ġlangevin":8103,"Ġvap":8104,"Ġvo":8105,"Ġ-(":8106,"Ġpartons":8107,"Ġicm":8108,"Ġprogenitors":8109,"strahlung":8110,"Ġtriggered":8111,"Ġimposing":8112,"Ġspurious":8113,"Ġgerman":8114,"Ġgrey":8115,"Ġrosat":8116,"Ġestimators":8117,"Ġlateral":8118,"xi":8119,"Ġsubspaces":8120,"Ġlipschitz":8121,"Ġremnants":8122,"Ġimper":8123,"uclear":8124,"Ġassociate":8125,"bin":8126,"Ġgall":8127,"Ġultimately":8128,"plex":8129,"Ġincoherent":8130,"Ġtangential":8131,"Ġforth":8132,"Ġsaf":8133,"Ġmultic":8134,"Ġfire":8135,"Ġatmospheres":8136,"Ġtranslational":8137,"Ġstanding":8138,"ocentric":8139,"Ġsep":8140,"Ġabsorber":8141,"123":8142,"Ġequilib":8143,"Ġbump":8144,"Ġlind":8145,"head":8146,"Ġparall":8147,"Ġmonol":8148,"Ġruled":8149,"Ġfluctuating":8150,"ortions":8151,"oscopic":8152,"ury":8153,"Ġoutward":8154,"Ġresource":8155,"Ġdramatically":8156,"Ġsett":8157,"Ġgase":8158,"ativistic":8159,"Ġgordon":8160,"zo":8161,"Ġdivision":8162,"Ġdivergences":8163,"gg":8164,"itation":8165,"105":8166,"Ġdoi":8167,"Ġfed":8168,"Ġencoded":8169,"Ġellipso":8170,"term":8171,"Ġbroader":8172,"Ġ160":8173,"Ġcollim":8174,"Ġnr":8175,"aa":8176,"Ġguarantees":8177,"escence":8178,"Ġunperturbed":8179,"Ġwolf":8180,"Ġgibbs":8181,"Ġevaporation":8182,"Ġplayer":8183,"Ġdecline":8184,"Ġinstit":8185,"Ġbracket":8186,"Ġnormally":8187,"Ġglobally":8188,"Ġpseudoscalar":8189,"imination":8190,"Ġgaseous":8191,"Ġpah":8192,"Ġ106":8193,"Ġpreserve":8194,"Ġmodulated":8195,"kins":8196,"Ġpacking":8197,"Ġadequate":8198,"Ġgri":8199,"Ġkinematical":8200,"Ġanc":8201,"Ġbf":8202,"Ġrear":8203,"osc":8204,"Ġapjs":8205,"Ġ1973":8206,"Ġcentr":8207,"ega":8208,"Ġincreasingly":8209,"Ġmask":8210,"Ġaust":8211,"Ġellipticals":8212,"Ġlt":8213,"]:":8214,"Ġcompares":8215,"Ġaxiom":8216,"Ġcavities":8217,"Ġarrangement":8218,"Ġiff":8219,"Ġphotonic":8220,"Ġshallow":8221,"Ġincorporate":8222,"Ġprobed":8223,"Ġcentrality":8224,"Ġneutralino":8225,"Ġpreferen":8226,"Ġbp":8227,"gue":8228,"Ġjacobi":8229,"Ġhv":8230,"Ġmicrolens":8231,"Ġfoli":8232,"Ġinstanton":8233,"Ġwaveguide":8234,"((":8235,"actors":8236,"Ġeigenvector":8237,"Ġirs":8238,"bar":8239,"Ġbalmer":8240,"Ġshared":8241,"Ġnorthern":8242,"Ġfreely":8243,"oped":8244,"Ġdisag":8245,"Ġrod":8246,"Ġkernels":8247,"relativistic":8248,"attering":8249,"Ġincidence":8250,"Ġsubc":8251,"Ġincorporated":8252,"Ġobscured":8253,"Ġlinewidth":8254,"Ġarp":8255,"Ġasymptotics":8256,"tified":8257,"sitively":8258,"Ġant":8259,"Ġnodal":8260,"Ġrobustness":8261,"Ġdl":8262,"Ġmad":8263,"mev":8264,"Ġdiagonalization":8265,"Ġvice":8266,"Ġchemistry":8267,"Ġhl":8268,"Ġlev":8269,"Ġlikewise":8270,"Ġheuristic":8271,"Ġpsr":8272,"Ġft":8273,"bro":8274,"Ġmuons":8275,"Ġcouples":8276,"pic":8277,"Ġdiamond":8278,"econd":8279,"Ġrecurrence":8280,"Ġtilt":8281,"Ġversa":8282,"feld":8283,"Ġrabi":8284,"Ġconcerns":8285,"ifolds":8286,"Ġabsorbers":8287,"Ġoutcomes":8288,"Ġnematic":8289,"Ġ118":8290,"Ġlut":8291,"Ġborder":8292,"Ġcust":8293,"Ġhypersurface":8294,"Ġlda":8295,"Ġyan":8296,"Ġub":8297,"Ġhn":8298,"Ġrecursion":8299,"ifting":8300,"Ġ140":8301,"roduction":8302,"Ġku":8303,"Ġalt":8304,"Ġjune":8305,"ensurate":8306,"Ġscalars":8307,"Ġimm":8308,"Ġsurvival":8309,"Ġwilli":8310,"Ġbirth":8311,"Ġcontinued":8312,"ense":8313,"Ġdistinction":8314,"Ġfile":8315,"Ġlig":8316,"Ġadapt":8317,"Ġ[-":8318,"channel":8319,"Ġpackets":8320,"olarized":8321,"Ġshot":8322,"Ġfif":8323,"Ġcomprehensive":8324,"Ġnav":8325,"Ġinvertible":8326,"Ġ102":8327,"Ġinstances":8328,"alth":8329,"erer":8330,"Ġhemis":8331,"Ġprobable":8332,"Ġzn":8333,"Ġfolding":8334,"Ġnano":8335,"Ġfrozen":8336,"Ġrus":8337,"Ġbunch":8338,"Ġreleased":8339,"Ġbrems":8340,"Ġbab":8341,"Ġstay":8342,"Ġaid":8343,"energy":8344,"Ġmrk":8345,"Ġsupporting":8346,"Ġoverestim":8347,"Ġvisibility":8348,"physical":8349,"Ġtraced":8350,"Ġinference":8351,"Ġog":8352,"Ġfunctionals":8353,"Ġcg":8354,"Ġwells":8355,"Ġprogramming":8356,"Ġricci":8357,"Ġpredominantly":8358,"Ġlandsc":8359,"Ġrescaling":8360,"Ġintersects":8361,"Ġcreating":8362,"Ġinertia":8363,"tio":8364,"ented":8365,"Ġrecovery":8366,"kel":8367,"Ġenvironmental":8368,"Ġbag":8369,"Ġcern":8370,"].[":8371,"Ġproceeds":8372,"1212":8373,"Ġvirgo":8374,"Ġtro":8375,"Ġlaunch":8376,"Ġionic":8377,"Ġmagneto":8378,"Ġmild":8379,"Ġstatements":8380,"Ġmism":8381,"Ġfulfilled":8382,"rb":8383,"Ġcopy":8384,"Ġcreates":8385,"tw":8386,"Ġflight":8387,"eni":8388,"Ġcouncil":8389,"Ġcarries":8390,"Ġlived":8391,"Ġrpa":8392,"Ġspots":8393,"Ġplac":8394,"Ġconcur":8395,"Ġxy":8396,"Ġsupposed":8397,"Ġlift":8398,"Ġtrivially":8399,"Ġrelic":8400,"branes":8401,"Ġoriginating":8402,"Ġinverted":8403,"Ġmerely":8404,"Ġwes":8405,"Ġavoided":8406,"elt":8407,"Ġnaive":8408,"Ġdifferently":8409,"Ġsqueezed":8410,"Ġstock":8411,"nm":8412,"Ġlightcur":8413,"Ġobeys":8414,"Ġnoticed":8415,"Ġpoorly":8416,"Ġeclipse":8417,"Ġtevatron":8418,"mes":8419,"Ġhod":8420,"Ġresulted":8421,"gravity":8422,"Ġchamber":8423,"Ġeduc":8424,"Ġhyst":8425,"Ġnucleosyn":8426,"Ġdeterminations":8427,"Ġhuge":8428,"Ġjupiter":8429,"icated":8430,"Ġspreading":8431,"Ġnanop":8432,"Ġroberts":8433,"thm":8434,"Ġwireless":8435,"Ġchip":8436,"Ġarcmin":8437,"Ġmarginally":8438,"Ġfamiliar":8439,"icz":8440,"Ġsubtracting":8441,"Ġedited":8442,"mitt":8443,"Ġsubdi":8444,"Ġacs":8445,"Ġbremsstrahlung":8446,"Ġtheoretic":8447,"eterm":8448,"Ġdeuteron":8449,"Ġprotot":8450,"Ġaxion":8451,"Ġsubscript":8452,"120":8453,"Ġcme":8454,"Ġsoph":8455,"Ġleak":8456,"Ġpersistent":8457,"Ġkp":8458,"cycle":8459,"Ġexclusive":8460,"Ġhaus":8461,"bu":8462,"qm":8463,"Ġtent":8464,"Ġoverview":8465,"ghz":8466,"kk":8467,"Ġthesis":8468,"Ġrelates":8469,"Ġ130":8470,"Ġmonotone":8471,"Ġsav":8472,"parti":8473,"Ġnh":8474,"Ġresumm":8475,"Ġmodelled":8476,"Ġunclear":8477,"Ġjohnson":8478,"Ġsettings":8479,"normal":8480,"Ġyou":8481,"Ġexceptional":8482,"han":8483,"ensus":8484,"Ġstripe":8485,"oder":8486,"Ġencoding":8487,"Ġdusty":8488,"Ġtl":8489,"ders":8490,"Ġwalks":8491,"Ġreviews":8492,"Ġhin":8493,"Ġnine":8494,"loop":8495,"oftwo":8496,"Ġsan":8497,"const":8498,"dor":8499,"',":8500,"Ġneurons":8501,"harmonic":8502,"Ġdimensionality":8503,"Ġinspired":8504,"Ġexcluding":8505,"Ġexpects":8506,"Ġphi":8507,"Ġfort":8508,"Ġgem":8509,"Ġsuggestions":8510,"Ġusa":8511,"Ġrotated":8512,"mu":8513,"Ġtemplates":8514,"mma":8515,"Ġparallax":8516,"nl":8517,"Ġassembly":8518,"ivariant":8519,"Ġwavefunctions":8520,"Ġimplicitly":8521,"isc":8522,"Ġmismatch":8523,"rupt":8524,"Ġpolarizations":8525,"Ġbigger":8526,"ysh":8527,"Ġprotocols":8528,"oz":8529,"Ġnat":8530,"Ġmoun":8531,"Ġdilute":8532,"020":8533,"pdf":8534,"Ġpossesses":8535,"onym":8536,"Ġphenomenology":8537,"Ġij":8538,"Ġreasoning":8539,"Ġprivate":8540,"Ġerup":8541,"Ġimproves":8542,"Ġdivisor":8543,"Ġfren":8544,"Ġdepths":8545,"pted":8546,"Ġbounce":8547,"Ġmanag":8548,"Ġmutually":8549,"rist":8550,"Ġrd":8551,"Ġendpoints":8552,"istinguish":8553,"016":8554,"oming":8555,"Ġxu":8556,"Ġphysica":8557,"Ġsubm":8558,"Ġsequential":8559,"Ġaccompl":8560,"Ġperforms":8561,"Ġphotoionization":8562,"lev":8563,"worth":8564,"Ġok":8565,"Ġmit":8566,"Ġputting":8567,"Ġunbounded":8568,"Ġdecoupled":8569,"Ġcentroid":8570,"Ġhexagonal":8571,"Ġdisloc":8572,"Ġaugment":8573,"Ġsecurity":8574,"Ġtopologically":8575,"Ġplaces":8576,"Ġjuly":8577,"ampl":8578,"Ġcft":8579,"Ġletting":8580,"astro":8581,"Ġselecting":8582,"Ġhistories":8583,"Ġtoric":8584,"321":8585,"Ġcyclot":8586,"Ġexchang":8587,"Ġcellular":8588,"Ġsublattice":8589,"Ġregge":8590,"Ġhistograms":8591,"Ġdisplacements":8592,"bel":8593,"104":8594,"Ġstag":8595,"Ġsuited":8596,"vive":8597,"irc":8598,"Ġzones":8599,"Ġgraded":8600,"Ġmelting":8601,"Ġplasmas":8602,"Ġconvert":8603,"Ġcyg":8604,"Ġlifetimes":8605,"Ġdn":8606,"Ġpressures":8607,"Ġanalysed":8608,"Ġig":8609,"ship":8610,"Ġstatus":8611,"025":8612,"Ġopin":8613,"Ġaccreted":8614,"Ġworm":8615,"Ġactivation":8616,"Ġemissivity":8617,"gel":8618,"Ġgenu":8619,"Ġrelationships":8620,"physrevb":8621,"Ġepis":8622,"Ġtach":8623,"Ġtubes":8624,"Ġdiscover":8625,"Ġsatisfactory":8626,"Ġfewer":8627,"113":8628,"Ġforced":8629,"Ġunification":8630,"Ġsolvable":8631,"Ġwavenumber":8632,"eda":8633,"Ġgoldstone":8634,"ardi":8635,"Ġwavelet":8636,"Ġundergoes":8637,"Ġdifferentiable":8638,"etheless":8639,"Ġdramatic":8640,"pson":8641,"Ġdeposition":8642,"Ġmagnification":8643,"Ġkaon":8644,"Ġtrade":8645,"Ġpuzz":8646,"Ġmiller":8647,"Ġexit":8648,"Ġquasiparticles":8649,"Ġnonetheless":8650,"factor":8651,"Ġbus":8652,"Ġdonor":8653,"Ġrefinement":8654,"oulos":8655,"Ġconcrete":8656,"Ġquiet":8657,"iment":8658,"Ġmagnetized":8659,"Ġever":8660,"Ġdepar":8661,"biased":8662,"Ġkam":8663,"Ġhab":8664,"nikov":8665,"Ġ205":8666,"Ġmethodology":8667,"Ġhosp":8668,"Ġcomputationally":8669,"Ġmerge":8670,"Ġparameterization":8671,"aux":8672,"Ġ1972":8673,"phase":8674,"Ġwood":8675,"Ġchina":8676,"Ġservice":8677,"Ġbud":8678,"Ġpull":8679,"Ġheavily":8680,"Ġantiquark":8681,"Ġsophistic":8682,"Ġdiscontinuous":8683,"Ġimprovements":8684,"Ġstructured":8685,"Ġvorticity":8686,"empty":8687,"Ġgon":8688,"ishing":8689,"amoto":8690,"Ġenl":8691,"xs":8692,"peter":8693,"Ġsuffer":8694,"Ġug":8695,"utrin":8696,"Ġinvestigating":8697,"Ġcohen":8698,"Ġanalogously":8699,"acies":8700,"component":8701,"Ġenumer":8702,"Ġwinding":8703,"ometers":8704,"rec":8705,"Ġdg":8706,"Ġdroplet":8707,"Ġclarify":8708,"Ġdynamo":8709,"Ġdefault":8710,"Ġbraid":8711,"Ġteam":8712,"olding":8713,"Ġbundles":8714,"Ġincompressible":8715,"Ġquenching":8716,"Ġpenal":8717,"Ġpipeline":8718,"Ġisotopic":8719,"Ġserves":8720,"Ġfalling":8721,"Ġmicrolensing":8722,"Ġvolumes":8723,"Ġhosts":8724,"Ġrefined":8725,"Ġsurvive":8726,"Ġeliminated":8727,"Ġverlag":8728,"Ġexclusion":8729,"Ġhypotheses":8730,"Ġindistinguish":8731,"Ġinvok":8732,"Ġsquark":8733,"Ġparadigm":8734,"103":8735,"Ġbilayer":8736,"Ġinfluenced":8737,"otes":8738,"ulti":8739,"Ġhawking":8740,"inz":8741,"Ġsusp":8742,"van":8743,"Ġreionization":8744,"Ġenab":8745,"Ġcommute":8746,"Ġapplicability":8747,"tes":8748,"Ġconvergent":8749,"Ġheights":8750,"Ġpv":8751,"Ġuh":8752,"Ġpunct":8753,"Ġcrow":8754,"pless":8755,"Ġtriangulation":8756,"Ġcausing":8757,"sol":8758,"xb":8759,"Ġballistic":8760,"Ġdevelops":8761,"Ġelectrodes":8762,"Ġhat":8763,"Ġsimplifies":8764,"Ġsolvent":8765,"Ġdressed":8766,"Ġdiversity":8767,"rep":8768,"Ġfabric":8769,"Ġneu":8770,"eval":8771,"Ġsalpeter":8772,"Ġinjective":8773,"Ġcoincident":8774,"Ġcommutation":8775,"eties":8776,"ulating":8777,"Ġhydrodynamical":8778,"sil":8779,"Ġhetero":8780,"Ġintrinsically":8781,"igroup":8782,"Ġdecade":8783,"122":8784,"Ġopposed":8785,"Ġleptonic":8786,"Ġgenerically":8787,"Ġambiguity":8788,"Ġassertion":8789,"oss":8790,"Ġbelt":8791,"Ġfluorescence":8792,"Ġadsorption":8793,"bas":8794,"Ġvariant":8795,"rell":8796,"mag":8797,"Ġliou":8798,"Ġdistortions":8799,"Ġ128":8800,"lepton":8801,"Ġbj":8802,"Ġpublication":8803,"Ġpom":8804,"Ġht":8805,"ado":8806,"Ġmobile":8807,"Ġwires":8808,"Ġrub":8809,"Ġsummed":8810,"Ġhern":8811,"Ġplanetes":8812,"Ġdissociation":8813,"Ġinflat":8814,"Ġtoler":8815,"023":8816,"Ġmills":8817,"Ġdocum":8818,"ccc":8819,"Ġeso":8820,"pd":8821,"Ġnucleosynthesis":8822,"Ġlr":8823,"Ġenfor":8824,"Ġpolytope":8825,"iguing":8826,"Ġtasks":8827,"ei":8828,"Ġintriguing":8829,"Ġsharing":8830,"periodic":8831,"Ġcox":8832,"Ġellipse":8833,"stand":8834,"ensen":8835,"Ġpdfs":8836,"dynamics":8837,"Ġallocation":8838,"oliubov":8839,"Ġcri":8840,"Ġexploit":8841,"Ġmultiv":8842,"Ġ014":8843,"Ġwit":8844,"Ġmacro":8845,"Ġparagraph":8846,"Ġpark":8847,"Ġreliability":8848,"Ġmonod":8849,"Ġreversed":8850,"Ġautomorphism":8851,"Ġreading":8852,"Ġinflow":8853,"Ġergs":8854,"Ġalign":8855,"Ġkeck":8856,"Ġresembles":8857,"mo":8858,"Ġreplacement":8859,"orbit":8860,"Ġsecular":8861,"Ġsupergravity":8862,"Ġconfining":8863,"Ġinitio":8864,"Ġbogoliubov":8865,"Ġnonperturb":8866,"Ġhamilton":8867,"Ġthous":8868,"atum":8869,"Ġviable":8870,"port":8871,"Ġcooperative":8872,"Ġsort":8873,"Ġholographic":8874,"Ġplayed":8875,"ameters":8876,"Ġberg":8877,"Ġcer":8878,"Ġunbiased":8879,"Ġreports":8880,"Ġinflaton":8881,"Ġmessages":8882,"Ġinduc":8883,"Ġencounters":8884,"500":8885,"Ġgf":8886,"rian":8887,"Ġgaas":8888,"Ġcatalogs":8889,"ffer":8890,"quis":8891,"Ġthermally":8892,"Ġquartic":8893,"Ġreciprocal":8894,"Ġgene":8895,"pin":8896,"Ġextrapolated":8897,"ellan":8898,"Ġoptimum":8899,"Ġopportunity":8900,"hole":8901,"....":8902,"rogen":8903,"Ġbreakdown":8904,"Ġglue":8905,"Ġgil":8906,"Ġprocessed":8907,"Ġharder":8908,"Ġrecursive":8909,"Ġauto":8910,"atom":8911,"uits":8912,"usively":8913,"jl":8914,"Ġrt":8915,"Ġtransparent":8916,"dex":8917,"Ġdecl":8918,"etism":8919,"Ġquint":8920,"Ġthorough":8921,"017":8922,"Ġreconstruct":8923,"Ġdiffeomorphism":8924,"Ġpsi":8925,"Ġproteins":8926,"Ġspaced":8927,"Ġrecalling":8928,"Ġbonn":8929,"Ġformulate":8930,"mmetri":8931,"uer":8932,"Ġhospit":8933,"Ġwrong":8934,"Ġlobes":8935,"Ġabrupt":8936,"Ġstopping":8937,"Ġenrichment":8938,"mog":8939,"fc":8940,"Ġfc":8941,"yson":8942,"Ġlogical":8943,"izability":8944,"Ġmars":8945,"Ġchild":8946,"Ġworse":8947,"Ġbiases":8948,"Ġappropriately":8949,"Ġart":8950,"trans":8951,"Ġdress":8952,"Ġanisotrop":8953,"Ġutility":8954,"Ġryd":8955,"Ġfading":8956,"Ġsar":8957,"Ġcones":8958,"Ġongoing":8959,"Ġpent":8960,"bris":8961,"ool":8962,"Ġemissions":8963,"Ġsubstitute":8964,"Ġxx":8965,"Ġ1970":8966,"Ġeps":8967,"Ġdedicated":8968,"Ġtalk":8969,"Ġantennas":8970,"Ġpolyhed":8971,"abor":8972,"Ġcompeting":8973,"Ġstarbursts":8974,"Ġguaranteed":8975,"scale":8976,"Ġreceive":8977,"Ġsized":8978,"Ġbrand":8979,"Ġseman":8980,"Ġster":8981,"Ġsubgroups":8982,"Ġpap":8983,"Ġbic":8984,"posi":8985,"Ġplasmon":8986,"sey":8987,"oan":8988,"can":8989,"Ġsolves":8990,"Ġlibrary":8991,"Ġcooled":8992,"Ġdiscrepancies":8993,"Ġansw":8994,"Ġweinberg":8995,"Ġoffsets":8996,"022":8997,"Ġsept":8998,"Ġcolliding":8999,"mb":9000,"Ġdeflection":9001,"Ġrising":9002,"Ġsurrounded":9003,"tier":9004,"Ġmultipole":9005,"115":9006,"ager":9007,"ref":9008,"clic":9009,"Ġrelating":9010,"Ġward":9011,"Ġjr":9012,"Ġincrement":9013,"Ġellipticity":9014,"Ġkal":9015,"Ġejection":9016,"Ġmj":9017,"Ġdebris":9018,"Ġjacobian":9019,"Ġsophisticated":9020,"Ġpeters":9021,"thing":9022,"Ġbecoming":9023,"Ġunphysical":9024,"Ġexamining":9025,"Ġweighting":9026,"Ġconflic":9027,"Ġbilinear":9028,"Ġdavid":9029,"illa":9030,"Ġdun":9031,"Ġdimin":9032,"024":9033,"Ġheld":9034,"Ġcharacterizes":9035,"Ġremin":9036,"Ġhospitality":9037,"ople":9038,"Ġdeveloping":9039,"Ġmagellan":9040,"mode":9041,"inson":9042,"expected":9043,"018":9044,"aj":9045,"Ġeclips":9046,"Ġcircuits":9047,"Ġln":9048,"ogeneities":9049,"udes":9050,"Ġyb":9051,"Ġadvances":9052,"Ġtoy":9053,"Ġprojecti":9054,"Ġnitrogen":9055,"Ġmesoscopic":9056,"Ġplayers":9057,"Ġkolmog":9058,"Ġendpoint":9059,"Ġsuz":9060,"gathered":9061,"Ġnice":9062,"340":9063,"Ġsq":9064,"Ġdominance":9065,"Ġger":9066,"Ġmaximize":9067,"iest":9068,"Ġsurely":9069,"Ġclassify":9070,"Ġretarded":9071,"Ġfellowship":9072,"beit":9073,"Ġstringent":9074,"fir":9075,"Ġfuv":9076,"Ġdal":9077,"Ġshiel":9078,"aten":9079,"Ġ225":9080,"Ġgapless":9081,"Ġ124":9082,"Ġunable":9083,"Ġsegreg":9084,"Ġmand":9085,"hom":9086,"Ġ210":9087,"Ġthroughput":9088,"160":9089,"Ġsnrs":9090,"Ġintuitive":9091,"Ġtouch":9092,"Ġimpul":9093,"Ġnmr":9094,"Ġobs":9095,"Ġmultiply":9096,"Ġera":9097,"Ġpolicy":9098,"Ġdisconn":9099,"Ġanonym":9100,"Ġbang":9101,"Ġscaledwidth":9102,"Ġanomalies":9103,"Ġincorrect":9104,"Ġdeparture":9105,"Ġapril":9106,"Ġquery":9107,"vier":9108,"Ġsinus":9109,"eresis":9110,"Ġ-.":9111,"Ġ122":9112,"Ġche":9113,"Ġdefici":9114,"Ġhybridization":9115,"Ġresultant":9116,"Ġoxford":9117,"dc":9118,"Ġelongated":9119,"uto":9120,"irgs":9121,"Ġfavored":9122,"Ġbijection":9123,"ello":9124,"Ġkg":9125,"Ġconducting":9126,"Ġlinearity":9127,"Ġconfusion":9128,"Ġinsights":9129,"mp":9130,"Ġphotod":9131,"Ġ220":9132,"raft":9133,"umb":9134,"Ġcorrelators":9135,"Ġbenef":9136,"Ġgun":9137,"Ġtexture":9138,"Ġgrown":9139,"Ġhelical":9140,"Ġunexpected":9141,"kt":9142,"Ġtranslates":9143,"Ġacquired":9144,"Ġresolutions":9145,"kpc":9146,"lb":9147,"path":9148,"\",,":9149,"Ġnonperturbative":9150,"Ġconjugation":9151,"Ġrash":9152,"Ġwet":9153,"Ġsmear":9154,"Ġkolmogorov":9155,"Ġpolymers":9156,"Ġworst":9157,"Ġvapor":9158,"Ġoutbursts":9159,"Ġautocorrelation":9160,"Ġstiffness":9161,"Ġreadout":9162,"ountered":9163,"Ġintegrations":9164,"insky":9165,"Ġsymposi":9166,"Ġcalculus":9167,"do":9168,"Ġencountered":9169,"finite":9170,"Ġhysteresis":9171,"ancing":9172,"Ġshed":9173,"Ġfiles":9174,"Ġuniv":9175,"Ġcircumst":9176,"Ġlimitation":9177,"Ġastrometric":9178,"Ġarithm":9179,"Ġalbeit":9180,"Ġschwinger":9181,"net":9182,"1016":9183,"ico":9184,"150":9185,"Ġanalyse":9186,"umulation":9187,"cha":9188,"max":9189,"Ġji":9190,"Ġuncon":9191,"Ġcyclotron":9192,"Ġdispersive":9193,"Ġcardin":9194,"Ġrein":9195,"ecker":9196,"Ġdiffractive":9197,"Ġresidue":9198,"Ġud":9199,"Ġbipolar":9200,"Ġanisotropies":9201,"Ġoutputs":9202,"Ġshowers":9203,"Ġaccommod":9204,"fre":9205,"Ġcompletion":9206,"Ġkhz":9207,"Ġballs":9208,"ragg":9209,"Ġeducation":9210,"Ġenvelop":9211,"iley":9212,"Ġindistinguishable":9213,"Ġobservers":9214,"Ġfavorable":9215,"Ġstic":9216,"Ġresi":9217,"Ġlis":9218,"Ġsearching":9219,"Ġcommunications":9220,"Ġeye":9221,"poly":9222,"len":9223,"ething":9224,"Ġsynthes":9225,"Ġjord":9226,"sb":9227,"Ġisot":9228,"Ġdelayed":9229,"Ġstrand":9230,"Ġnls":9231,"obs":9232,"Ġescap":9233,"Ġkas":9234,"Ġscanning":9235,"Ġrn":9236,"Ġcw":9237,"raf":9238,"iling":9239,"oot":9240,"py":9241,"Ġspacetimes":9242,"Ġdelays":9243,"Ġexceeding":9244,"class":9245,"adic":9246,"star":9247,"Ġlith":9248,"Ġeh":9249,"Ġsomething":9250,"Ġpatches":9251,"Ġgeometrically":9252,"Ġviewing":9253,"Ġhydrostatic":9254,"Ġemphasized":9255,"Ġaccumulation":9256,"mention":9257,"Ġferr":9258,"Ġorbifold":9259,"Ġtells":9260,"inn":9261,"Ġlenses":9262,"norm":9263,"Ġintersections":9264,"Ġyounger":9265,"Ġlimb":9266,"Ġdevelopments":9267,"Ġrl":9268,"Ġheterogeneous":9269,"Ġinnermost":9270,"Ġbz":9271,"Ġavoiding":9272,"Ġarchive":9273,"188":9274,"030":9275,"Ġplastic":9276,"Ġsemigroup":9277,"Ġlandscape":9278,"Ġmanifes":9279,"Ġgames":9280,"Ġstays":9281,"yne":9282,"jk":9283,"Ġtiny":9284,"Ġpresently":9285,"Ġmonoch":9286,"Ġshocked":9287,"Ġwilliams":9288,"mentioned":9289,"151":9290,"Ġspike":9291,"Ġbecame":9292,"Ġingredients":9293,"Ġclarity":9294,"Ġfifth":9295,"inski":9296,"Ġmorse":9297,"Ġmixtures":9298,"Ġprobing":9299,"Ġsided":9300,"Ġsubsystems":9301,"Ġposed":9302,"Ġdecompose":9303,"Ġran":9304,"modes":9305,"Ġalexander":9306,"zations":9307,"Ġrises":9308,"Ġkilling":9309,"Ġped":9310,"mic":9311,"atomic":9312,"iser":9313,"Ġvoid":9314,"Ġprojects":9315,"Ġloud":9316,"Ġslip":9317,"Ġfibre":9318,"Ġfranc":9319,"Ġdiagnostic":9320,"(,":9321,"utely":9322,"Ġdeposited":9323,"fi":9324,"Ġkron":9325,"Ġtheta":9326,"ripts":9327,"Ġellis":9328,"Ġzeroth":9329,"Ġdestruction":9330,"values":9331,"Ġdar":9332,"Ġsymposium":9333,"Ġqpo":9334,"Ġupward":9335,"Ġost":9336,"Ġcalif":9337,"[-":9338,"Ġflexible":9339,"Ġrp":9340,"Ġafore":9341,"Ġhuang":9342,"Ġsolids":9343,"Ġdilaton":9344,"wood":9345,"Ġcodimension":9346,"Ġinsu":9347,"Ġng":9348,"uni":9349,"Ġvolati":9350,"Ġunpolarized":9351,"iteness":9352,"Ġpeople":9353,"Ġjy":9354,"Ġefficiencies":9355,"Ġutilized":9356,"Ġphil":9357,"Ġrefractive":9358,"Ġmathematically":9359,"Ġmerid":9360,"Ġdsph":9361,"lets":9362,"Ġpayoff":9363,"iness":9364,"utt":9365,"Ġ121":9366,"Ġredund":9367,"commut":9368,"019":9369,"Ġviolated":9370,"Ġsimplex":9371,"Ġexplaining":9372,"--------":9373,"Ġmini":9374,"manifolds":9375,"Ġrecognized":9376,"109":9377,"Ġconstitutes":9378,"Ġ235":9379,"Ġsubd":9380,"Ġdistorted":9381,"Ġsheets":9382,"vis":9383,"Ġdownstream":9384,"Ġsplits":9385,"Ġjack":9386,"leton":9387,"Ġplat":9388,"Ġorthogon":9389,"Ġ-[":9390,"Ġtbl":9391,"Ġ135":9392,"tually":9393,"Ġfocal":9394,"Ġpenetration":9395,"Ġspontaneously":9396,"Ġcompressed":9397,"Ġbilli":9398,"Ġwhe":9399,"Ġdavis":9400,"sa":9401,"Ġspik":9402,"Ġaval":9403,"Ġreduc":9404,"Ġyes":9405,"iders":9406,"Ġdelocal":9407,"Ġ350":9408,"Ġzen":9409,"Ġcrossed":9410,"gru":9411,"Ġcardinality":9412,"Ġdeconf":9413,"Ġkms":9414,"Ġcow":9415,"Ġharris":9416,"Ġabsolutely":9417,"Ġinward":9418,"Ġtransversal":9419,"108":9420,"Ġrearrang":9421,"Ġgoverning":9422,"Ġstaggered":9423,"Ġridge":9424,"uda":9425,"Ġlatest":9426,"Ġencour":9427,"kar":9428,"heating":9429,"Ġrydberg":9430,"Ġrashba":9431,"Ġministry":9432,"Ġberry":9433,"Ġfuk":9434,"Ġfiltered":9435,"Ġbian":9436,"ucci":9437,"Ġpca":9438,"Ġcaptures":9439,"nov":9440,"spot":9441,"Ġpercentage":9442,"Ġvirtually":9443,"tos":9444,"bos":9445,"Ġabell":9446,"Ġcorr":9447,"Ġmoderately":9448,"Ġphotop":9449,"Ġconcludes":9450,"orn":9451,"Ġsweep":9452,"Ġreflections":9453,"Ġcontradicts":9454,"Ġaccumulated":9455,"aro":9456,"Ġdominating":9457,"Ġwindows":9458,"Ġimped":9459,"Ġoc":9460,"Ġsearched":9461,"Ġtimelike":9462,"spect":9463,"Ġbonding":9464,"021":9465,"Ġcrust":9466,"weight":9467,"Ġtreating":9468,"Ġadvance":9469,"rose":9470,"Ġinsuffici":9471,"Ġliquids":9472,"Ġexhaus":9473,"Ġchirality":9474,"Ġameric":9475,"Ġacademic":9476,"Ġsimplification":9477,"Ġhardly":9478,"main":9479,"Ġarithmetic":9480,"Ġanonymous":9481,"Ġmoore":9482,"Ġingredient":9483,"Ġsant":9484,"quette":9485,"Ġchrist":9486,"Ġtemp":9487,"075":9488,"Ġrevers":9489,"Ġzw":9490,"Ġwing":9491,"vation":9492,"];":9493,"Ġvast":9494,"Ġwitten":9495,"Ġparis":9496,"Ġsilicate":9497,"Ġmosa":9498,"Ġwimp":9499,"Ġkel":9500,"Ġnarrower":9501,"hu":9502,"Ġtraveling":9503,"Ġmen":9504,"enberg":9505,"Ġsak":9506,"Ġaugust":9507,"Ġalphab":9508,"oclin":9509,"orgabs":9510,"Ġreviewed":9511,"Ġcuprates":9512,"enius":9513,"Ġmagnon":9514,"240":9515,"Ġtrop":9516,"Ġpopulated":9517,"Ġgenuine":9518,"asure":9519,"Ġbn":9520,"Ġarchitecture":9521,"Ġyielded":9522,"entr":9523,"Ġnotably":9524,"Ġroutine":9525,"Ġpolygon":9526,"Ġdeviate":9527,"Ġmillion":9528,"Ġferro":9529,"Ġfem":9530,"Ġeb":9531,"galactic":9532,"Ġsloan":9533,"titude":9534,"Ġelectrode":9535,"Ġjordan":9536,"appro":9537,"Ġultrac":9538,"Ġpat":9539,"Ġavalanch":9540,"Ġasca":9541,"icate":9542,"iger":9543,"Ġcollect":9544,"Ġai":9545,"amura":9546,"olis":9547,"Ġdescriptions":9548,"Ġfacility":9549,"Ġnfw":9550,"Ġ....":9551,"Ġaforementioned":9552,"Ġexploiting":9553,"eqn":9554,"Ġliouville":9555,"Ġfib":9556,"Ġcole":9557,"akes":9558,"Ġlvy":9559,"Ġhull":9560,"Ġlecture":9561,"isco":9562,"Ġstretching":9563,"Ġconcave":9564,"),(":9565,"Ġdiscussing":9566,"Ġattained":9567,"Ġ127":9568,"ults":9569,"Ġfortun":9570,"gener":9571,"ornia":9572,"Ġquantified":9573,"Ġzig":9574,"Ġindividually":9575,"Ġsine":9576,"ught":9577,"Ġveh":9578,"tis":9579,"Ġstan":9580,"Ġattracted":9581,"Ġdas":9582,"Ġnebular":9583,"Ġgt":9584,"num":9585,"Ġbulges":9586,"fa":9587,"Ġpulsed":9588,"Ġkil":9589,"ivity":9590,"Ġtracer":9591,"Ġirradiation":9592,"fm":9593,"Ġhelm":9594,"ulsion":9595,"Ġsustain":9596,"yama":9597,"js":9598,"reev":9599,"Ġsis":9600,"Ġgrids":9601,"rc":9602,"fact":9603,"Ġconnects":9604,"Ġthompson":9605,"Ġcalifornia":9606,"Ġ215":9607,"Ġexhibited":9608,"Ġdiquark":9609,"Ġlebes":9610,"Ġamorph":9611,"aker":9612,"yon":9613,"Ġsensing":9614,"Ġnebulae":9615,"Ġweiss":9616,"Ġmaintained":9617,"lug":9618,"erenkov":9619,"lemma":9620,"ester":9621,"Ġfring":9622,"anz":9623,"Ġinfluences":9624,"lov":9625,"Ġcollapsing":9626,"Ġstabilization":9627,"Ġprogres":9628,"Ġlap":9629,"Ġinac":9630,"tl":9631,"Ġsas":9632,"Ġnov":9633,"Ġsimilarities":9634,"Ġboot":9635,"Ġfitness":9636,"Ġsecure":9637,"Ġschedul":9638,"rrrr":9639,"ophys":9640,"377":9641,"033":9642,"Ġendow":9643,"Ġregul":9644,"Ġpitch":9645,"imals":9646,"Ġconjunction":9647,"Ġjcap":9648,"ateral":9649,"Ġcoord":9650,"Ġdifferentiation":9651,"Ġnoticeable":9652,"Ġchallenges":9653,"level":9654,"Ġlighter":9655,"Ġsupplementary":9656,"opoulos":9657,"Ġranged":9658,"Ġinvolution":9659,"Ġlebesgue":9660,"Ġlte":9661,"Ġcongru":9662,"ional":9663,"xp":9664,"Ġignoring":9665,"qc":9666,"Ġhyperplane":9667,"tinger":9668,"Ġdv":9669,"Ġpil":9670,"Ġnested":9671,"Ġlinking":9672,"235":9673,"sci":9674,"yan":9675,"Ġcontrolling":9676,"Ġgonz":9677,"reds":9678,"Ġpulsation":9679,"Ġredist":9680,"Ġmasers":9681,"Ġdependencies":9682,"Ġbhs":9683,"Ġmonths":9684,"dorff":9685,"Ġfunded":9686,"Ġpseudop":9687,"Ġtransf":9688,"Ġbenefit":9689,"Ġcorners":9690,"180":9691,"group":9692,"Ġverification":9693,"107":9694,"Ġattribute":9695,"Ġribbon":9696,"Ġwhit":9697,"Ġseparates":9698,"Ġsink":9699,"Ġdiverge":9700,"Ġcommutes":9701,"Ġbss":9702,"Ġflavors":9703,"Ġbroadband":9704,"Ġcodew":9705,"Ġwings":9706,"mom":9707,"Ġthings":9708,"oclinic":9709,"neider":9710,"Ġlatit":9711,"Ġconserving":9712,"Ġhone":9713,"Ġny":9714,"Ġcorrecting":9715,"Ġfd":9716,"Ġconstraining":9717,"Ġnanopar":9718,"Ġplaquette":9719,"Ġdisagre":9720,"Ġnonrelativistic":9721,"Ġbinomial":9722,"Ġshifting":9723,"Ġmarks":9724,"336":9725,"Ġgapped":9726,"cond":9727,"eto":9728,"Ġexhibiting":9729,"Ġinhomogeneities":9730,"Ġsubsequence":9731,"Ġconstructions":9732,"Ġdai":9733,"eton":9734,"Ġsays":9735,"yle":9736,"Ġkram":9737,"Ġindicative":9738,"Ġpolarisation":9739,"035":9740,"Ġmovement":9741,"Ġupstream":9742,"Ġmorphologies":9743,"Ġdependences":9744,"Ġpne":9745,"ibly":9746,"ae":9747,"Ġswitched":9748,"Ġrecomm":9749,"Ġrxte":9750,"Ġbandpass":9751,"Ġara":9752,"Ġtracing":9753,"128":9754,"Ġmv":9755,"Ġboard":9756,"Ġdras":9757,"Ġorganization":9758,"026":9759,"Ġimproving":9760,"cast":9761,"Ġmoved":9762,"Ġsio":9763,"Ġsuperimp":9764,"Ġrotate":9765,"Ġdrives":9766,"Ġhemisphere":9767,"Ġdyson":9768,"Ġaccelerating":9769,"Ġblazars":9770,"Ġhundreds":9771,"Ġvarieties":9772,"Ġ1969":9773,"Ġtraps":9774,"Ġstacking":9775,"Ġdead":9776,"Ġstark":9777,"Ġmagic":9778,"Ġgir":9779,"Ġfriedmann":9780,"Ġislands":9781,"Ġclockwise":9782,"Ġelabor":9783,"etz":9784,"oured":9785,"Ġciv":9786,"imoto":9787,"140":9788,"Ġsends":9789,"Ġkau":9790,"tially":9791,"Ġintermitt":9792,"ucle":9793,"Ġrandomness":9794,"300":9795,"Ġirresp":9796,"Ġstabilized":9797,"oves":9798,"using":9799,"Ġmirrors":9800,"Ġwitness":9801,"Ġboole":9802,"Ġdisruption":9803,"bye":9804,"Ġspacec":9805,"kp":9806,"Ġmicroscop":9807,"mos":9808,"Ġamorphous":9809,"Ġmagellanic":9810,"dv":9811,"forth":9812,"Ġrigidity":9813,"Ġclassically":9814,"Ġnumerator":9815,"Ġdrastically":9816,"Ġbps":9817,"Ġcoloring":9818,"Ġ325":9819,"Ġcontras":9820,"Ġradially":9821,"Ġvoltages":9822,"Ġecho":9823,"Ġarranged":9824,"Ġbrid":9825,"xbs":9826,"Ġopens":9827,"db":9828,"Ġenclosed":9829,"Ġbt":9830,"Ġblr":9831,"Ġinsufficient":9832,"Ġaffecting":9833,"Ġbinned":9834,");":9835,"Ġyellow":9836,"oke":9837,"Ġkaw":9838,"aday":9839,"Ġfabian":9840,"Ġhausdorff":9841,"onov":9842,"Ġdestroyed":9843,"Ġcrab":9844,"Ġandreev":9845,"Ġcdw":9846,"Ġluc":9847,"Ġprescribed":9848,"Ġcolliders":9849,"Ġwaiting":9850,"Ġtruly":9851,"Ġexerc":9852,"114":9853,"ober":9854,"Ġexploited":9855,"aved":9856,"Ġdub":9857,"Ġkhler":9858,"aren":9859,"Ġqgp":9860,"Ġroughness":9861,"tile":9862,"Ġtheor":9863,"pers":9864,"Ġdisconnected":9865,"Ġccccc":9866,"Ġpropagates":9867,"Ġpolaron":9868,"ald":9869,"Ġroute":9870,"vol":9871,"Ġlearn":9872,"Ġacquire":9873,"Ġhistor":9874,"Ġoperate":9875,"Ġpositivity":9876,"Ġreliably":9877,"Ġmonodrom":9878,"Ġzeta":9879,"Ġtilted":9880,"Ġbragg":9881,"Ġfrance":9882,"lectivity":9883,"tab":9884,"math":9885,"Ġnanow":9886,"var":9887,"Ġlegendre":9888,"Ġroy":9889,"Ġsolver":9890,"Ġmimic":9891,"Ġgovern":9892,"Ġlowering":9893,"Ġindexed":9894,"Ġrhs":9895,"Ġincorporating":9896,"Ġminimized":9897,"Ġnamed":9898,"Ġprefactor":9899,"cas":9900,"Ġcalorimeter":9901,"Ġdownward":9902,"Ġcosts":9903,"Ġprevents":9904,"Ġode":9905,"skii":9906,"Ġprecurs":9907,"Ġ[(":9908,"otti":9909,"Ġbootstra":9910,"Ġboolean":9911,"Ġbrough":9912,"Ġgenetic":9913,"Ġgrained":9914,"Ġpes":9915,"Ġplug":9916,"Ġmorphisms":9917,"ayan":9918,"Ġross":9919,"rov":9920,"ppings":9921,"Ġsps":9922,"Ġcompactness":9923,"Ġscreened":9924,"Ġhcn":9925,"Ġgj":9926,"rh":9927,"Ġsuppl":9928,"mpc":9929,"Ġappe":9930,"Ġexclusively":9931,"Ġexploration":9932,"Ġvev":9933,"Ġexplosions":9934,"Ġcoalescence":9935,"Ġdict":9936,"Ġgratefully":9937,"Ġfad":9938,"Ġjul":9939,"Ġpomeron":9940,"Ġmagnetosphere":9941,"Ġprojectile":9942,"Ġcoma":9943,"Ġinsertion":9944,"Ġstro":9945,"288":9946,"Ġtransc":9947,"Ġteleport":9948,"Ġrespons":9949,"nition":9950,"Ġtori":9951,"Ġinserted":9952,"Ġpier":9953,"Ġ126":9954,"Ġshu":9955,"Ġconsensus":9956,"str":9957,"bons":9958,"Ġ1971":9959,"Ġisometry":9960,"Ġspacecraft":9961,"gov":9962,"Ġaustral":9963,"Ġopinion":9964,"itaev":9965,"Ġscore":9966,"Ġsov":9967,"Ġreject":9968,"Ġgraphical":9969,"Ġhardness":9970,"Ġstrang":9971,"Ġconfirming":9972,"Ġschematically":9973,"Ġlifsh":9974,"Ġfacilities":9975,"Ġ223":9976,"entation":9977,"Ġcurie":9978,"Ġmeeting":9979,"Ġwl":9980,"ifier":9981,"Ġacknowledg":9982,"Ġachieves":9983,"Ġseek":9984,"Ġpreferentially":9985,"first":9986,"Ġwfpc":9987,"Ġdecide":9988,"Ġphotoproduction":9989,"vm":9990,"032":9991,"Ġlose":9992,"Ġlongitude":9993,"Ġenriched":9994,"Ġsupply":9995,"Ġintersecting":9996,"Ġmock":9997,"Ġaccelerator":9998,"Ġdise":9999,"Ġredder":10000,"283":10001,"Ġinterven":10002,"Ġmultivari":10003,"Ġbrought":10004,"Ġdropped":10005,"Ġfn":10006,"cht":10007,"illary":10008,"Ġsuble":10009,"Ġdipoles":10010,"lity":10011,"Ġrees":10012,"Ġspirit":10013,"Ġresponses":10014,"sum":10015,"!!!!":10016,"Ġrecognition":10017,"Ġjun":10018,"valent":10019,"Ġhorizons":10020,"Ġstreams":10021,"rick":10022,"Ġdmrg":10023,"Ġtp":10024,"Ġstacked":10025,"Ġadds":10026,"Ġinitiated":10027,"Ġqm":10028,"itable":10029,"Ġ213":10030,"Ġ209":10031,"Ġbluer":10032,"Ġrejected":10033,"Ġstretched":10034,"Ġlambda":10035,"lem":10036,"reads":10037,"Ġpseudog":10038,"imetric":10039,"Ġfaraday":10040,"Ġredshifted":10041,"modules":10042,"ivalent":10043,"Ġallen":10044,"Ġhelps":10045,"Ġnoncommut":10046,"Ġ133":10047,"Ġvide":10048,"027":10049,"ilinear":10050,"Ġnotions":10051,"Ġdirectional":10052,"Ġoccupy":10053,"Ġflash":10054,"dw":10055,"nett":10056,"Ġhipp":10057,"Ġdebye":10058,"Ġradiated":10059,"non":10060,"ito":10061,"Ġsharply":10062,"Ġschneider":10063,"Ġpurs":10064,"Ġremained":10065,"Ġjoining":10066,"Ġsubmill":10067,"aign":10068,"Ġtopics":10069,"Ġcooler":10070,"Ġdyn":10071,"Ġredef":10072,"Ġcharg":10073,"Ġhour":10074,"Ġbrings":10075,"Ġjeans":10076,"Ġsummarizes":10077,"rator":10078,"Ġbm":10079,"Ġisotopy":10080,"eh":10081,"ycomb":10082,"Ġgrass":10083,"Ġsystematics":10084,"Ġrooted":10085,"Ġroche":10086,"orption":10087,"Ġoctober":10088,"ela":10089,"Ġsimons":10090,"Ġdisent":10091,"Ġcapability":10092,"Ġimplication":10093,"Ġpyth":10094,"Ġfoliation":10095,"Ġsob":10096,"atus":10097,"Ġintuitively":10098,"uw":10099,"Ġoiii":10100,"Ġlasers":10101,"uki":10102,"words":10103,"Ġinhomogeneity":10104,"Ġraised":10105,"geometric":10106,"acl":10107,"Ġssc":10108,"Ġpersistence":10109,"Ġmoon":10110,"Ġsurger":10111,"Ġrestricting":10112,"Ġevidently":10113,"Ġtiling":10114,"aging":10115,"Ġ204":10116,"Ġmillimeter":10117,"acc":10118,"Ġoccas":10119,"qr":10120,"Ġexamination":10121,",\",":10122,"Ġpks":10123,"Ġsupersc":10124,"Ġcepheids":10125,"massive":10126,"edy":10127,"Ġindicators":10128,"Ġreplica":10129,"Ġcapacit":10130,"Ġlensed":10131,"Ġdeceleration":10132,"entist":10133,"Ġlifshitz":10134,"Ġfcc":10135,"Ġadvection":10136,"Ġcosine":10137,"Ġextracting":10138,"Ġhg":10139,"this":10140,"Ġhomeomorphism":10141,"roll":10142,"Ġmonolayer":10143,"ja":10144,"iable":10145,"Ġmonochromatic":10146,"restrial":10147,"Ġsubdiv":10148,"453":10149,"Ġfavour":10150,"Ġevans":10151,"cia":10152,"Ġ129":10153,"Ġnights":10154,"Ġfirm":10155,"Ġchecking":10156,"Ġdisplaced":10157,"Ġsmearing":10158,"Ġexpands":10159,"Ġkob":10160,"Ġimagine":10161,"Ġattempted":10162,"Ġmont":10163,"Ġgenerations":10164,"Ġannealing":10165,"Ġdq":10166,"Ġestablishing":10167,"Ġunaff":10168,"Ġorthogonality":10169,"Ġappar":10170,"124":10171,"Ġspars":10172,"thermal":10173,"Ġlll":10174,"Ġkeeps":10175,"Ġfano":10176,"Ġcasc":10177,"Ġmagnetically":10178,"lich":10179,"Ġpione":10180,"Ġ217":10181,"antom":10182,"Ġreceives":10183,"Ġseptember":10184,"ston":10185,"Ġfission":10186,"ipp":10187,"Ġfok":10188,"Ġ800":10189,"Ġprogramme":10190,"Ġgains":10191,"Ġjud":10192,"Ġepid":10193,"Ġoptimize":10194,"oys":10195,"Ġmips":10196,"Ġpowered":10197,"Ġdegra":10198,"Ġlsp":10199,"Ġobservationally":10200,"Ġvog":10201,"Ġamerican":10202,"Ġfrustrated":10203,"zzi":10204,"arged":10205,"holtz":10206,"Ġmonomers":10207,"Ġirrespective":10208,"Ġtried":10209,"Ġliving":10210,"Ġhyd":10211,"Ġeve":10212,"photon":10213,"Ġunaffected":10214,"Ġtheo":10215,"028":10216,"Ġdecember":10217,"Ġsuperpotential":10218,"regular":10219,"Ġsinusoidal":10220,"Ġzo":10221,"Ġluttinger":10222,"Ġexciting":10223,"Ġcriticality":10224,"Ġexoplan":10225,"Ġeigenfunction":10226,"Ġspinning":10227,"Ġperiodically":10228,"Ġexcitons":10229,"Ġvehic":10230,"spin":10231,"ivers":10232,"Ġtuc":10233,"Ġnovae":10234,"Ġfrustration":10235,"Ġantiferromagn":10236,"Ġfun":10237,"Ġnond":10238,"Ġdisagreement":10239,"Ġemitters":10240,"Ġpw":10241,"130":10242,"Ġqueue":10243,"Ġfam":10244,"Ġinsert":10245,"Ġsensors":10246,"med":10247,"Ġgpa":10248,"Ġcoordination":10249,"Ġjanuary":10250,"Ġreform":10251,"Ġsymmetri":10252,"zes":10253,"Ġses":10254,"Ġcooperation":10255,"Ġterminology":10256,"inf":10257,"Ġutilizing":10258,"Ġvacancy":10259,"Ġbluesh":10260,"Ġpurity":10261,"del":10262,"050":10263,"Ġfireball":10264,"Ġcot":10265,"Ġphantom":10266,"Ġundet":10267,"Ġhoneycomb":10268,"Ġdoublets":10269,"Ġorion":10270,"Ġmagnetism":10271,"Ġrepeti":10272,"rae":10273,"Ġlongest":10274,"uous":10275,"empl":10276,"034":10277,"Ġisoph":10278,"Ġmeanwhile":10279,"used":10280,"Ġhes":10281,"::":10282,"Ġvariants":10283,"Ġinstructive":10284,"Ġexposed":10285,"Ġfixes":10286,"Ġlayered":10287,"Ġ175":10288,"Ġws":10289,"Ġmutation":10290,"izers":10291,"acial":10292,"emp":10293,"Ġvalle":10294,"Ġequator":10295,"Ġempirically":10296,"tiveness":10297,"Ġregularized":10298,"Ġconjectured":10299,"Ġmus":10300,"Ġbid":10301,"Ġreproducing":10302,"Ġmonodromy":10303,"Ġoctet":10304,"connected":10305,"partite":10306,"Ġmh":10307,"Ġpositively":10308,"Ġthermalization":10309,"table":10310,"Ġbg":10311,"nik":10312,"Ġvlbi":10313,"Ġ214":10314,"Ġ137":10315,"Ġdelt":10316,"Ġdiscretized":10317,"Ġscreen":10318,"Ġhenceforth":10319,"Ġeuv":10320,"condition":10321,"Ġdeuter":10322,"Ġcompensated":10323,"Ġsubhal":10324,"Ġgravitationally":10325,"Ġsemiconductors":10326,"Ġreversible":10327,"Ġfeas":10328,"Ġmller":10329,"Ġwavevector":10330,"nf":10331,"Ġdich":10332,"Ġkt":10333,"Ġdeath":10334,"potent":10335,"Ġaccomplished":10336,"Ġphysi":10337,"ishes":10338,"Ġcampaign":10339,"Ġsfrs":10340,"ran":10341,"Ġfruit":10342,"critical":10343,"Ġviewpoint":10344,"Ġahar":10345,"obser":10346,"Ġcro":10347,"yd":10348,"Ġdh":10349,"Ġdut":10350,"Ġintergalactic":10351,"Ġapproximating":10352,"Ġisochrones":10353,"new":10354,"Ġpock":10355,"Ġacis":10356,"olev":10357,"Ġineffici":10358,"Ġjoin":10359,"Ġmicros":10360,"Ġslices":10361,"istration":10362,"Ġhera":10363,"ront":10364,"ermann":10365,"Ġteleportation":10366,"Ġcharacters":10367,"Ġorbiting":10368,"tration":10369,"Ġshortly":10370,"Ġutilize":10371,"Ġtransforming":10372,"Ġkub":10373,"ayers":10374,"Ġkum":10375,"Ġquasic":10376,"aga":10377,"Ġnotable":10378,"Ġmultiplet":10379,"Ġcapabilities":10380,"Ġckm":10381,"Ġcontributed":10382,"Ġfacilitate":10383,"Ġaware":10384,"Ġspacelike":10385,"igma":10386,"Ġ145":10387,"tingale":10388,"Ġnonempty":10389,"Ġ,,":10390,"Ġsuitably":10391,"Ġfibration":10392,"Ġdan":10393,"ogenesis":10394,"Ġstreaming":10395,"Ġtightly":10396,"Ġlcccc":10397,"Ġcry":10398,"Ġfortunately":10399,"Ġmembership":10400,"Ġnw":10401,"lattices":10402,"lumin":10403,"Ġwds":10404,"Ġprotoplan":10405,"Ġmultivariate":10406,"charge":10407,"Ġinev":10408,"kr":10409,"Ġsplittings":10410,"Ġeconom":10411,"Ġstresses":10412,"Ġpseudogap":10413,"Ġzha":10414,"Ġreservoirs":10415,"Ġ275":10416,"Ġflowing":10417,"Ġdeviates":10418,"Ġmonomer":10419,"Ġvibration":10420,"Ġenergetically":10421,"mf":10422,"Ġgravitating":10423,"Ġturner":10424,"Ġcherenkov":10425,"Ġabundant":10426,"Ġinterlayer":10427,"Ġ131":10428,"Ġirrever":10429,"onder":10430,"Ġcountable":10431,"uj":10432,"Ġwedge":10433,"exc":10434,"Ġcz":10435,"Ġskyrme":10436,"Ġdiffering":10437,"amples":10438,"Ġapparatus":10439,"board":10440,"Ġsterile":10441,"Ġroles":10442,"Ġcpu":10443,"Ġelectrodynamics":10444,"Ġbrain":10445,"Ġstudents":10446,"Ġexploring":10447,"Ġcaution":10448,"dened":10449,"ois":10450,"814":10451,"Ġrepeating":10452,"vem":10453,"Ġvoids":10454,"pq":10455,"Ġtract":10456,"Ġprinceton":10457,"Ġhoc":10458,"Ġqi":10459,"Ġemergent":10460,"Ġali":10461,"Ġequilibri":10462,"chel":10463,"Ġoccupancy":10464,"Ġalle":10465,"Ġmillis":10466,"Ġimaged":10467,"Ġimplementing":10468,"Ġvertically":10469,"Ġanch":10470,"enb":10471,"Ġcompensate":10472,"Ġinhibit":10473,"Ġmun":10474,"Ġloading":10475,"Ġsegregation":10476,"Ġexchanges":10477,"Ġstripes":10478,"Ġcompactification":10479,"116":10480,"Ġbohm":10481,"eries":10482,"Ġjetp":10483,"Ġdefic":10484,"Ġ525":10485,"Ġandre":10486,"uniform":10487,"Ġqmc":10488,"free":10489,"Ġprototype":10490,"Ġcommunities":10491,"Ġenvelopes":10492,"Ġminimizes":10493,"Ġpere":10494,"load":10495,"anted":10496,"039":10497,"Ġfokker":10498,"Ġ304":10499,"nc":10500,"Ġcel":10501,"Ġgetting":10502,"pectrum":10503,"Ġhun":10504,"121":10505,"Ġproblematic":10506,"Ġcaustic":10507,"Ġlocked":10508,"132":10509,"Ġgg":10510,"037":10511,"Ġdrawing":10512,"Ġstripping":10513,"Ġachieving":10514,"222":10515,"Ġfloquet":10516,"stat":10517,"Ġlive":10518,"Ġnord":10519,"Ġhits":10520,"Ġresist":10521,"enter":10522,"Ġ170":10523,"Ġhomogen":10524,"Ġconstituents":10525,"Ġschool":10526,"ande":10527,"Ġoverdensity":10528,"arro":10529,"Ġexplanations":10530,"Ġdoubling":10531,"Ġisotope":10532,"Ġcorot":10533,"Ġmultiplier":10534,"029":10535,"liers":10536,"Ġneuron":10537,"kd":10538,"Ġobli":10539,"utrino":10540,"elman":10541,"Ġevolutions":10542,"amped":10543,"Ġtracers":10544,"Ġpend":10545,"atories":10546,"Ġ207":10547,"Ġ147":10548,"ipartition":10549,"erner":10550,"phy":10551,"Ġinversely":10552,"Ġkinetics":10553,"ishi":10554,"Ġneighbours":10555,"Ġtunn":10556,"decay":10557,"Ġsurjective":10558,"Ġsynthesized":10559,"Ġattribut":10560,"Ġestablishes":10561,"Ġvibrations":10562,"cut":10563,"Ġsuperimposed":10564,"Ġfronts":10565,"aged":10566,"Ġhelmholtz":10567,"Ġdiscord":10568,"Ġresolving":10569,"Ġterrestrial":10570,"135":10571,"Ġequilibria":10572,"Ġthermodynamical":10573,"Ġpaul":10574,"Ġpredictive":10575,"Ġbianchi":10576,"Ġsupermassive":10577,"Ġinclined":10578,"Ġrk":10579,"Ġincomm":10580,"Ġcircumstances":10581,"Ġtune":10582,"Ġao":10583,"Ġstore":10584,"Ġassisted":10585,"Ġautomatic":10586,"Ġexecution":10587,"Ġcab":10588,"Ġtransmitter":10589,"Ġforthcoming":10590,"Ġselective":10591,"pha":10592,"Ġpartonic":10593,"Ġpacs":10594,"]),":10595,"Ġzhou":10596,"Ġtimest":10597,"erex":10598,"Ġek":10599,"Ġmimo":10600,"Ġreid":10601,"Ġconical":10602,"Ġremember":10603,"sphere":10604,"Ġfunding":10605,"Ġflaring":10606,"Ġequipartition":10607,"Ġnel":10608,"lie":10609,"Ġclaims":10610,"echter":10611,"Ġdor":10612,"Ġencomp":10613,"aya":10614,"Ġclassic":10615,"Ġpolyakov":10616,"Ġeom":10617,"Ġblocking":10618,"Ġaw":10619,"otal":10620,"Ġoverlaps":10621,"Ġcommutator":10622,"ete":10623,"Ġlabeling":10624,"Ġhay":10625,"Ġdz":10626,"Ġfolded":10627,"Ġhp":10628,"asc":10629,"Ġinsulators":10630,"Ġ345":10631,"Ġisotropy":10632,"ink":10633,"Ġginz":10634,"Ġencompass":10635,"Ġ155":10636,"Ġgraviton":10637,"Ġtropical":10638,"Ġunambiguously":10639,"tran":10640,"2001":10641,"ingly":10642,"Ġcrack":10643,"astron":10644,"uba":10645,"Ġdiscriminate":10646,"Ġsystemic":10647,"Ġ1968":10648,"ason":10649,"Ġholonom":10650,"Ġrid":10651,"Ġpermittivity":10652,"Ġlg":10653,"Ġpoloidal":10654,"Ġinterferometric":10655,"Ġoutliers":10656,"Ġalphabet":10657,"Ġtranslated":10658,"Ġsubmanifold":10659,"osable":10660,"Ġstrangeness":10661,"zag":10662,"bn":10663,"Ġprojector":10664,"Ġsubjected":10665,"algebras":10666,"itous":10667,"Ġending":10668,"Ġcolloidal":10669,"Ġpara":10670,"555":10671,"Ġmri":10672,"Ġacadem":10673,"Ġconcluding":10674,"Ġcad":10675,"Ġamplified":10676,"Ġcompositions":10677,"Ġanticipated":10678,"Ġcylinders":10679,"Ġsic":10680,"Ġundergoing":10681,"echanical":10682,"Ġbohr":10683,"Ġpositrons":10684,"Ġ425":10685,"asso":10686,"Ġreminis":10687,"Ġtu":10688,"Ġdilution":10689,"rn":10690,"Ġkon":10691,"cz":10692,"Ġanharmonic":10693,"Ġremoves":10694,"arian":10695,"Ġhypergeometric":10696,"Ġsoftening":10697,"Ġpoll":10698,"rinsic":10699,"Ġpassed":10700,"Ġginzburg":10701,"Ġtranslate":10702,"Ġdiamonds":10703,"Ġgradual":10704,"Ġalbed":10705,"ugal":10706,"Ġimbal":10707,"Ġsnapshots":10708,"Ġconfirmation":10709,"Ġcul":10710,"Ġsalt":10711,"Ġexperienced":10712,"Ġthermo":10713,"Ġrim":10714,"Ġschechter":10715,"gap":10716,"127":10717,"Ġchord":10718,"olec":10719,"Ġresemble":10720,"bib":10721,"Ġ240":10722,"Ġexercise":10723,"Ġtransparen":10724,"aken":10725,"planar":10726,"Ġpms":10727,"Ġoctahed":10728,"Ġtwin":10729,"Ġultracold":10730,"Ġcanada":10731,"Ġiraf":10732,"Ġdemonstrating":10733,"Ġsag":10734,"Ġjs":10735,"Ġresearchers":10736,"136":10737,"Ġvb":10738,"Ġconcurrence":10739,"Ġgeneralizations":10740,"Ġproceeding":10741,"ilst":10742,"ails":10743,"Ġwra":10744,"Ġsafely":10745,"Ġhernquist":10746,"Ġblast":10747,"Ġdiffusivity":10748,"standing":10749,"Ġinteracts":10750,"Ġaugmented":10751,"zn":10752,"irect":10753,"Ġsex":10754,"Ġready":10755,"Ġ134":10756,"Ġbuck":10757,"Ġmeyer":10758,"Ġworked":10759,"Ġfruitful":10760,"ichi":10761,"Ġgoods":10762,"036":10763,"Ġnovem":10764,"Ġsliding":10765,"pheral":10766,"emer":10767,"Ġcutting":10768,"Ġobserves":10769,"Ġvirtue":10770,"how":10771,"block":10772,"Ġdecided":10773,"tives":10774,"Ġrecurrent":10775,"Ġintended":10776,"Ġinterfacial":10777,"Ġmonotonicity":10778,"Ġnovember":10779,"occ":10780,"Ġvariances":10781,"Ġwhilst":10782,"Ġparametr":10783,"Ġtn":10784,"Ġconveniently":10785,"Ġfebr":10786,"Ġresummation":10787,"Ġcollisionless":10788,"Ġhir":10789,"Ġscans":10790,"aver":10791,"Ġadjacency":10792,"Ġ335":10793,"Ġdimers":10794,"Ġgreatest":10795,"ucid":10796,"Ġclust":10797,"Ġrevis":10798,"Ġsuperior":10799,"Ġsrs":10800,"Ġcopper":10801,"245":10802,"Ġwkb":10803,"Ġ195":10804,"Ġreminiscent":10805,"Ġsuggestion":10806,"Ġentrop":10807,"anger":10808,"iao":10809,"page":10810,"Ġlocality":10811,"Ġunid":10812,"Ġmanipulation":10813,"Ġpati":10814,"Ġdicke":10815,"Ġfat":10816,"Ġdetach":10817,"Ġmang":10818,"Ġ143":10819,"Ġfaith":10820,"Ġorigins":10821,"imet":10822,"Ġdecompositions":10823,"Ġintuition":10824,"hel":10825,"Ġinstall":10826,"Ġbelle":10827,"akis":10828,"Ġ222":10829,"Ġcollapsed":10830,"Ġstems":10831,"Ġ132":10832,"Ġelucid":10833,"Ġmagnetores":10834,"Ġmultiplicities":10835,"Ġmosaic":10836,"Ġsimulating":10837,"law":10838,"Ġtrying":10839,"Ġdiagramm":10840,"Ġcompatibility":10841,"lf":10842,"abe":10843,"Ġsplitter":10844,"ovector":10845,"hardt":10846,"Ġslot":10847,"pack":10848,"Ġorientable":10849,"Ġfebruary":10850,"hard":10851,"Ġacquis":10852,"pole":10853,"Ġpqcd":10854,"Ġoperational":10855,"Ġconverse":10856,"'-":10857,"Ġobstacle":10858,"Ġknowing":10859,"empor":10860,"Ġeuro":10861,"Ġ165":10862,"Ġapproached":10863,"Ġcirculation":10864,"Ġ034":10865,"Ġlock":10866,"Ġimpedance":10867,"Ġoptions":10868,"Ġsobolev":10869,"ony":10870,"Ġapertures":10871,"Ġcygn":10872,"Ġspans":10873,"Ġconvexity":10874,"Ġdescent":10875,"value":10876,"Ġhur":10877,"Ġhint":10878,"Ġfiltration":10879,"Ġtransients":10880,"Ġideally":10881,"interacting":10882,"Ġbroadened":10883,"Ġgeneralised":10884,"Ġ136":10885,"Ġmcmc":10886,"Ġogle":10887,"Ġmuk":10888,"Ġupdates":10889,"linations":10890,"Ġclique":10891,"Ġhip":10892,"Ġperman":10893,"Ġconstructive":10894,"Ġty":10895,"Ġkohn":10896,"Ġiterated":10897,"Ġrichards":10898,"Ġquintess":10899,"Ġreside":10900,"Ġhotter":10901,"Ġbootstrap":10902,"Ġpde":10903,"Ġkeywords":10904,"Ġperturbatively":10905,"031":10906,"Ġdepleted":10907,"Ġconsumption":10908,"Ġconverging":10909,"Ġdeficit":10910,"Ġcompressibility":10911,"Ġarn":10912,"degener":10913,"Ġnormalised":10914,"param":10915,"Ġdla":10916,"Ġconditioned":10917,"Ġimplementations":10918,"md":10919,"annon":10920,"Ġtile":10921,"Ġstis":10922,"117":10923,"Ġpiv":10924,"Ġextrinsic":10925,"Ġspectroscopically":10926,"Ġlithium":10927,"grade":10928,"Ġwealth":10929,"Ġ700":10930,"Ġbk":10931,"Ġtakah":10932,"Ġfuzz":10933,"Ġ450":10934,"hes":10935,"Ġactivities":10936,"Ġgoals":10937,"Ġaer":10938,"Ġcapacitance":10939,"Ġsubtract":10940,"fram":10941,"Ġtopologies":10942,"Ġfacet":10943,"Ġsuspension":10944,"Ġlightcurve":10945,"Ġkenn":10946,"Ġbanach":10947,"states":10948,"Ġki":10949,"045":10950,"Ġuniver":10951,"Ġemphasis":10952,"urus":10953,"Ġpermits":10954,"Ġenhances":10955,"Ġcass":10956,"Ġunderestimated":10957,"038":10958,"kms":10959,"Ġstm":10960,"Ġsubstituted":10961,"Ġfrob":10962,"Ġsynchronized":10963,"Ġtrav":10964,"Ġthread":10965,"Ġ224":10966,"ilateral":10967,"orem":10968,"uv":10969,"Ġcommuting":10970,"Ġzhao":10971,"Ġinterpretations":10972,"rase":10973,"Ġsnapshot":10974,"Ġcentrif":10975,"Ġbert":10976,"det":10977,"Ġresidues":10978,"Ġ337":10979,"ayashi":10980,"Ġ001":10981,"Ġretained":10982,"Ġrepl":10983,"Ġmidplane":10984,"Ġconvinc":10985,"complex":10986,"Ġlatitudes":10987,"Ġlew":10988,"Ġmachines":10989,"Ġbasel":10990,"Ġinterpolating":10991,"Ġulirgs":10992,"Ġcx":10993,"Ġtranslations":10994,"Ġfuel":10995,"Ġskyrmion":10996,"Ġhomogeneity":10997,"Ġdepicts":10998,"Ġkoch":10999,"Ġoptimality":11000,"Ġconce":11001,"Ġope":11002,"icially":11003,"Ġgermany":11004,"mhz":11005,"roids":11006,"Ġnoncommutative":11007,"Ġeliminating":11008,"Ġnorms":11009,"Ġtransparency":11010,"escent":11011,"mersion":11012,"Ġindications":11013,"iqu":11014,"Ġbilliard":11015,"Ġtam":11016,"case":11017,"onium":11018,"iano":11019,"Ġsimon":11020,"Ġcomputes":11021,"pace":11022,"ele":11023,"Ġoutermost":11024,"Ġcausality":11025,"emission":11026,"Ġnoninteracting":11027,"Ġprogressively":11028,"Ġconcaten":11029,"Ġsle":11030,"Ġitems":11031,"Ġflattening":11032,"Ġnarayan":11033,"Ġpredicting":11034,"Ġacquisition":11035,"Ġcustom":11036,"onald":11037,"fiel":11038,"Ġelectronics":11039,"Ġdependency":11040,"parameter":11041,"Ġdemonstration":11042,"040":11043,"Ġproto":11044,"sonic":11045,"Ġpile":11046,"Ġpresenting":11047,"Ġaims":11048,"Ġvolatility":11049,"Ġplanetesimals":11050,"Ġauau":11051,"Ġfailed":11052,"Ġimposes":11053,"Ġbist":11054,"Ġdrude":11055,"Ġadmin":11056,"Ġcorrelate":11057,"Ġedm":11058,"Ġidentifies":11059,"Ġquarter":11060,"Ġshallower":11061,"Ġlowered":11062,"Ġarchival":11063,"Ġequilibration":11064,"fn":11065,"dp":11066,"Ġperipheral":11067,"170":11068,"qn":11069,"Ġdmft":11070,"ette":11071,"Ġ229":11072,"Ġwiley":11073,"Ġgained":11074,"Ġleakage":11075,"Ġ256":11076,"Ġshen":11077,"issner":11078,"Ġ305":11079,"Ġinher":11080,"Ġentropic":11081,"dl":11082,"Ġcheng":11083,"Ġmeta":11084,"Ġsaturates":11085,"Ġdeeply":11086,"Ġcomprises":11087,"Ġcharmon":11088,"Ġstraightforwardly":11089,"Ġrejection":11090,"Ġbrun":11091,"Ġqpos":11092,"Ġcolle":11093,"Ġmond":11094,"Ġpartners":11095,"Ġugc":11096,"arcos":11097,"Ġmicron":11098,"Ġnil":11099,"Ġcubes":11100,"Ġcumulant":11101,"Ġmultif":11102,"Ġconceptual":11103,"Ġ315":11104,"118":11105,"Ġhardware":11106,"220":11107,"Ġpublications":11108,"326":11109,"Ġevapor":11110,"Ġexpressing":11111,"Ġ024":11112,"Ġee":11113,"Ġclaus":11114,"044":11115,"Ġcollapses":11116,"Ġpreference":11117,"Ġdestination":11118,"Ġhers":11119,"Ġcsi":11120,"Ġ339":11121,"Ġmotor":11122,"Ġzigzag":11123,"Ġwfc":11124,"Ġpointwise":11125,"Ġgab":11126,"Ġequivariant":11127,"Ġappreciable":11128,"Ġspinors":11129,"Ġconverged":11130,"Ġkne":11131,"205":11132,"Ġfrequent":11133,"Ġacquires":11134,"Ġseesaw":11135,"Ġbimodal":11136,"Ġvalidation":11137,"gm":11138,"Ġglasses":11139,"Ġsend":11140,"Ġmant":11141,"Ġbudget":11142,"parallel":11143,"Ġpear":11144,"Ġunav":11145,"sin":11146,"Ġlane":11147,"Ġohmic":11148,"Ġorange":11149,"Ġintensive":11150,"Ġsurgery":11151,"Ġ365":11152,"Ġnambu":11153,"Ġgeneralizes":11154,"Ġgel":11155,"Ġbed":11156,"enta":11157,"Ġomega":11158,"Ġendowed":11159,"Ġfrobenius":11160,"ecomp":11161,"Ġgaussianity":11162,"Ġflatter":11163,"Ġformat":11164,"annier":11165,"Ġcounted":11166,"Ġgaugino":11167,"Ġalternate":11168,"Ġcontracting":11169,"Ġlanguages":11170,"Ġhw":11171,"rative":11172,"Ġadjusting":11173,"Ġspikes":11174,"Ġrigorously":11175,"Ġhipparcos":11176,"Ġwt":11177,"Ġcarl":11178,"Ġshannon":11179,"cos":11180,"Ġlyrae":11181,"250":11182,"Ġrat":11183,"Ġtrick":11184,"Ġclustered":11185,"Ġtad":11186,"Ġdrawback":11187,"uples":11188,"olo":11189,"Ġacta":11190,"Ġwaals":11191,"Ġqr":11192,"Ġeigens":11193,"Ġtermination":11194,"Ġ1967":11195,"Ġlindbl":11196,"multi":11197,"Ġot":11198,"Ġ323":11199,"Ġparsec":11200,"zel":11201,"Ġcumulants":11202,"Ġmerged":11203,"Ġrecovers":11204,"Ġchart":11205,")--(":11206,"Ġhomeomorphic":11207,"Ġcsm":11208,"away":11209,"brevi":11210,"Ġavoids":11211,"Ġsingap":11212,"Ġconflict":11213,"current":11214,"Ġessence":11215,"Ġtetrag":11216,"0001":11217,"Ġactivated":11218,"Ġinnov":11219,"Ġdeals":11220,"Ġqds":11221,"Ġprol":11222,"box":11223,"Ġassociations":11224,"ouse":11225,"Ġlw":11226,"Ġsmoothness":11227,"119":11228,"Ġsheaf":11229,"Ġpenalty":11230,"Ġstir":11231,"Ġfeasibility":11232,"Ġves":11233,"2007":11234,"Ġfacets":11235,"Ġdistinguishing":11236,"Ġbend":11237,"Ġtransitive":11238,"Ġdroplets":11239,"enty":11240,"Ġabbrevi":11241,"Ġpseudopotential":11242,"Ġyi":11243,"Ġfamous":11244,"uing":11245,"Ġsubmillimeter":11246,"Ġasteroids":11247,"scattering":11248,"Ġisra":11249,"Ġgol":11250,"212":11251,"Ġchecks":11252,"oulli":11253,"reen":11254,"Ġsimplifying":11255,"Ġdegeneracies":11256,"Ġhermite":11257,"Ġbounding":11258,"mi":11259,"Ġunderestimate":11260,"icti":11261,"Ġpersist":11262,"Ġsod":11263,"Ġ375":11264,"Ġoriginated":11265,"Ġcollimated":11266,"ansen":11267,"aru":11268,"Ġclark":11269,"Ġinterferometry":11270,"Ġcentury":11271,"Ġiteratively":11272,"pez":11273,"Ġcombinator":11274,"Ġkauff":11275,"Ġgluing":11276,"Ġelimination":11277,"jan":11278,"Ġrevised":11279,"Ġoxide":11280,"Ġannual":11281,"Ġ227":11282,"iller":11283,"Ġunn":11284,"Ġprotostellar":11285,"Ġwestern":11286,"Ġuhec":11287,"Ġdiscarded":11288,"Ġmodifies":11289,"meson":11290,"Ġautomaton":11291,"Ġ219":11292,"Ġreferring":11293,"Ġstops":11294,"color":11295,"etical":11296,"ynch":11297,"Ġsunspot":11298,"Ġrussian":11299,"Ġkor":11300,"Ġlogarithms":11301,"Ġdiverse":11302,"terms":11303,"Ġ216":11304,"Ġincorporates":11305,"Ġdiameters":11306,"atrix":11307,"Ġpour":11308,"Ġsingapore":11309,"Ġ1966":11310,"Ġerratum":11311,"isch":11312,"400":11313,"rink":11314,"Ġentropies":11315,"Ġpore":11316,"Ġparadox":11317,"Ġgluino":11318,"Ġgenes":11319,"Ġmonopoles":11320,"ena":11321,"Ġ299":11322,"Ġwannier":11323,"Ġhim":11324,"Ġiw":11325,"Ġstabilize":11326,"kii":11327,"Ġlogarithmically":11328,"Ġsx":11329,"Ġ405":11330,"ategory":11331,"Ġinfalling":11332,"Ġplacing":11333,"Ġdiagnostics":11334,"dam":11335,"Ġsizable":11336,"Ġscheduling":11337,"Ġviolate":11338,"Ġ233":11339,"Ġinterchange":11340,"Ġvii":11341,"Ġaward":11342,"Ġmappings":11343,"Ġcartan":11344,"Ġsucceed":11345,"Ġ295":11346,"dz":11347,"Ġidentifications":11348,"oshi":11349,"Ġbinning":11350,"nucle":11351,"ogether":11352,"Ġramp":11353,"Ġexpensive":11354,"Ġtunable":11355,"Ġintegrability":11356,"raw":11357,"ava":11358,"Ġtrough":11359,"Ġseverely":11360,"Ġmatsub":11361,"Ġfrank":11362,"Ġprem":11363,"Ġcrs":11364,"Ġsel":11365,"Ġ148":11366,"Ġproportionality":11367,"Ġgod":11368,"Ġdeser":11369,"Ġldos":11370,"ago":11371,"Ġsab":11372,"Ġpersists":11373,"Ġminority":11374,"yi":11375,"Ġpolariton":11376,"Ġpriors":11377,"planes":11378,"ahn":11379,"Ġ035":11380,"Ġstrips":11381,"aku":11382,"Ġisoscalar":11383,"Ġshrink":11384,"Ġmcl":11385,"cf":11386,"Ġ1964":11387,"lan":11388,"independent":11389,"itored":11390,"Ġsupercell":11391,"Ġbernoulli":11392,"Ġfov":11393,"Ġtriaxial":11394,"figure":11395,"Ġ307":11396,"Ġacademy":11397,"Ġalma":11398,"Ġinvis":11399,"Ġpinned":11400,"Ġnavier":11401,"Ġsuffers":11402,"igg":11403,"Ġsax":11404,"Ġlex":11405,"Ġbuffer":11406,"chem":11407,"Ġproposals":11408,"Ġreducible":11409,"Ġshim":11410,"Ġmonitored":11411,"Ġken":11412,"Ġtransfers":11413,"Ġeulerian":11414,"Ġ.[":11415,"uration":11416,"Ġtetragonal":11417,"Ġblank":11418,"Ġcited":11419,"Ġ193":11420,"133":11421,"Ġinfected":11422,"Ġ1965":11423,"singular":11424,"Ġoscillates":11425,"Ġ149":11426,"Ġorganic":11427,"Ġlbgs":11428,"canonical":11429,"Ġwn":11430,"Ġquintessence":11431,"Ġ157":11432,"heimer":11433,"Ġspecification":11434,"Ġhco":11435,"Ġlip":11436,"gb":11437,"Ġequip":11438,"bhs":11439,"Ġmodifying":11440,"oster":11441,"Ġisometric":11442,"gh":11443,"acs":11444,"Ġpositional":11445,"Ġantine":11446,"Ġbuch":11447,"Ġmeets":11448,"Ġmaximizing":11449,"Ġcomprom":11450,"Ġven":11451,"Ġeik":11452,"Ġdebate":11453,"Ġeclipsing":11454,"Ġarpes":11455,"Ġ253":11456,"Ġaggregate":11457,"Ġbru":11458,"Ġsss":11459,"Ġgraphite":11460,"Ġscientist":11461,"Ġubiqu":11462,"rf":11463,"Ġeffec":11464,"Ġsuppresses":11465,"auber":11466,"otion":11467,"Ġbank":11468,"Ġexchanged":11469,"Ġperme":11470,"Ġmatsubara":11471,"Ġcach":11472,"vertex":11473,"Ġvlt":11474,"Ġfrw":11475,"Ġ139":11476,"Ġstre":11477,"ivariate":11478,"Ġmagnetoresistance":11479,"ewski":11480,"Ġsubsample":11481,"Ġincommensurate":11482,"158":11483,"Ġ231":11484,"Ġilluminated":11485,"Ġprosp":11486,"oly":11487,"Ġsupersonic":11488,"Ġtiles":11489,"Ġblob":11490,"060":11491,"Ġdislocation":11492,"Ġillumination":11493,"1038":11494,"Ġtomography":11495,"isations":11496,"Ġdeconv":11497,"Ġjointly":11498,"Ġberger":11499,"sten":11500,"uez":11501,"Ġparen":11502,"Ġisolation":11503,"Ġunambiguous":11504,"Ġpolarizability":11505,"Ġtanaka":11506,"Ġmaintaining":11507,"Ġiz":11508,"structures":11509,"Ġeccentr":11510,"Ġflexibility":11511,"lm":11512,"tsch":11513,"Ġpulsations":11514,"Ġjoh":11515,"Ġpropositions":11516,"Ġviz":11517,"Ġwel":11518,"Ġbreath":11519,"Ġisom":11520,"Ġunderd":11521,"Ġcharacterised":11522,"Ġdenser":11523,"Ġcontroller":11524,"Ġhk":11525,"Ġstandards":11526,"Ġdemanding":11527,"Ġbao":11528,"Ġbland":11529,"Ġ273":11530,"Ġhess":11531,"west":11532,"Ġaltered":11533,"ese":11534,"Ġ447":11535,"Ġeccentricities":11536,"Ġisovector":11537,"Ġmicroscopy":11538,"Ġkw":11539,"Ġsigned":11540,"irected":11541,"dot":11542,"Ġdie":11543,"Ġfavors":11544,"Ġphill":11545,"Ġalloys":11546,"Ġtakahashi":11547,"Ġiau":11548,"155":11549,"Ġkennic":11550,"Ġlags":11551,"Ġae":11552,"isp":11553,"Ġtruth":11554,"Ġredistribution":11555,"top":11556,"acities":11557,"Ġzhu":11558,"Ġpir":11559,"Ġcentred":11560,"lia":11561,"Ġfeel":11562,"Ġysos":11563,"Ġrestrictive":11564,"results":11565,"Ġsending":11566,"Ġpaired":11567,"Ġinductive":11568,"Ġplanned":11569,"Ġdifferentiating":11570,"Ġindust":11571,"Ġaltogether":11572,"Ġoffice":11573,"Ġ850":11574,"Ġrestricts":11575,"Ġdiscontinuities":11576,"Ġzenith":11577,"Ġkos":11578,"Ġ044":11579,"Ġhj":11580,"Ġtorques":11581,"Ġ265":11582,"Ġvideo":11583,"Ġccs":11584,"Ġ333":11585,"Ġsensi":11586,"Ġserver":11587,"Ġcharging":11588,"Ġnondegener":11589,"Ġadiabatically":11590,"Ġdeco":11591,"cb":11592,"jo":11593,"Ġmanagement":11594,"Ġspheroid":11595,"2004":11596,"Ġpon":11597,"Ġprecursor":11598,"Ġexcep":11599,"Ġaster":11600,"Ġdepolar":11601,"Ġjustify":11602,"Ġenorm":11603,"ypes":11604,"Ġalbedo":11605,"Ġcompressible":11606,"Ġsubsections":11607,"Ġremote":11608,"Ġunim":11609,"ql":11610,"Ġkennicutt":11611,"Ġvacancies":11612,"Ġfk":11613,"zh":11614,"Ġstabilizer":11615,"plices":11616,"Ġah":11617,"Ġ163":11618,"Ġmultiplets":11619,"Ġcontaminated":11620,"eu":11621,"144":11622,"Ġautonom":11623,"1007":11624,"Ġcombines":11625,"change":11626,"yaev":11627,"vable":11628,"litch":11629,"Ġmanifestation":11630,"Ġnonthermal":11631,"Ġexempl":11632,"Ġwerner":11633,"Ġsubalgebra":11634,"Ġdavies":11635,"Ġdegrad":11636,"Ġamplifier":11637,"rance":11638,"Ġcryp":11639,"Ġ154":11640,"Ġposet":11641,"zw":11642,"Ġbacter":11643,"anal":11644,"Ġstressed":11645,"atever":11646,"2002":11647,"Ġdisreg":11648,"Ġblazar":11649,"Ġspheroidal":11650,"Ġdiscrimination":11651,"Ġgrassmann":11652,"recht":11653,"Ġferromagnet":11654,"Ġdof":11655,"Ġcircularly":11656,"Ġthz":11657,"Ġvoron":11658,"Ġrosen":11659,"asov":11660,"Ġqp":11661,"Ġ185":11662,"Ġwhatever":11663,"Ġneighbouring":11664,"Ġminimally":11665,"otto":11666,"223":11667,"Ġpolarity":11668,"Ġundert":11669,"Ġcommensurate":11670,"Ġ141":11671,"Ġquiver":11672,"Ġimmers":11673,"Ġqw":11674,"Ġdisease":11675,"eva":11676,"Ġkom":11677,"Ġshapiro":11678,"Ġavailability":11679,"Ġtractable":11680,"Ġalumin":11681,"Ġfos":11682,"Ġtetrahedron":11683,"Ġelasticity":11684,"Ġcancels":11685,"207":11686,"Ġostri":11687,"lik":11688,"Ġegret":11689,"Ġasteroid":11690,"Ġoversh":11691,"Ġnormalisation":11692,"Ġie":11693,"Ġsecondoftwo":11694,"Ġmetam":11695,"Ġdescend":11696,"Ġgaussians":11697,"Ġcay":11698,"Ġaggregation":11699,"Ġaccommodate":11700,"xn":11701,"Ġpartner":11702,"Ġreprocess":11703,"Ġcoded":11704,"Ġsusceptible":11705,"Ġrecognize":11706,"Ġantipro":11707,"Ġinstitution":11708,"Ġstimulated":11709,"Ġaimed":11710,"Ġreceivers":11711,"Ġ189":11712,"Ġcmds":11713,"Ġrouting":11714,"Ġstere":11715,"043":11716,"Ġdecoder":11717,"Ġfinger":11718,"Ġtargeted":11719,"atern":11720,"Ġcvs":11721,"Ġaltitude":11722,"Ġdiscusses":11723,"Ġpotts":11724,"Ġfluence":11725,"Ġbreakup":11726,"classical":11727,"Ġpeterson":11728,"Ġostriker":11729,"mar":11730,"Ġbold":11731,"2003":11732,"Ġnecessity":11733,"rier":11734,"Ġisrael":11735,"Ġmcs":11736,"Ġkore":11737,"Ġdisappearance":11738,"Ġrenew":11739,"Ġnanotubes":11740,"Ġplotting":11741,"Ġepr":11742,"Ġincompati":11743,"qq":11744,"Ġ237":11745,"Ġligo":11746,"192":11747,"Ġtermed":11748,"Ġinvoked":11749,"jections":11750,"mk":11751,"Ġnicely":11752,"Ġthomson":11753,"Ġsdw":11754,"vectors":11755,"Ġclim":11756,"Ġdk":11757,"Ġprepare":11758,")],":11759,"129":11760,"Ġnanost":11761,"Ġhessian":11762,"Ġhodge":11763,"042":11764,"rically":11765,"Ġswap":11766,"Ġconformally":11767,"Ġ327":11768,"Ġmodulations":11769,"oseism":11770,"Ġinterpreting":11771,"Ġnut":11772,"Ġoverestimate":11773,"Ġinaccur":11774,"Ġcontex":11775,"Ġrecursively":11776,"126":11777,"site":11778,"tious":11779,"Ġ236":11780,"Ġkag":11781,"Ġincrements":11782,"Ġcatastro":11783,"Ġtower":11784,"Ġwavef":11785,"Ġprotected":11786,"Ġlifting":11787,"Ġshi":11788,"Ġauger":11789,"odyne":11790,"hf":11791,"Ġprefix":11792,"Ġdisp":11793,"Ġprotostars":11794,"Ġartifacts":11795,"prof":11796,"Ġaging":11797,"Ġdisturbance":11798,"html":11799,"Ġstern":11800,"Ġrotates":11801,"Ġafterglows":11802,"Ġ153":11803,"Ġimperfect":11804,"Ġraises":11805,"arth":11806,"aco":11807,"Ġcoil":11808,"Ġbarred":11809,"drop":11810,"Ġdiscard":11811,"Ġsituated":11812,"052":11813,"Ġrestored":11814,"Ġdamage":11815,"Ġmono":11816,"Ġenabled":11817,"Ġcentrifugal":11818,"Ġ173":11819,"Ġitiner":11820,"theorem":11821,"Ġtransactions":11822,"Ġrepeatedly":11823,"Ġgalact":11824,"Ġblended":11825,"Ġfactorized":11826,"055":11827,"Ġbifurcations":11828,"Ġheck":11829,"Ġimmersed":11830,"ient":11831,"Ġ144":11832,"pf":11833,"Ġ900":11834,"2006":11835,"shell":11836,"Ġembeddings":11837,"Ġcollaborations":11838,"Ġfra":11839,"Ġfly":11840,"Ġoutper":11841,"Ġphillips":11842,"Ġjob":11843,"Ġ206":11844,"kle":11845,"Ġundirected":11846,"Ġultimate":11847,"Ġeruption":11848,"Ġ1200":11849,"Ġsubscripts":11850,"zek":11851,"ifer":11852,"Ġton":11853,"Ġcliff":11854,"Ġidealized":11855,"Ġmatroid":11856,"Ġmcd":11857,"Ġbuoy":11858,"Ġsrsic":11859,"Ġusage":11860,"Ġavalanche":11861,"gin":11862,"Ġrefraction":11863,"Ġsecret":11864,"Ġcharmonium":11865,"143":11866,"Ġgathered":11867,"Ġfesh":11868,"ali":11869,"oka":11870,"Ġastrometry":11871,"Ġhighlighted":11872,"Ġkun":11873,"gamma":11874,"mt":11875,"Ġscr":11876,"Ġartifact":11877,"Ġclumpy":11878,"Ġeta":11879,"Ġjar":11880,"048":11881,"Ġaas":11882,"apes":11883,"Ġspectator":11884,"Ġifx":11885,"Ġhadam":11886,"flux":11887,"olecular":11888,"Ġ138":11889,"Ġglauber":11890,"Ġwaveform":11891,"Ġwen":11892,"Ġgot":11893,"Ġscintillation":11894,"Ġbreit":11895,"atsu":11896,"Ġcomputers":11897,"Ġspecifying":11898,"Ġmounted":11899,"Ġsubstrates":11900,"jn":11901,"Ġherb":11902,"Ġ297":11903,"Ġ158":11904,"Ġ270":11905,"Ġcontexts":11906,"Ġskin":11907,"Ġdick":11908,"Ġcalibrations":11909,"Ġthing":11910,"Ġimpl":11911,"Ġlindblad":11912,"Ġfeshbach":11913,"Ġemitter":11914,"edu":11915,"145":11916,"ias":11917,"Ġellipsoid":11918,"Ġ142":11919,"Ġ192":11920,"Ġsketched":11921,"Ġ322":11922,"Ġsid":11923,"Ġwag":11924,"reson":11925,"Ġpolygons":11926,"Ġrip":11927,"Ġtunnelling":11928,"Ġconjugacy":11929,"Ġpq":11930,"Ġ203":11931,"2010":11932,"owitz":11933,"175":11934,"ughlin":11935,"Ġregister":11936,"Ġeffectiveness":11937,"Ġreflectivity":11938,"Ġsuperscript":11939,"yshev":11940,"Ġincompleteness":11941,"Ġamongst":11942,"Ġsong":11943,"Ġobscuration":11944,"Ġmonomials":11945,"Ġlhs":11946,"fields":11947,"ublish":11948,"Ġshadowing":11949,"Ġtv":11950,"Ġcepheid":11951,"Ġglitch":11952,"Ġstripped":11953,"Ġ211":11954,"hara":11955,"Ġaside":11956,"Ġcame":11957,"Ġlsb":11958,"Ġderivations":11959,"Ġartificially":11960,"basis":11961,"Ġanton":11962,"tf":11963,"Ġtreatments":11964,"picture":11965,"Ġmete":11966,"Ġfuse":11967,"frequ":11968,"Ġlen":11969,"Ġtechnologies":11970,"Ġ230":11971,"Ġreques":11972,"ians":11973,"Ġparticipating":11974,"ael":11975,"Ġbeck":11976,"dom":11977,"Ġtabulated":11978,"Ġnormalize":11979,"Ġaip":11980,"Ġworthwhile":11981,"Ġcontinuing":11982,"Ġsymmetrical":11983,"Ġlatent":11984,"Ġrevealing":11985,"vanishing":11986,"Ġpsd":11987,"tn":11988,"Ġgalile":11989,"Ġjustification":11990,"Ġ167":11991,"chen":11992,"Ġfeb":11993,"Ġchromospheric":11994,"Ġadaptation":11995,"Ġxrt":11996,"Ġdj":11997,"Ġargon":11998,"Ġhypergraph":11999,"inition":12000,"Ġacknowledged":12001,"Ġconstrains":12002,"Ġlacking":12003,"Ġeastern":12004,"Ġlun":12005,"Ġ234":12006,"Ġhadamard":12007,"Ġcontrac":12008,"Ġ319":12009,"Ġfermil":12010,"Ġ161":12011,"Ġklu":12012,"Ġshielding":12013,"Ġwick":12014,"Ġwim":12015,"ahl":12016,"Ġsilver":12017,"Ġ045":12018,"ermion":12019,"hand":12020,"Ġcleo":12021,"Ġsj":12022,"Ġwake":12023,"Ġpseudospin":12024,"upta":12025,"nyi":12026,"firstoftwo":12027,"Ġeit":12028,"Ġconventions":12029,"Ġreductions":12030,"Ġdeterminants":12031,"Ġdips":12032,"Ġalgebraically":12033,"mr":12034,"Ġ183":12035,"Ġale":12036,"aptic":12037,"Ġexer":12038,"Ġdriver":12039,"Ġhypothetical":12040,"Ġassessment":12041,"000000":12042,"rog":12043,"Ġcob":12044,"ostat":12045,"Ġcompress":12046,"Ġfrenk":12047,"aterial":12048,"Ġlub":12049,"omechanical":12050,"134":12051,"Ġtum":12052,"utter":12053,"Ġmetrop":12054,"Ġspeculate":12055,"Ġpuzzle":12056,"Ġsupercluster":12057,"Ġlaure":12058,"Ġsmeared":12059,"angling":12060,"Ġattractors":12061,"Ġ330":12062,"Ġreactor":12063,"Ġ171":12064,"Ġfreezing":12065,"Ġcomprising":12066,"Ġirr":12067,"Ġgunn":12068,"Ġgrounds":12069,"ifert":12070,"Ġnnlo":12071,"Ġmissed":12072,"anol":12073,"Ġ355":12074,"2011":12075,"Ġnos":12076,"Ġnegativity":12077,"Ġmultipoles":12078,"ublished":12079,"Ġmartingale":12080,"Ġthousands":12081,"escu":12082,"cp":12083,"147":12084,"Ġrandomized":12085,"Ġbayes":12086,"Ġsequel":12087,"Ġacm":12088,"Ġlifted":12089,"Ġquadrant":12090,"Ġdans":12091,"Ġleo":12092,"sl":12093,"Ġgravitino":12094,"2012":12095,"imetry":12096,"Ġdivides":12097,"Ġadsorbed":12098,"Ġinject":12099,"Ġ357":12100,"Ġnegatively":12101,"Ġcosmos":12102,"Ġdiscriminant":12103,"myr":12104,"Ġchak":12105,"Ġradical":12106,"ires":12107,"Ġcave":12108,"Ġsingly":12109,"Ġdestabil":12110,"Ġ255":12111,"Ġcollecting":12112,"Ġredundant":12113,"Ġspinless":12114,"Ġundetected":12115,"fil":12116,"Ġoce":12117,"Ġrecords":12118,"Ġgalactocentric":12119,"here":12120,"abi":12121,"Ġgx":12122,"Ġ177":12123,"Ġassigning":12124,"Ġmaj":12125,"Ġpod":12126,"Ġash":12127,"Ġdiagonalized":12128,"Ġ309":12129,"Ġea":12130,"Ġcrude":12131,"comput":12132,"wall":12133,"Ġdehn":12134,"Ġcontradict":12135,"Ġsit":12136,"ully":12137,"Ġelemental":12138,"Ġreturning":12139,"ressive":12140,"Ġtack":12141,"Ġlmxbs":12142,"Ġspline":12143,"Ġkan":12144,"Ġnonvanishing":12145,"Ġdlas":12146,"Ġexperiences":12147,"Ġunfolding":12148,"Ġdigraph":12149,"Ġkatz":12150,"inar":12151,"Ġremind":12152,"065":12153,"Ġnanoparticles":12154,"asp":12155,"Ġdistinguishable":12156,"Ġoscillate":12157,"Ġdeutsch":12158,"Ġgalex":12159,"Ġconvolved":12160,"Ġpool":12161,"Ġenhancements":12162,"Ġherein":12163,"Ġestimations":12164,"Ġbah":12165,"Ġsubdivision":12166,"ursion":12167,"Ġprimes":12168,"Ġrobertson":12169,"Ġimmersion":12170,"Ġhq":12171,"Ġinterferometers":12172,"Ġoblate":12173,"138":12174,"Ġpasp":12175,"data":12176,"2008":12177,"Ġcatalogues":12178,"itons":12179,"Ġformulations":12180,"Ġnanostructure":12181,"Ġ.,":12182,"Ġsubgraphs":12183,"Ġfred":12184,"2009":12185,"Ġtrigon":12186,"Ġcpt":12187,"asser":12188,"Ġmaximization":12189,"Ġcentrally":12190,"Ġbroadly":12191,"Ġinconsist":12192,"Ġglueball":12193,"Ġcalls":12194,"Ġswitches":12195,"Ġ303":12196,"Ġ151":12197,"nr":12198,"Ġvot":12199,"Ġgreedy":12200,"Ġunpublished":12201,"Ġbeads":12202,"Ġextr":12203,"Ġdissipated":12204,"Ġordin":12205,"Ġheliocentric":12206,"mor":12207,"Ġdefinitely":12208,"053":12209,"Ġcoin":12210,"Ġlearned":12211,"Ġisolate":12212,"Ġportions":12213,"Ġitaly":12214,"Ġkobayashi":12215,"Ġdegradation":12216,"Ġwy":12217,"worthy":12218,"Ġrobinson":12219,"Ġcompetitive":12220,"Ġlisa":12221,"Ġholonomy":12222,"Ġsofter":12223,"dh":12224,"Ġstone":12225,"Ġherschel":12226,"Ġweather":12227,"jee":12228,"Ġlegs":12229,"Ġprolate":12230,"Ġsunyaev":12231,"Ġlj":12232,".-":12233,"Ġari":12234,"Ġchu":12235,"Ġsynchronous":12236,"Ġreheating":12237,"Ġalloy":12238,"aut":12239,"Ġuniaxial":12240,"Ġlfs":12241,"even":12242,"Ġhypersurfaces":12243,"Ġ279":12244,"Ġbiology":12245,"ochem":12246,"Ġsemantics":12247,"Ġeigenmodes":12248,"Ġpartitioning":12249,"Ġautomata":12250,"Ġalkal":12251,"Ġinterband":12252,"Ġsomehow":12253,"165":12254,"Ġoptimally":12255,"Ġmz":12256,"Ġparties":12257,"Ġ208":12258,"Ġrw":12259,"Ġquanta":12260,"abel":12261,"Ġoverestimated":12262,"ilept":12263,"bilities":12264,"Ġchargino":12265,"Ġdecouple":12266,"Ġgarcia":12267,"Ġnondegenerate":12268,"lez":12269,"acci":12270,"Ġblockade":12271,"Ġmandel":12272,"137":12273,"Ġscatterings":12274,"Ġcheb":12275,"Ġphysic":12276,"064":12277,"Ġretro":12278,"image":12279,"string":12280,"Ġsafe":12281,"Ġcep":12282,"pair":12283,"Ġsud":12284,"Ġ421":12285,"Ġaccident":12286,"Ġanswers":12287,"Ġillustrative":12288,"tsev":12289,"Ġideals":12290,"Ġspacings":12291,"ocation":12292,"046":12293,"prob":12294,"Ġescaping":12295,"Ġesa":12296,"Ġadequately":12297,"Ġbatse":12298,"Ġquatern":12299,"Ġcompiled":12300,"Ġaccelerate":12301,"etermined":12302,"Ġ349":12303,"2005":12304,"Ġexpresses":12305,"Ġperiastron":12306,"Ġsul":12307,"Ġautomated":12308,"Ġtik":12309,"Ġinclinations":12310,"Ġfq":12311,"Ġdeuterium":12312,"Ġpie":12313,"Ġexcursion":12314,"Ġlocate":12315,"Ġdepl":12316,"Ġassembled":12317,"Ġplasm":12318,"Ġencode":12319,"affe":12320,"Ġsanders":12321,"Ġ320":12322,"encing":12323,"Ġwormhole":12324,"Ġpk":12325,"Ġvv":12326,"Ġpenrose":12327,"Ġniel":12328,"pherical":12329,"idity":12330,"Ġinstantons":12331,"Ġdemands":12332,"Ġepidemic":12333,"Ġwhereby":12334,"Ġcum":12335,"Ġhx":12336,"Ġseifert":12337,"Ġrespects":12338,"Ġmentioning":12339,"Ġ239":12340,"repres":12341,"Ġhadronization":12342,"301":12343,"Ġsparsity":12344,"tional":12345,"valued":12346,"Ġarrives":12347,"Ġinvisible":12348,"600":12349,"Ġeconomic":12350,"230":12351,"Ġopacities":12352,"Ġfuj":12353,"Ġ310":12354,"Ġepic":12355,"aris":12356,"Ġunequ":12357,"Ġstratification":12358,"Ġcalibrate":12359,"Ġinvest":12360,"Ġ187":12361,"Ġscintillator":12362,"Ġnelson":12363,"Ġ267":12364,"185":12365,"inely":12366,"Ġsupplemented":12367,"Ġeurophys":12368,"bd":12369,"Ġnavarro":12370,"bp":12371,"chain":12372,"Ġnanotube":12373,"Ġmagnets":12374,"node":12375,"Ġsubband":12376,"Ġbasin":12377,"Ġconductor":12378,"tens":12379,"Ġeleg":12380,"ews":12381,"Ġkinematically":12382,"final":12383,"Ġ226":12384,"Ġbegan":12385,"Ġpds":12386,"Ġinefficient":12387,"Ġsco":12388,"Ġdropping":12389,"Ġ075":12390,"Ġreinfor":12391,"zk":12392,"user":12393,"hov":12394,"Ġdiagrammatic":12395,"Ġdrain":12396,"Ġautomorphisms":12397,"Ġune":12398,"ellig":12399,"049":12400,"270":12401,"Ġtangle":12402,"Ġson":12403,"Ġguided":12404,"Ġleib":12405,"Ġappend":12406,"Ġtio":12407,"Ġimbalance":12408,"Ġmanifests":12409,"Ġchooses":12410,"Ġpmatrix":12411,"Ġsma":12412,"uate":12413,"Ġpumped":12414,"Ġdol":12415,"ryst":12416,"pop":12417,"Ġtol":12418,"super":12419,"lock":12420,"rison":12421,"Ġfuzzy":12422,"Ġconvol":12423,"Ġroc":12424,"lp":12425,"Ġcomputable":12426,"Ġexceptions":12427,"mg":12428,"ota":12429,"Ġautonomous":12430,"Ġslater":12431,"call":12432,"Ġ301":12433,"Ġix":12434,"Ġindirectly":12435,"Ġexcesses":12436,"Ġretrieval":12437,"Ġ228":12438,"Ġnative":12439,"Ġrods":12440,"erg":12441,"Ġtriplets":12442,"Ġphotoion":12443,"Ġdre":12444,"Ġcoxeter":12445,"Ġphas":12446,"Ġperimeter":12447,"Ġdiagon":12448,"Ġalgorithmic":12449,"Ġpert":12450,"Ġfocuses":12451,"Ġxn":12452,"Ġtriples":12453,"[]":12454,"Ġsnow":12455,"Ġsubclass":12456,"Ġsubleading":12457,"Ġdoubt":12458,"142":12459,"Ġcusps":12460,"Ġchambers":12461,"quant":12462,"Ġsuggestive":12463,"Ġdesigns":12464,"Ġrunaway":12465,"Ġtolerance":12466,"plus":12467,"Ġbeaming":12468,"Ġpushed":12469,"cho":12470,"prime":12471,"Ġcontents":12472,"Ġ012":12473,"redic":12474,"047":12475,"Ġzeld":12476,"arm":12477,"step":12478,"ogenic":12479,"cool":12480,"Ġpriority":12481,"Ġqueries":12482,"ypical":12483,"Ġphenix":12484,"Ġisomorphisms":12485,"proble":12486,"rone":12487,"Ġschur":12488,"Ġafterwards":12489,"Ġedition":12490,"appa":12491,"Ġrotationally":12492,"tian":12493,"arell":12494,"cope":12495,"Ġhyperon":12496,"Ġreconc":12497,"Ġinducing":12498,"Ġ313":12499,"Ġunconst":12500,"Ġpspc":12501,"Ġky":12502,"Ġdirector":12503,"lectively":12504,"Ġsmir":12505,"Ġyosh":12506,"rences":12507,"Ġblind":12508,"Ġmisal":12509,"Ġdilepton":12510,"Ġrichness":12511,"Ġhomotopic":12512,"Ġhdf":12513,"Ġ238":12514,"Ġirradiated":12515,"oe":12516,"Ġeph":12517,"leb":12518,"Ġplatform":12519,"Ġjeff":12520,"]]-":12521,"Ġ329":12522,"Ġ512":12523,"Ġolive":12524,"Ġcompilation":12525,"Ġwetting":12526,"Ġbent":12527,"225":12528,"Ġannuli":12529,"Ġ015":12530,"Ġlastly":12531,"Ġ212":12532,"Ġgad":12533,"Ġricher":12534,"Ġalternatives":12535,"Ġaur":12536,"Ġtravers":12537,"Ġresonators":12538,"Ġforn":12539,"Ġ433":12540,"Ġprocessor":12541,"Ġschu":12542,"Ġapex":12543,"aud":12544,"Ġpictures":12545,"Ġicec":12546,"wf":12547,"Ġces":12548,"Ġcomplications":12549,"Ġtagged":12550,"Ġhon":12551,"Ġaxioms":12552,"Ġoperates":12553,"Ġhistorical":12554,"Ġgk":12555,"Ġattains":12556,"Ġtric":12557,"etermin":12558,"Ġdaugh":12559,"216":12560,"Ġ3000":12561,"Ġloose":12562,"Ġsublattices":12563,"vey":12564,"Ġkre":12565,"Ġcoars":12566,"Ġclosing":12567,"Ġphotoemission":12568,"Ġfel":12569,"Ġkelvin":12570,"Ġprotoplanetary":12571,"Ġtill":12572,"Ġgga":12573,"Ġlifts":12574,"Ġwarped":12575,"Ġcrucially":12576,"Ġoverden":12577,"astically":12578,"Ġcodeword":12579,"Ġease":12580,"Ġ438":12581,"Ġbart":12582,"Ġelaborate":12583,"Ġstratified":12584,"Ġplaying":12585,"Ġ501":12586,"Ġassignments":12587,"Ġwaveguides":12588,"Ġkut":12589,"Ġovershoot":12590,"ignific":12591,"Ġintervening":12592,"ayama":12593,"Ġmq":12594,"Ġwavepack":12595,"Ġskewness":12596,"Ġpis":12597,"Ġinternet":12598,"Ġsham":12599,"cryst":12600,"sation":12601,"Ġswept":12602,"Ġkane":12603,"Ġpermanent":12604,"325":12605,"Ġirreversible":12606,"Ġphenomenologically":12607,"Ġlatex":12608,"Ġpoissonian":12609,"Ġbill":12610,"Ġunconstrained":12611,"Ġsonic":12612,"imple":12613,"rows":12614,"Ġfermilab":12615,"Ġwheeler":12616,"Ġbv":12617,"Ġyuan":12618,"Ġ1960":12619,"Ġ169":12620,"ombic":12621,"Ġhair":12622,"Ġnaively":12623,"Ġdiluted":12624,"rams":12625,"Ġcompos":12626,"Ġdistinc":12627,"Ġtub":12628,"Ġ436":12629,"lc":12630,"Ġmetropolis":12631,"Ġunusually":12632,"fur":12633,"Ġfirstpage":12634,"bund":12635,"Ġupdating":12636,"Ġfundamentally":12637,"Ġvacua":12638,"Ġlum":12639,"Ġ159":12640,"Ġ435":12641,"10631":12642,"Ġicecube":12643,"Ġsaturn":12644,"Ġpolytropic":12645,"ender":12646,"Ġkb":12647,"Ġmodal":12648,"Ġmicrocanonical":12649,"Ġintellig":12650,"Ġ415":12651,"Ġye":12652,"Ġhlder":12653,"Ġspie":12654,"Ġsha":12655,"Ġnept":12656,"Ġned":12657,"Ġsmallness":12658,"Ġfastest":12659,"Ġvoronoi":12660,"eks":12661,"Ġswim":12662,"Ġzeus":12663,"iani":12664,"Ġinterpol":12665,"Ġglassy":12666,"Ġemerged":12667,"Ġadjustment":12668,"Ġitinerant":12669,"Ġvisco":12670,"Ġamen":12671,"anese":12672,"asa":12673,"Ġfilamentary":12674,"Ġlegendrian":12675,"Ġtriggering":12676,"Ġhints":12677,"Ġfibr":12678,"tium":12679,"Ġdeconfinement":12680,"Ġris":12681,"Ġmembranes":12682,"Ġmultim":12683,"Ġkumar":12684,"coordin":12685,"Ġsupplied":12686,"Ġdivisors":12687,"Ġevan":12688,"product":12689,"Ġtid":12690,"Ġpra":12691,"Ġionisation":12692,"Ġobj":12693,"Ġuma":12694,"Ġ321":12695,"Ġappealing":12696,"Ġunimp":12697,"Ġfault":12698,"Ġflatness":12699,"Ġrenormalizable":12700,"063":12701,"Ġ280":12702,"ala":12703,"Ġ285":12704,"Ġhydroph":12705,"Ġgerm":12706,"Ġnames":12707,"lot":12708,"ige":12709,"Ġresistive":12710,"formal":12711,"Ġphotoelectron":12712,"Ġmarc":12713,"giant":12714,"450":12715,"Ġ331":12716,"Ġsurvives":12717,"Ġ260":12718,"Ġnewman":12719,"Ġpengu":12720,"Ġisoc":12721,"Ġsupercritical":12722,"Ġvlba":12723,"Ġdislocations":12724,"Ġchoi":12725,"Ġhartmann":12726,"Ġ190":12727,"alline":12728,"Ġ409":12729,"Ġtriggers":12730,"Ġcomprised":12731,"Ġsuzuki":12732,"Ġeverything":12733,"osov":12734,"Ġwright":12735,"Ġsir":12736,"Ġbearing":12737,"Ġclifford":12738,"Ġschro":12739,"Ġlightcurves":12740,"Ġlives":12741,"Ġpentag":12742,"Ġinvoking":12743,"Ġholland":12744,"Ġtk":12745,"Ġprism":12746,"Ġbraun":12747,"Ġsommer":12748,"Ġphilos":12749,"Ġferroelectric":12750,"Ġcorro":12751,"Ġscuba":12752,"Ġtravelling":12753,"jj":12754,"Ġ360":12755,"Ġexcitonic":12756,"],,":12757,"Ġpythia":12758,"Ġrestoration":12759,"Ġ298":12760,"Ġ5000":12761,"Ġwatson":12762,"ipping":12763,"Ġ,.":12764,"Ġjiang":12765,"307":12766,"Ġ348":12767,"131":12768,"Ġbaselines":12769,"oon":12770,"arge":12771,"Ġsensitivities":12772,"tm":12773,"Ġ4000":12774,"holm":12775,"Ġcrypt":12776,"rally":12777,"Ġtrials":12778,"054":12779,"Ġmultipliers":12780,"]).,":12781,"Ġbabar":12782,"1088":12783,"Ġvisit":12784,"Ġdfg":12785,"Ġambiguous":12786,"deev":12787,"Ġprospects":12788,"Ġmultiples":12789,"Ġneck":12790,"Ġlaunched":12791,"Ġadministration":12792,"orh":12793,"coni":12794,"sif":12795,"silon":12796,"Ġcongruence":12797,"Ġwc":12798,"advant":12799,"Ġrope":12800,"Ġminimizer":12801,"Ġmillisecond":12802,"Ġlid":12803,"rap":12804,"Ġurb":12805,"139":12806,"Ġwhence":12807,"Ġguiding":12808,"Ġanything":12809,"Ġprotostar":12810,"Ġsuperh":12811,"Ġlorenz":12812,"emi":12813,"Ġcomparatively":12814,"Ġtachyon":12815,"Ġ247":12816,"Ġfrancisco":12817,"Ġsinglets":12818,"amiok":12819,"Ġearliest":12820,"Ġvr":12821,"Ġblueshifted":12822,"meg":12823,"bone":12824,"iman":12825,"Ġspecially":12826,"orgab":12827,"210":12828,"Ġindexes":12829,"Ġ218":12830,"Ġbcc":12831,"Ġtok":12832,"Ġsolitary":12833,"Ġbehaved":12834,"Ġenabling":12835,"Ġselects":12836,"Ġmeant":12837,"Ġmatth":12838,"Ġsquid":12839,"Ġretrieved":12840,"Ġmst":12841,"Ġdisrupted":12842,"Ġoccasion":12843,"Ġdisadvant":12844,"Ġenergetics":12845,"Ġdecor":12846,"sym":12847,"Ġpolytopes":12848,"Ġenlarged":12849,"tc":12850,"Ġapproximates":12851,"analy":12852,"Ġyau":12853,"Ġdord":12854,"195":12855,"Ġ263":12856,"Ġelongation":12857,"ysis":12858,"Ġnonclassical":12859,"Ġextrapolate":12860,"Ġbarnes":12861,"Ġwiener":12862,"Ġtransported":12863,"erential":12864,"ibo":12865,"ellations":12866,"Ġabc":12867,"Ġnaked":12868,"Ġpain":12869,"idist":12870,"Ġzeldovich":12871,"Ġthousand":12872,"Ġqn":12873,"Ġisochrone":12874,"Ġreddened":12875,"Ġsemilept":12876,"Ġgrom":12877,"size":12878,"Ġ336":12879,"Ġ181":12880,"qubit":12881,"Ġapprox":12882,"right":12883,"Ġkap":12884,"Ġfern":12885,"Ġbranched":12886,"Ġlesser":12887,"nick":12888,"particles":12889,"Ġdelocalized":12890,"magnetic":12891,"Ġsmgs":12892,"Ġmitig":12893,"alistic":12894,"Ġenormous":12895,"Ġcomet":12896,"Ġzr":12897,"Ġsmirnov":12898,"Ġmerit":12899,"yclic":12900,"Ġstopped":12901,"Ġentities":12902,"Ġdrell":12903,"Ġfiner":12904,"Ġsuccessively":12905,"Ġ347":12906,"Ġcomprise":12907,"versi":12908,"Ġue":12909,"Ġbelief":12910,"haw":12911,"Ġ202":12912,"Ġarticles":12913,"Ġmultiplex":12914,"Ġboosted":12915,"ovsk":12916,"Ġprices":12917,"Ġ1963":12918,"Ġcogn":12919,"Ġscott":12920,"Ġ287":12921,"arer":12922,"Ġ317":12923,"Ġranking":12924,"ynchron":12925,"Ġisob":12926,"Ġ1962":12927,"Ġlocking":12928,"Ġlinearization":12929,"Ġdaily":12930,"Ġrain":12931,"Ġflips":12932,"cross":12933,"Ġassociative":12934,"Ġinterpolated":12935,"Ġkaiser":12936,"du":12937,"Ġ423":12938,"Ġdeploy":12939,"Ġzoom":12940,"Ġnonsingular":12941,"Ġporous":12942,"Ġubiquitous":12943,"Ġmagnetar":12944,"Ġsnia":12945,"1111":12946,"Ġsideband":12947,"Ġdiverging":12948,"ignificant":12949,"Ġimpulse":12950,"Ġturnover":12951,"Ġsegmentation":12952,"Ġtar":12953,"Ġ399":12954,"041":12955,"Ġ179":12956,"ulum":12957,"Ġtauri":12958,"Ġrewriting":12959,"general":12960,"Ġkalu":12961,"Ġparker":12962,"Ġkaons":12963,"Ġkronecker":12964,"efined":12965,"je":12966,"Ġsigm":12967,"Ġferromagnetism":12968,"Ġfft":12969,"Ġcoron":12970,"nb":12971,"equation":12972,"Ġstrands":12973,"pre":12974,"Ġtransiting":12975,"Ġreturned":12976,"Ġfaithful":12977,"Ġmultidimensional":12978,"Ġsymbolic":12979,"Ġimpacts":12980,"Ġinclusions":12981,"Ġmcg":12982,"optim":12983,"Ġlieb":12984,"Ġcq":12985,"Ġmjd":12986,"Ġocean":12987,"Ġsubjects":12988,"Ġexcite":12989,"Ġphd":12990,"ungs":12991,"Ġsemileptonic":12992,"cons":12993,"equivariant":12994,"ixed":12995,"Ġmorris":12996,"Ġhump":12997,"Ġpertain":12998,"Ġmack":12999,"1301":13000,"Ġ429":13001,"]-(":13002,"baum":13003,"Ġnoticing":13004,"Ġ178":13005,"Ġsymmetrically":13006,"Ġcritically":13007,"Ġsuprem":13008,"Ġvill":13009,"Ġik":13010,"outs":13011,"Ġdiffeomorphisms":13012,"Ġkubo":13013,"Ġmaximized":13014,"Ġratch":13015,"Ġnik":13016,"Ġbepp":13017,"gal":13018,"Ġwaveforms":13019,"Ġ269":13020,"Ġchromatic":13021,"Ġhut":13022,"Ġrecording":13023,"Ġsetups":13024,"igen":13025,"Ġdestructive":13026,"3333":13027,"Ġ164":13028,"year":13029,"Ġdurations":13030,"Ġevaluations":13031,"Ġinactive":13032,"Ġdisentangle":13033,"Ġcoexist":13034,"Ġhandled":13035,"rema":13036,"Ġheterogeneity":13037,"Ġspr":13038,"result":13039,"Ġentity":13040,"Ġkluwer":13041,"Ġkul":13042,"Ġ407":13043,"fol":13044,"Ġhelix":13045,"Ġtrigonometric":13046,"formed":13047,"Ġlaes":13048,"boson":13049,"Ġprescriptions":13050,"Ġ311":13051,"Ġconverting":13052,"Ġquiescence":13053,"Ġtied":13054,"Ġminute":13055,"Ġcapillary":13056,"Ġtranspose":13057,"Ġnanoc":13058,"Ġentrance":13059,"190":13060,"Ġunited":13061,"253":13062,"Ġmaximizes":13063,"Ġfaber":13064,"Ġmats":13065,"irection":13066,"Ġspecifies":13067,"Ġproxy":13068,"Ġov":13069,"Ġpowder":13070,"Ġinvoke":13071,"Ġbbn":13072,"Ġtrailing":13073,"otz":13074,"Ġspent":13075,"Ġprojecting":13076,"Ġ565":13077,"2013":13078,"056":13079,"Ġsubmm":13080,"bell":13081,"Ġcoset":13082,"Ġseism":13083,"Ġxis":13084,"Ġannealed":13085,"Ġjames":13086,"core":13087,"itary":13088,"Ġaddressing":13089,"owicz":13090,"Ġnoises":13091,"Ġdeli":13092,"Ġpermitted":13093,"system":13094,"Ġtiss":13095,"Ġgps":13096,"Ġphosph":13097,"Ġloses":13098,"Ġderives":13099,"Ġmonoidal":13100,"Ġinsignificant":13101,"Ġnielsen":13102,"Ġnj":13103,"Ġtrust":13104,"Ġ455":13105,"ortant":13106,"Ġanymore":13107,"Ġcontroversi":13108,"Ġliv":13109,"Ġunavoid":13110,"Ġchakrab":13111,"ecm":13112,"Ġbrevity":13113,"Ġshrinks":13114,"Ġrescattering":13115,"Ġcompactly":13116,"Ġarrayc":13117,"Ġdod":13118,"Ġsfh":13119,"Ġ162":13120,"080":13121,"ndez":13122,"xj":13123,"Ġnk":13124,"Ġlever":13125,"Ġweek":13126,"Ġdictated":13127,"Ġtuple":13128,"Ġrud":13129,"Ġemploys":13130,"Ġrevolution":13131,"Ġaraa":13132,"wich":13133,"Ġperic":13134,"Ġnjl":13135,"Ġviolations":13136,"lights":13137,"rw":13138,"Ġfinish":13139,"Ġnicmos":13140,"Ġensuring":13141,"idelberg":13142,"Ġ395":13143,"Ġ277":13144,"Ġinstrumentation":13145,"Ġepisodes":13146,"162":13147,"Ġ340":13148,"oscale":13149,"Ġobservatories":13150,"Ġdepict":13151,"Ġcayley":13152,"Ġeth":13153,"Ġincompatible":13154,"Ġunw":13155,"lining":13156,"Ġaccompanying":13157,"Ġreversing":13158,"Ġsuperb":13159,"length":13160,"Ġmultifract":13161,"Ġunrealistic":13162,"Ġ168":13163,"Ġorientational":13164,"orbed":13165,"Ġrmf":13166,"Ġeaves":13167,"ieri":13168,"Ġtableau":13169,"erers":13170,"scaling":13171,"conver":13172,"Ġprojectors":13173,"Ġshares":13174,"Ġcommit":13175,"orth":13176,"Ġ326":13177,"enson":13178,"ierls":13179,"Ġclassifications":13180,"Ġdifferentiate":13181,"khar":13182,"ynski":13183,"Ġpinch":13184,"Ġmec":13185,"Ġ281":13186,"Ġwonder":13187,"Ġgriff":13188,"expansion":13189,"Ġergodicity":13190,"Ġhugh":13191,"085":13192,"Ġheckman":13193,"Ġidem":13194,"not":13195,"Ġcav":13196,"Ġpitaev":13197,"062":13198,"Ġtechnological":13199,"Ġker":13200,"Ġgeophys":13201,"Ġ338":13202,"194":13203,"tru":13204,"Ġkramers":13205,"Ġvand":13206,"mond":13207,"Ġhires":13208,"bf":13209,"Ġadatom":13210,"Ġroad":13211,"Ġelegant":13212,"Ġuniformity":13213,"Ġfringe":13214,"Ġadvantageous":13215,"Ġephemer":13216,"Ġreplaces":13217,"Ġtwenty":13218,"Ġvisually":13219,"Ġeikonal":13220,"153":13221,"Ġwebs":13222,"Ġheidelberg":13223,"Ġbarycent":13224,"Ġobeying":13225,"oule":13226,"Ġach":13227,"Ġbiom":13228,"cuo":13229,"ora":13230,"Ġ445":13231,"Ġtransvers":13232,"positions":13233,"Ġbenefits":13234,"Ġbackscattering":13235,"Ġkov":13236,"Ġgeneralizing":13237,"Ġbondi":13238,"Ġoblique":13239,"rer":13240,"yt":13241,"Ġoii":13242,"Ġsupergiant":13243,"Ġsuspect":13244,"Ġchromosphere":13245,"Ġnish":13246,"Ġunimportant":13247,"Ġmori":13248,"occup":13249,"Ġ146":13250,"amiokande":13251,"Ġpathways":13252,"Ġnii":13253,"Ġsach":13254,"ograms":13255,"sterdam":13256,"pul":13257,"Ġexpense":13258,"Ġparty":13259,"Ġ344":13260,"Ġunpre":13261,"Ġprecess":13262,"Ġtur":13263,"Ġkinks":13264,"Ġpositioned":13265,"Ġlaurent":13266,"Ġfiz":13267,"Ġcrystallographic":13268,"Ġattributes":13269,"Ġdistinctive":13270,"Ġmell":13271,"agi":13272,"Ġassistance":13273,"Ġrock":13274,"Ġcascades":13275,"graded":13276,"Ġbimod":13277,"224":13278,"Ġ259":13279,"Ġ397":13280,"Ġembr":13281,"Ġjen":13282,"Ġelev":13283,"Ġoccul":13284,"weighted":13285,"Ġvhe":13286,"Ġtransits":13287,"nell":13288,"cycles":13289,"Ġamsterdam":13290,"sd":13291,"Ġdish":13292,"Ġlooked":13293,"Ġpropulsion":13294,"ventional":13295,"uric":13296,"moment":13297,"alid":13298,"Ġxte":13299,"Ġ324":13300,"Ġparticipation":13301,"Ġgraham":13302,"Ġ427":13303,"Ġeman":13304,"Ġsusceptibilities":13305,"ampling":13306,"Ġcobord":13307,"kes":13308,"olsky":13309,"Ġya":13310,"look":13311,"Ġeisen":13312,"acu":13313,"Ġleader":13314,"Ġpeierls":13315,"Ġ055":13316,"Ġdordrecht":13317,"Ġthro":13318,"Ġfunctors":13319,"Ġmeridional":13320,"Ġnormalizing":13321,"Ġ1961":13322,"Ġoph":13323,"Ġkj":13324,"Ġraise":13325,"physreva":13326,"entified":13327,"Ġaeron":13328,"Ġperson":13329,"Ġuniversities":13330,"Ġcontractible":13331,"146":13332,"Ġattachment":13333,"pix":13334,"Ġenthal":13335,"zpicture":13336,"Ġwants":13337,"Ġlatexmath":13338,"154":13339,"Ġoptimizing":13340,"\",,,,,,":13341,"Ġbahcall":13342,"bra":13343,"Ġ191":13344,"tree":13345,"Ġ172":13346,"Ġradioactive":13347,"high":13348,"Ġscientists":13349,"Ġjensen":13350,"Ġ1500":13351,"Ġevanescent":13352,"Ġsubprocess":13353,"Ġnoteworthy":13354,"Ġparticipants":13355,"Ġck":13356,"Ġ511":13357,"ental":13358,"Ġ351":13359,"Ġnakamura":13360,"Ġtrim":13361,"Ġmik":13362,"Ġblending":13363,"Ġinfection":13364,"Ġunobser":13365,"Ġplacement":13366,"Ġscores":13367,"turn":13368,"Ġunpreced":13369,"eger":13370,"Ġsaturate":13371,"Ġbjork":13372,"Ġsolen":13373,"Ġschul":13374,"lt":13375,"Ġ257":13376,"Ġmildly":13377,"Ġloos":13378,"Ġconsisted":13379,"Ġchandrase":13380,"strm":13381,"149":13382,"Ġblandford":13383,"Ġhighlights":13384,"Ġbraz":13385,"Ġcss":13386,"Ġeft":13387,"232":13388,"acluster":13389,"Ġmari":13390,"Ġcollaborators":13391,"Ġeis":13392,"Ġtraditionally":13393,"Ġchebyshev":13394,"Ġmonoid":13395,"Ġpup":13396,"alla":13397,"Ġcollide":13398,"Ġlan":13399,"Ġbraking":13400,"Ġdistill":13401,"Ġseemingly":13402,"Ġnanowire":13403,"bm":13404,"luminal":13405,"label":13406,"lr":13407,"Ġpropagated":13408,"oning":13409,"oyama":13410,"Ġtern":13411,"Ġ369":13412,"Ġgrouped":13413,"Ġiib":13414,"rected":13415,"hoff":13416,"234":13417,"Ġintercept":13418,"Ġjin":13419,"Ġ437":13420,"Ġmagenta":13421,"Ġcompensation":13422,"comple":13423,"Ġflattened":13424,"Ġsubsamples":13425,"Ġzheng":13426,"Ġjackson":13427,"Ġacyclic":13428,"Ġequalities":13429,"Ġtechnically":13430,"Ġpartitioned":13431,"Ġheart":13432,"Ġsignaling":13433,"Ġstef":13434,"Ġrealizing":13435,"Ġbennett":13436,"leneck":13437,"Ġtidally":13438,"erson":13439,"Ġja":13440,"Ġhof":13441,"wal":13442,"inner":13443,"imum":13444,"152":13445,"!-":13446,"Ġholding":13447,"Ġrectangles":13448,"Ġnod":13449,"meas":13450,"spots":13451,"Ġquote":13452,"Ġresides":13453,"Ġresolvent":13454,"Ġmeter":13455,"Ġextrema":13456,"Ġwavefront":13457,"Ġvc":13458,"227":13459,"Ġdisturbed":13460,"oux":13461,"Ġshib":13462,"separ":13463,"Ġ318":13464,"Ġexcludes":13465,"Ġarrangements":13466,"bius":13467,"Ġintermittent":13468,"eldysh":13469,"rast":13470,"Ġstaff":13471,"Ġpose":13472,"enon":13473,"Ġnash":13474,"opt":13475,"Ġ439":13476,"Ġchirp":13477,"Ġcomptonization":13478,"print":13479,"pert":13480,"Ġsecre":13481,"Ġunprecedented":13482,"dim":13483,"Ġsummand":13484,"Ġrarely":13485,"Ġrecommend":13486,"Ġcorrelates":13487,"Ġhyperplanes":13488,"Ġlaz":13489,"Ġsato":13490,"Ġvaluation":13491,"Ġwoos":13492,"Ġaeronau":13493,"317":13494,"Ġmoh":13495,"Ġbottleneck":13496,"ilar":13497,"Ġfarther":13498,"Ġweeks":13499,"Ġ025":13500,"Ġphotoc":13501,"itably":13502,"Ġbecker":13503,"Ġintracluster":13504,"deriv":13505,"Ġhyperc":13506,"Ġfeng":13507,"Ġfle":13508,"Ġretr":13509,"Ġdeclination":13510,"Ġtwists":13511,"Ġmicrom":13512,"titial":13513,"Ġextrapol":13514,"Ġ517":13515,"Ġmcke":13516,"-,":13517,"Ġstations":13518,"Ġpeg":13519,"Ġdealt":13520,"Ġamenable":13521,"Ġshoul":13522,"forming":13523,"ansky":13524,"Ġcoherently":13525,"Ġfsr":13526,"Ġ221":13527,"Ġchildren":13528,"eras":13529,"Ġ465":13530,"057":13531,"Ġviews":13532,"Ġbear":13533,"Ġsilica":13534,"Ġzi":13535,"Ġwagner":13536,"Ġfornax":13537,"Ġcontracted":13538,"integration":13539,"Ġadjustable":13540,"Ġpioneering":13541,"Ġ156":13542,"imov":13543,"Ġsurviving":13544,"Ġ152":13545,"Ġtully":13546,"distribution":13547,"Ġpermeability":13548,"Ġwoosley":13549,"pheres":13550,"Ġ283":13551,"Ġteller":13552,"rao":13553,"Ġpitaevskii":13554,"arcs":13555,"Ġgraining":13556,"olor":13557,"Ġswa":13558,"egaard":13559,"Ġviolates":13560,"far":13561,"Ġinsets":13562,"Ġsupremum":13563,"gt":13564,"Ġcommission":13565,"shock":13566,"Ġsper":13567,"Ġdilation":13568,"zr":13569,"science":13570,"Ġvalidate":13571,"hk":13572,"Ġ495":13573,"Ġfloating":13574,"Ġnorman":13575,"Ġbarely":13576,"073":13577,"Ġmutations":13578,"ante":13579,"Ġrelying":13580,"Ġgis":13581,"Ġfeii":13582,"Ġaggregates":13583,"Ġroutines":13584,"Ġinteratomic":13585,"istered":13586,"236":13587,"Ġdup":13588,"urface":13589,"Ġmyers":13590,"Ġfloor":13591,"Ġfiring":13592,"Ġrept":13593,"Ġey":13594,"Ġorthorh":13595,"Ġsynaptic":13596,"ambda":13597,")].":13598,"np":13599,"frame":13600,"Ġpullback":13601,"Ġsummer":13602,"Ġ353":13603,"Ġstau":13604,"omega":13605,"ettes":13606,"Ġjoined":13607,"alez":13608,"458":13609,"Ġretaining":13610,"Ġpenc":13611,"202":13612,"Ġstabilizing":13613,"Ġaeronautics":13614,"asy":13615,"Ġleh":13616,"rett":13617,"rade":13618,"wig":13619,"Ġnonline":13620,"Ġmaybe":13621,"Ġeliminates":13622,"Ġseparatrix":13623,"Ġkeldysh":13624,"Ġ379":13625,"Ġperse":13626,"141":13627,"rip":13628,"Ġgemini":13629,"reto":13630,"Ġcombinatorics":13631,"onia":13632,"Ġmaxwellian":13633,"Ġchapman":13634,"Ġattacks":13635,"wind":13636,"compact":13637,"Ġcollins":13638,"Ġconic":13639,"Ġdry":13640,"156":13641,"Ġrepetition":13642,"Ġxj":13643,"Ġforsch":13644,"morph":13645,"imm":13646,"163":13647,"084":13648,"Ġputs":13649,"integral":13650,"Ġsuzaku":13651,"Ġinterstitial":13652,"Ġunrelated":13653,"Ġunconventional":13654,"Ġplugging":13655,"Ġmasked":13656,"Ġfaddeev":13657,"Ġgarca":13658,"omy":13659,"Ġpit":13660,"hedral":13661,"Ġchandrasekhar":13662,"Ġoxides":13663,"Ġwavenumbers":13664,"Ġellipsoidal":13665,
[...]
